{
  "version": "1.0",
  "truncation": null,
  "padding": null,
  "added_tokens": [],
  "normalizer": null,
  "pre_tokenizer": {
    "type": "ByteLevel",
    "add_prefix_space": false,
    "trim_offsets": true,
    "use_regex": true
  },
  "post_processor": {
    "type": "ByteLevel",
    "add_prefix_space": true,
    "trim_offsets": false,
    "use_regex": true
  },
  "decoder": {
    "type": "ByteLevel",
    "add_prefix_space": true,
    "trim_offsets": true,
    "use_regex": true
  },
  "model": {
    "type": "BPE",
    "dropout": null,
    "unk_token": null,
    "continuing_subword_prefix": "",
    "end_of_word_suffix": "",
    "fuse_unk": false,
    "byte_fallback": false,
    "ignore_merges": false,
    "vocab": {
      "<|eos|>": 0,
      "!": 1,
      "\"": 2,
      "#": 3,
      "$": 4,
      "%": 5,
      "&": 6,
      "'": 7,
      "(": 8,
      ")": 9,
      "*": 10,
      "+": 11,
      ",": 12,
      "-": 13,
      ".": 14,
      "/": 15,
      "0": 16,
      "1": 17,
      "2": 18,
      "3": 19,
      "4": 20,
      "5": 21,
      "6": 22,
      "7": 23,
      "8": 24,
      "9": 25,
      ":": 26,
      ";": 27,
      "<": 28,
      "=": 29,
      ">": 30,
      "?": 31,
      "@": 32,
      "A": 33,
      "B": 34,
      "C": 35,
      "D": 36,
      "E": 37,
      "F": 38,
      "G": 39,
      "H": 40,
      "I": 41,
      "J": 42,
      "K": 43,
      "L": 44,
      "M": 45,
      "N": 46,
      "O": 47,
      "P": 48,
      "Q": 49,
      "R": 50,
      "S": 51,
      "T": 52,
      "U": 53,
      "V": 54,
      "W": 55,
      "X": 56,
      "Y": 57,
      "Z": 58,
      "[": 59,
      "\\": 60,
      "]": 61,
      "^": 62,
      "_": 63,
      "`": 64,
      "a": 65,
      "b": 66,
      "c": 67,
      "d": 68,
      "e": 69,
      "f": 70,
      "g": 71,
      "h": 72,
      "i": 73,
      "j": 74,
      "k": 75,
      "l": 76,
      "m": 77,
      "n": 78,
      "o": 79,
      "p": 80,
      "q": 81,
      "r": 82,
      "s": 83,
      "t": 84,
      "u": 85,
      "v": 86,
      "w": 87,
      "x": 88,
      "y": 89,
      "z": 90,
      "{": 91,
      "|": 92,
      "}": 93,
      "~": 94,
      "¡": 95,
      "¢": 96,
      "£": 97,
      "¤": 98,
      "¥": 99,
      "¦": 100,
      "§": 101,
      "¨": 102,
      "©": 103,
      "ª": 104,
      "«": 105,
      "¬": 106,
      "®": 107,
      "¯": 108,
      "°": 109,
      "±": 110,
      "²": 111,
      "³": 112,
      "´": 113,
      "µ": 114,
      "¶": 115,
      "·": 116,
      "¸": 117,
      "¹": 118,
      "º": 119,
      "»": 120,
      "¼": 121,
      "½": 122,
      "¾": 123,
      "¿": 124,
      "À": 125,
      "Á": 126,
      "Â": 127,
      "Ã": 128,
      "Ä": 129,
      "Å": 130,
      "Æ": 131,
      "Ç": 132,
      "È": 133,
      "É": 134,
      "Ê": 135,
      "Ë": 136,
      "Ì": 137,
      "Í": 138,
      "Î": 139,
      "Ï": 140,
      "Ð": 141,
      "Ñ": 142,
      "Ò": 143,
      "Ó": 144,
      "Ô": 145,
      "Õ": 146,
      "Ö": 147,
      "×": 148,
      "Ø": 149,
      "Ù": 150,
      "Ú": 151,
      "Û": 152,
      "Ü": 153,
      "Ý": 154,
      "Þ": 155,
      "ß": 156,
      "à": 157,
      "á": 158,
      "â": 159,
      "ã": 160,
      "ä": 161,
      "å": 162,
      "æ": 163,
      "ç": 164,
      "è": 165,
      "é": 166,
      "ê": 167,
      "ë": 168,
      "ì": 169,
      "í": 170,
      "î": 171,
      "ï": 172,
      "ð": 173,
      "ñ": 174,
      "ò": 175,
      "ó": 176,
      "ô": 177,
      "õ": 178,
      "ö": 179,
      "÷": 180,
      "ø": 181,
      "ù": 182,
      "ú": 183,
      "û": 184,
      "ü": 185,
      "ý": 186,
      "þ": 187,
      "ÿ": 188,
      "Ā": 189,
      "ā": 190,
      "Ă": 191,
      "ă": 192,
      "Ą": 193,
      "ą": 194,
      "Ć": 195,
      "ć": 196,
      "Ĉ": 197,
      "ĉ": 198,
      "Ċ": 199,
      "ċ": 200,
      "Č": 201,
      "č": 202,
      "Ď": 203,
      "ď": 204,
      "Đ": 205,
      "đ": 206,
      "Ē": 207,
      "ē": 208,
      "Ĕ": 209,
      "ĕ": 210,
      "Ė": 211,
      "ė": 212,
      "Ę": 213,
      "ę": 214,
      "Ě": 215,
      "ě": 216,
      "Ĝ": 217,
      "ĝ": 218,
      "Ğ": 219,
      "ğ": 220,
      "Ġ": 221,
      "ġ": 222,
      "Ģ": 223,
      "ģ": 224,
      "Ĥ": 225,
      "ĥ": 226,
      "Ħ": 227,
      "ħ": 228,
      "Ĩ": 229,
      "ĩ": 230,
      "Ī": 231,
      "ī": 232,
      "Ĭ": 233,
      "ĭ": 234,
      "Į": 235,
      "į": 236,
      "İ": 237,
      "ı": 238,
      "Ĳ": 239,
      "ĳ": 240,
      "Ĵ": 241,
      "ĵ": 242,
      "Ķ": 243,
      "ķ": 244,
      "ĸ": 245,
      "Ĺ": 246,
      "ĺ": 247,
      "Ļ": 248,
      "ļ": 249,
      "Ľ": 250,
      "ľ": 251,
      "Ŀ": 252,
      "ŀ": 253,
      "Ł": 254,
      "ł": 255,
      "Ń": 256,
      "Ġt": 257,
      "Ġa": 258,
      "he": 259,
      "in": 260,
      "re": 261,
      "Ġthe": 262,
      "on": 263,
      "er": 264,
      "Ġo": 265,
      "at": 266,
      "Ġs": 267,
      "en": 268,
      "Ġc": 269,
      "Ġw": 270,
      "es": 271,
      "is": 272,
      "nd": 273,
      "it": 274,
      "or": 275,
      "Ġp": 276,
      "al": 277,
      "ed": 278,
      "Ġb": 279,
      "Ġof": 280,
      "an": 281,
      "Ġf": 282,
      "ing": 283,
      "Ġin": 284,
      "ar": 285,
      "ou": 286,
      "Ġm": 287,
      "Ġand": 288,
      "Ġto": 289,
      "ic": 290,
      "Ġd": 291,
      "ion": 292,
      "le": 293,
      "ro": 294,
      "as": 295,
      "Ġh": 296,
      "Ġth": 297,
      "ent": 298,
      "ct": 299,
      "Ġe": 300,
      "il": 301,
      "Ġre": 302,
      "ĠT": 303,
      "om": 304,
      "ve": 305,
      "Ġl": 306,
      "Ġn": 307,
      "st": 308,
      "ly": 309,
      "Ġbe": 310,
      "âĢ": 311,
      "Ġis": 312,
      "se": 313,
      "ĠA": 314,
      "ol": 315,
      "Ġg": 316,
      "ation": 317,
      "im": 318,
      "id": 319,
      "et": 320,
      "ut": 321,
      "ĠS": 322,
      "ce": 323,
      "ur": 324,
      "ot": 325,
      "ĠI": 326,
      "ra": 327,
      "ch": 328,
      "ow": 329,
      "Ġfor": 330,
      "ig": 331,
      "ĠC": 332,
      "Ġthat": 333,
      "Ġon": 334,
      "Ġu": 335,
      "Ġst": 336,
      "ver": 337,
      "ĠThe": 338,
      "ir": 339,
      "Ġy": 340,
      "ul": 341,
      "ay": 342,
      "am": 343,
      "Ġas": 344,
      "el": 345,
      "ith": 346,
      "ad": 347,
      "her": 348,
      "Ġpro": 349,
      "Ġcon": 350,
      "Ġare": 351,
      "ĠM": 352,
      "Ġan": 353,
      "Ġwith": 354,
      "Ġwh": 355,
      "if": 356,
      "Ġit": 357,
      "Ġor": 358,
      "ĠP": 359,
      "Ġal": 360,
      "Ġ(": 361,
      "ter": 362,
      "Ġyou": 363,
      "od": 364,
      "Ġ1": 365,
      "ĠB": 366,
      "ment": 367,
      "ge": 368,
      "th": 369,
      "op": 370,
      "ist": 371,
      "ate": 372,
      "ers": 373,
      "ĠW": 374,
      "Ġde": 375,
      "ĠH": 376,
      "ies": 377,
      "ill": 378,
      "Ġhe": 379,
      "ab": 380,
      "Ġex": 381,
      "ess": 382,
      "us": 383,
      "Ġwe": 384,
      "ore": 385,
      "ect": 386,
      "Ġsu": 387,
      "Ġcom": 388,
      "ity": 389,
      "âĢĻ": 390,
      "est": 391,
      "res": 392,
      "Ġha": 393,
      "ive": 394,
      "ĠD": 395,
      "ac": 396,
      "ld": 397,
      "rom": 398,
      "um": 399,
      "Ġv": 400,
      "os": 401,
      "Ġby": 402,
      "ĠE": 403,
      "ĠF": 404,
      "ke": 405,
      "em": 406,
      "iv": 407,
      "ant": 408,
      "ĠR": 409,
      "qu": 410,
      "Ġat": 411,
      "ain": 412,
      "nt": 413,
      "Ġwas": 414,
      "pp": 415,
      "Ġ-": 416,
      "igh": 417,
      "Ġfrom": 418,
      "ud": 419,
      "ĠâĢ": 420,
      "oc": 421,
      "Ġcan": 422,
      "and": 423,
      "Ġr": 424,
      "Ġch": 425,
      "ĠN": 426,
      "Ġ2": 427,
      "ort": 428,
      "Ġne": 429,
      "Ġse": 430,
      "ial": 431,
      "ĠG": 432,
      "ĠL": 433,
      "ure": 434,
      "Ġnot": 435,
      "un": 436,
      "art": 437,
      "ical": 438,
      "Ġle": 439,
      "Ġhave": 440,
      "ri": 441,
      "Ġsh": 442,
      "og": 443,
      "Ġen": 444,
      "Ġthis": 445,
      "Ġsp": 446,
      "ĠO": 447,
      "ĠIn": 448,
      "00": 449,
      "ight": 450,
      "rou": 451,
      "ich": 452,
      "pt": 453,
      "Ġab": 454,
      "red": 455,
      "all": 456,
      "Ġwor": 457,
      "ther": 458,
      "ould": 459,
      "gh": 460,
      "our": 461,
      "ions": 462,
      "ome": 463,
      "ost": 464,
      "ated": 465,
      "du": 466,
      "Ġim": 467,
      "ine": 468,
      "Ġus": 469,
      "per": 470,
      "ard": 471,
      "out": 472,
      "Ġpl": 473,
      "ag": 474,
      "Ġtheir": 475,
      "ell": 476,
      "ĠJ": 477,
      "ide": 478,
      "ĠU": 479,
      "ff": 480,
      "ans": 481,
      "act": 482,
      "Ġint": 483,
      "ast": 484,
      "ear": 485,
      "pl": 486,
      "ĠTh": 487,
      "age": 488,
      "Ġwhich": 489,
      "ust": 490,
      "Ġk": 491,
      "ak": 492,
      "Ġwhe": 493,
      "ous": 494,
      "ec": 495,
      "Ġthey": 496,
      "iz": 497,
      "Ġall": 498,
      "ood": 499,
      "ib": 500,
      "Ġcont": 501,
      "Ġad": 502,
      "Ġyour": 503,
      "ult": 504,
      "Ġinc": 505,
      "Ġwill": 506,
      "cc": 507,
      "end": 508,
      "ap": 509,
      "ru": 510,
      "Ġdis": 511,
      "ia": 512,
      "ong": 513,
      "Ġmore": 514,
      "âĢĿ": 515,
      "ĠâĢľ": 516,
      "Ġcomp": 517,
      "ip": 518,
      "ew": 519,
      "Ġhas": 520,
      "Ġres": 521,
      "ations": 522,
      "vel": 523,
      "ere": 524,
      "ary": 525,
      "Ġdo": 526,
      "so": 527,
      "orm": 528,
      "ater": 529,
      "Ġother": 530,
      "Ġwere": 531,
      "ence": 532,
      "Ġbut": 533,
      "Ġman": 534,
      "Ġcl": 535,
      "able": 536,
      "ild": 537,
      "ual": 538,
      "are": 539,
      "ks": 540,
      "ry": 541,
      "'s": 542,
      "Ġone": 543,
      "ind": 544,
      "Ġper": 545,
      "ance": 546,
      "Ġme": 547,
      "ach": 548,
      "ep": 549,
      "Ġalso": 550,
      "Ġ19": 551,
      "Ġte": 552,
      "Ġimp": 553,
      "ose": 554,
      "ents": 555,
      "Ġ\"": 556,
      "reat": 557,
      "ass": 558,
      "ign": 559,
      "ress": 560,
      "ake": 561,
      "ĠSt": 562,
      "ase": 563,
      "au": 564,
      "Ġj": 565,
      "av": 566,
      "Ġso": 567,
      "ition": 568,
      "ĠIt": 569,
      "ction": 570,
      "Ġout": 571,
      "ber": 572,
      "Ġun": 573,
      "ice": 574,
      "Ġar": 575,
      "very": 576,
      "Ġpart": 577,
      "Ġapp": 578,
      "ime": 579,
      "ish": 580,
      "ĠK": 581,
      "ord": 582,
      "Ġabout": 583,
      "one": 584,
      "Ġev": 585,
      "ame": 586,
      "Ġwho": 587,
      "ory": 588,
      "ens": 589,
      "ount": 590,
      "ok": 591,
      "Ġhis": 592,
      "ace": 593,
      "Ġstud": 594,
      ").": 595,
      "ire": 596,
      "ĠThis": 597,
      "ack": 598,
      "Ġpe": 599,
      "Ġinf": 600,
      "ub": 601,
      "ors": 602,
      "Ġsy": 603,
      "Ġsc": 604,
      "ĠCh": 605,
      "ite": 606,
      "Ġthem": 607,
      "Ġcomm": 608,
      "ue": 609,
      "ound": 610,
      "ree": 611,
      "ang": 612,
      "ces": 613,
      "ike": 614,
      "now": 615,
      "low": 616,
      "Ġbec": 617,
      "Ġup": 618,
      "olog": 619,
      "Ġpre": 620,
      "Ġthan": 621,
      "Ġmay": 622,
      "ian": 623,
      "ric": 624,
      "ile": 625,
      "ie": 626,
      "Ġqu": 627,
      "ĠV": 628,
      "Ġsome": 629,
      "Ġyear": 630,
      "iff": 631,
      "ople": 632,
      "Ġrec": 633,
      "Ġbeen": 634,
      "ates": 635,
      "ays": 636,
      "Ġthere": 637,
      "ail": 638,
      "nder": 639,
      "mer": 640,
      "Ġwhen": 641,
      "ings": 642,
      "Ġag": 643,
      "Ġits": 644,
      "ough": 645,
      "Ġinto": 646,
      "Ġ3": 647,
      "ĠY": 648,
      "Ġgo": 649,
      "ph": 650,
      "Ġ20": 651,
      "Ġtime": 652,
      "ren": 653,
      "vers": 654,
      "Ġhad": 655,
      "rit": 656,
      "Ġtra": 657,
      "Ġwork": 658,
      "Ġthese": 659,
      "erv": 660,
      "ons": 661,
      "Ġover": 662,
      "rough": 663,
      "te": 664,
      "ally": 665,
      "Ġpeople": 666,
      "Ġdiff": 667,
      "lud": 668,
      "ond": 669,
      "Ġhow": 670,
      "ove": 671,
      "Ġtr": 672,
      "tern": 673,
      "Ġcons": 674,
      "ause": 675,
      "Ġra": 676,
      "Ġcol": 677,
      "ms": 678,
      "ll": 679,
      "Ġro": 680,
      "Ġour": 681,
      "Ġact": 682,
      "ific": 683,
      "Ġbet": 684,
      "Ġuse": 685,
      "we": 686,
      "Ġwould": 687,
      "int": 688,
      "Ġmost": 689,
      "Ġsa": 690,
      "lic": 691,
      "irst": 692,
      "lect": 693,
      "Ġunder": 694,
      "Ġknow": 695,
      "ments": 696,
      "Ġdes": 697,
      "ys": 698,
      "Ġbl": 699,
      "ious": 700,
      "Ġlike": 701,
      "ning": 702,
      "ities": 703,
      "ject": 704,
      "row": 705,
      "Ġacc": 706,
      "ook": 707,
      "Ġtw": 708,
      "les": 709,
      "Ġnew": 710,
      "velop": 711,
      "alth": 712,
      "Ġrel": 713,
      "stem": 714,
      "Ġsuch": 715,
      "Ġrep": 716,
      "ational": 717,
      "Ġif": 718,
      "Ġneed": 719,
      "Ġno": 720,
      "ffect": 721,
      "Ġany": 722,
      "ient": 723,
      "Ġgen": 724,
      "hed": 725,
      "Ġinclud": 726,
      "ĠUn": 727,
      "Ġchild": 728,
      "ative": 729,
      "ular": 730,
      "Ġonly": 731,
      "Ġwhat": 732,
      "ple": 733,
      "Ġpr": 734,
      "cess": 735,
      "ob": 736,
      "ĠWh": 737,
      "Ġhel": 738,
      "Ġprov": 739,
      "Ġused": 740,
      "),": 741,
      "ced": 742,
      "ov": 743,
      "ating": 744,
      "Ġph": 745,
      "yp": 746,
      "Ġprodu": 747,
      "Ġpo": 748,
      "Ġfirst": 749,
      "Ġthrough": 750,
      "Ġmany": 751,
      "Ġind": 752,
      "Ġoff": 753,
      "Ġhelp": 754,
      "Ġam": 755,
      "iet": 756,
      "Ġdevelop": 757,
      "fter": 758,
      "oss": 759,
      "ath": 760,
      "uc": 761,
      "ĠAs": 762,
      "Ġfe": 763,
      "Ġspec": 764,
      "ĠHe": 765,
      "ool": 766,
      "Ġem": 767,
      "ise": 768,
      "Ġreg": 769,
      "ark": 770,
      "round": 771,
      "erm": 772,
      "ics": 773,
      "Ġexp": 774,
      "Ġtwo": 775,
      "Ġac": 776,
      "rib": 777,
      "uring": 778,
      "hen": 779,
      "ts": 780,
      "ied": 781,
      "ink": 782,
      "Ġsystem": 783,
      "ful": 784,
      "iss": 785,
      "Ġob": 786,
      "old": 787,
      "ne": 788,
      "oth": 789,
      "Ġdiffere": 790,
      "eth": 791,
      "Ġatt": 792,
      "Ġass": 793,
      "Ġdec": 794,
      "Ġ4": 795,
      "ility": 796,
      "ible": 797,
      "als": 798,
      "Ġsur": 799,
      "ĠâĢĵ": 800,
      "rop": 801,
      "ased": 802,
      "ife": 803,
      "Ġadd": 804,
      "Ġ200": 805,
      "ten": 806,
      "aw": 807,
      "ert": 808,
      "Ġ201": 809,
      "ange": 810,
      "ng": 811,
      "fore": 812,
      "arch": 813,
      "Ġshould": 814,
      "ble": 815,
      "Ġfl": 816,
      "ower": 817,
      "Ġsupp": 818,
      "ween": 819,
      "Ġwell": 820,
      "ures": 821,
      "Ġrem": 822,
      "Ġyears": 823,
      "ram": 824,
      "Ġ5": 825,
      "sel": 826,
      "Ġinv": 827,
      "Ġwater": 828,
      "Ġsub": 829,
      "ade": 830,
      "ract": 831,
      "own": 832,
      "Ġco": 833,
      "ution": 834,
      "Ġbetween": 835,
      "Ġcould": 836,
      "Ġsm": 837,
      "gan": 838,
      "Ġwhere": 839,
      "hes": 840,
      "its": 841,
      "Ġpres": 842,
      "cy": 843,
      "wn": 844,
      "Ġhigh": 845,
      "ily": 846,
      "Ġher": 847,
      "Ġtrans": 848,
      "uch": 849,
      "ick": 850,
      "Ġear": 851,
      "ever": 852,
      "Ġpers": 853,
      "ited": 854,
      "Ġmake": 855,
      "Ġhealth": 856,
      "land": 857,
      "ident": 858,
      "ants": 859,
      "ĠIf": 860,
      "xt": 861,
      "Ġrese": 862,
      "meric": 863,
      "Ġget": 864,
      "Ġbu": 865,
      "Ġinter": 866,
      "ology": 867,
      "ĠWe": 868,
      "ivers": 869,
      "ural": 870,
      "Ġimport": 871,
      "form": 872,
      "Ġpol": 873,
      "Ġnum": 874,
      "Ġmod": 875,
      "Ġinst": 876,
      "ience": 877,
      "ting": 878,
      "Ġform": 879,
      "chn": 880,
      "Ġdisc": 881,
      "chool": 882,
      "ĠAl": 883,
      "Ġfound": 884,
      "ists": 885,
      "ĠFor": 886,
      "Ġexam": 887,
      "ont": 888,
      "ines": 889,
      "ĠRe": 890,
      "ĠAn": 891,
      "Ġlar": 892,
      "ict": 893,
      "urn": 894,
      "ins": 895,
      "ually": 896,
      "Ġmed": 897,
      "ism": 898,
      "Ġthen": 899,
      "Ġafter": 900,
      "Ġbecause": 901,
      "Ġcent": 902,
      "Ġlear": 903,
      "Ġ18": 904,
      "Ġeven": 905,
      "Ġlong": 906,
      "Ġvery": 907,
      "gy": 908,
      "oy": 909,
      "ft": 910,
      "ĠAmeric": 911,
      "Ġsim": 912,
      "Ġworld": 913,
      "ĠHow": 914,
      "Ġdifferent": 915,
      "Ġjust": 916,
      "Ġhum": 917,
      "Ġinform": 918,
      "ata": 919,
      "Ġcount": 920,
      "Ġeffect": 921,
      "other": 922,
      "Ġexper": 923,
      "Ġincre": 924,
      "ature": 925,
      "cept": 926,
      "ness": 927,
      "Ġdet": 928,
      "Ġway": 929,
      "Ġcar": 930,
      "Ġed": 931,
      "Ġsee": 932,
      "Ġref": 933,
      "ically": 934,
      "get": 935,
      "Ġtyp": 936,
      "Ġthose": 937,
      "vent": 938,
      "aking": 939,
      "Ġfol": 940,
      "ĠPro": 941,
      "ives": 942,
      "Ġcall": 943,
      "Ġresp": 944,
      "Ġsaid": 945,
      "Ġvar": 946,
      "Ġpub": 947,
      "Ġgener": 948,
      "Ġke": 949,
      "cer": 950,
      "Ġsign": 951,
      "Ġsoc": 952,
      "Ġprog": 953,
      "ck": 954,
      "tle": 955,
      "Ġsec": 956,
      "iew": 957,
      "Ġevery": 958,
      "Ġext": 959,
      "ĠCom": 960,
      "ork": 961,
      "ds": 962,
      "roup": 963,
      "arm": 964,
      "Ġchildren": 965,
      "Ġloc": 966,
      "ues": 967,
      "Ġbeing": 968,
      "Ġeach": 969,
      "ĠThey": 970,
      "ef": 971,
      "Ġset": 972,
      "Ġprocess": 973,
      "Ġfact": 974,
      "ases": 975,
      "led": 976,
      "Ġlife": 977,
      ".âĢĿ": 978,
      "Ġpat": 979,
      "ros": 980,
      "Ġpartic": 981,
      "Ġresult": 982,
      "Ġmy": 983,
      "vern": 984,
      "ĠThere": 985,
      "Ġca": 986,
      "ruct": 987,
      "Ġdist": 988,
      "ved": 989,
      "Ġshe": 990,
      "Ġgra": 991,
      "Ġ6": 992,
      "Ġmon": 993,
      "ather": 994,
      "Ġmuch": 995,
      "Ġfam": 996,
      "Ġdef": 997,
      "iron": 998,
      "Ġrequ": 999,
      "Ġimportant": 1000,
      "Ġcre": 1001,
      "Ġinformation": 1002,
      "ages": 1003,
      "Ġduring": 1004,
      "..": 1005,
      "ody": 1006,
      "Ġdep": 1007,
      "Ġtechn": 1008,
      "ward": 1009,
      "Ġown": 1010,
      "cent": 1011,
      "Ġread": 1012,
      "Ġent": 1013,
      "imes": 1014,
      "Ġart": 1015,
      "Ġfollow": 1016,
      "ized": 1017,
      "Ġcommun": 1018,
      "Ġsame": 1019,
      "Ġright": 1020,
      "Ġmade": 1021,
      "io": 1022,
      "gg": 1023,
      "ĠAr": 1024,
      "Ġfood": 1025,
      "Ġlead": 1026,
      "ĠBut": 1027,
      "Ġaut": 1028,
      "Ġlevel": 1029,
      "Ġstudents": 1030,
      "ection": 1031,
      "Ġdoes": 1032,
      "hip": 1033,
      "ices": 1034,
      "Ġ|": 1035,
      "Ġend": 1036,
      "Ġstr": 1037,
      "Ġstudy": 1038,
      "Ġperson": 1039,
      "any": 1040,
      "Ġins": 1041,
      "Ġsk": 1042,
      "Ġcur": 1043,
      "ize": 1044,
      "Ġgrow": 1045,
      "Ġpop": 1046,
      "Ġfind": 1047,
      "ted": 1048,
      "Ġmin": 1049,
      "und": 1050,
      "Ġback": 1051,
      "onom": 1052,
      "Ġboth": 1053,
      "ars": 1054,
      "The": 1055,
      "Ġdata": 1056,
      "Ġgroup": 1057,
      "ale": 1058,
      "Ġgood": 1059,
      "ĠNew": 1060,
      "Ġbefore": 1061,
      "Ġproble": 1062,
      "Ġav": 1063,
      "Ġshow": 1064,
      "Ġagain": 1065,
      "Ġche": 1066,
      "iversity": 1067,
      "Ġhist": 1068,
      "Ġsmall": 1069,
      "Ġexpl": 1070,
      "ĠSp": 1071,
      "ĠYou": 1072,
      "ince": 1073,
      "inal": 1074,
      "Ġcomple": 1075,
      "Ġschool": 1076,
      "ĠInd": 1077,
      "viron": 1078,
      "ty": 1079,
      "Ġdi": 1080,
      "Ġbo": 1081,
      "Ġprot": 1082,
      "omen": 1083,
      "Ġusing": 1084,
      "ined": 1085,
      "000": 1086,
      "ially": 1087,
      "Ġstate": 1088,
      "iel": 1089,
      "ivid": 1090,
      "Ġgl": 1091,
      "orn": 1092,
      "nce": 1093,
      "der": 1094,
      ".,": 1095,
      "ality": 1096,
      "||": 1097,
      "rol": 1098,
      "read": 1099,
      "Ġmain": 1100,
      "stand": 1101,
      "ished": 1102,
      "Ġtest": 1103,
      "ĠSc": 1104,
      "Ġlit": 1105,
      "Ġoften": 1106,
      "Ġval": 1107,
      "Ġhim": 1108,
      "ax": 1109,
      "Ġposs": 1110,
      "up": 1111,
      "Ġtreat": 1112,
      "Ġless": 1113,
      "Ġwhile": 1114,
      "imate": 1115,
      "ute": 1116,
      "ix": 1117,
      "20": 1118,
      "oh": 1119,
      "Ġday": 1120,
      "Ġbr": 1121,
      "Ġnow": 1122,
      "irect": 1123,
      "Ġ7": 1124,
      "Ġ10": 1125,
      "ulation": 1126,
      "Ġsol": 1127,
      "ĠAnd": 1128,
      "Ġnumber": 1129,
      "ergy": 1130,
      "ock": 1131,
      "Ġcell": 1132,
      "19": 1133,
      "Ġocc": 1134,
      "ral": 1135,
      "ury": 1136,
      "Ġdise": 1137,
      "ien": 1138,
      "Ġec": 1139,
      "Ġtake": 1140,
      "Ġserv": 1141,
      "Ġhuman": 1142,
      "akes": 1143,
      "ĠIs": 1144,
      "ex": 1145,
      "Ġpower": 1146,
      "Ġris": 1147,
      "Ġmem": 1148,
      "ered": 1149,
      "Ġprovid": 1150,
      "Ġchar": 1151,
      "Ġresearch": 1152,
      "ier": 1153,
      "iety": 1154,
      "Ġvis": 1155,
      "com": 1156,
      "Ġorgan": 1157,
      "vironment": 1158,
      "iving": 1159,
      "Ġactiv": 1160,
      "Ġfun": 1161,
      "ters": 1162,
      "Ġmust": 1163,
      "dition": 1164,
      "Ġthree": 1165,
      "Ġest": 1166,
      "ĠWhat": 1167,
      "ĠWhen": 1168,
      "air": 1169,
      "Ġ8": 1170,
      "Ġdown": 1171,
      "Ġbel": 1172,
      "Ġsupport": 1173,
      "Ġdesign": 1174,
      "ves": 1175,
      "Ġgovern": 1176,
      "ven": 1177,
      "iqu": 1178,
      "ah": 1179,
      "uss": 1180,
      "Ġdid": 1181,
      "hers": 1182,
      "Ġaround": 1183,
      "Ġclass": 1184,
      "Ġelect": 1185,
      "Ġgreat": 1186,
      "Ġbody": 1187,
      "Ġhand": 1188,
      "Ġlook": 1189,
      "Ġconf": 1190,
      "Ġpoint": 1191,
      "ĠThese": 1192,
      "day": 1193,
      "Ġland": 1194,
      "aj": 1195,
      "Ġcommon": 1196,
      "self": 1197,
      "ger": 1198,
      "ital": 1199,
      "rent": 1200,
      "ĠSe": 1201,
      "Ġser": 1202,
      "Ġstart": 1203,
      "ouse": 1204,
      "Ġredu": 1205,
      "ains": 1206,
      "Ġcontin": 1207,
      "Ġlarge": 1208,
      "Ġplan": 1209,
      "Ġret": 1210,
      "cl": 1211,
      "ron": 1212,
      "ving": 1213,
      "ave": 1214,
      "Ġthough": 1215,
      "Ġexample": 1216,
      "ium": 1217,
      "ĠAt": 1218,
      "âĢĶ": 1219,
      "ĠTo": 1220,
      "Ġcour": 1221,
      "Ġreport": 1222,
      "ross": 1223,
      "Ġop": 1224,
      "ared": 1225,
      "the": 1226,
      "Ġcle": 1227,
      "itions": 1228,
      "gen": 1229,
      "ash": 1230,
      "Ġconst": 1231,
      "Ġincluding": 1232,
      "Ġcalled": 1233,
      "acter": 1234,
      ".\"": 1235,
      "anc": 1236,
      "Ġallow": 1237,
      "Ġcor": 1238,
      ",âĢĿ": 1239,
      "ull": 1240,
      "ional": 1241,
      "Ġcare": 1242,
      "Ġsom": 1243,
      "way": 1244,
      "Ġpublic": 1245,
      "Ġmet": 1246,
      "Ġ9": 1247,
      "iver": 1248,
      "Ġequ": 1249,
      "Ġstill": 1250,
      "Ġbuild": 1251,
      "rain": 1252,
      "Ġwrit": 1253,
      "Ġeduc": 1254,
      "ĠDe": 1255,
      "iven": 1256,
      "Ġknown": 1257,
      "outh": 1258,
      "Ġunderstand": 1259,
      "ĠCon": 1260,
      "Ġadv": 1261,
      "Ġthink": 1262,
      "me": 1263,
      "esp": 1264,
      "Ġbeh": 1265,
      "els": 1266,
      "iod": 1267,
      "Ġide": 1268,
      "Ġappro": 1269,
      "Ġgre": 1270,
      "ĠâĢĺ": 1271,
      "Ġgu": 1272,
      "ividual": 1273,
      "erest": 1274,
      "osed": 1275,
      "aterial": 1276,
      "ected": 1277,
      "Ġfew": 1278,
      "inc": 1279,
      "lish": 1280,
      "oci": 1281,
      "ired": 1282,
      "Ġquest": 1283,
      "Ġpract": 1284,
      "ĠEng": 1285,
      "Ġplace": 1286,
      "Ġstand": 1287,
      "de": 1288,
      "ination": 1289,
      "Ġdr": 1290,
      "bers": 1291,
      "ived": 1292,
      "Ġ199": 1293,
      "oms": 1294,
      "ense": 1295,
      "itive": 1296,
      "Ġeas": 1297,
      "Ġmat": 1298,
      "ĠUniversity": 1299,
      "ĠAd": 1300,
      "Ġmight": 1301,
      "ids": 1302,
      "ries": 1303,
      "ank": 1304,
      "ization": 1305,
      "Ġwithout": 1306,
      "oun": 1307,
      "eral": 1308,
      "ner": 1309,
      "ĠAmerican": 1310,
      "ĠHowever": 1311,
      "Ġdem": 1312,
      "amp": 1313,
      "Ġchang": 1314,
      "ason": 1315,
      "Ġtem": 1316,
      "ians": 1317,
      "ior": 1318,
      "ential": 1319,
      "Ġlaw": 1320,
      "ording": 1321,
      "Ġiss": 1322,
      "Ġwithin": 1323,
      "ethod": 1324,
      "ertain": 1325,
      "ources": 1326,
      "raph": 1327,
      "Ġpresent": 1328,
      "Ġproduct": 1329,
      "âĢĵ": 1330,
      "Ġindividual": 1331,
      "Ġcaus": 1332,
      "ĠEx": 1333,
      "ĠPh": 1334,
      "Ġenvironment": 1335,
      "10": 1336,
      "Ġplay": 1337,
      "Ġsocial": 1338,
      "Ġdirect": 1339,
      "ering": 1340,
      "Ġphys": 1341,
      "Ġwant": 1342,
      "Ġpur": 1343,
      "Ġcap": 1344,
      "Ġenergy": 1345,
      "ration": 1346,
      "ĠSh": 1347,
      "Ġchange": 1348,
      "orth": 1349,
      "Ġanother": 1350,
      "Ġsym": 1351,
      "Ġair": 1352,
      "Ġsl": 1353,
      "Ġlearn": 1354,
      "ption": 1355,
      "illion": 1356,
      "eng": 1357,
      "Ġident": 1358,
      "Ġimm": 1359,
      "Ġarea": 1360,
      "ton": 1361,
      "Ġbre": 1362,
      "Ġmaterial": 1363,
      "less": 1364,
      "man": 1365,
      "ffic": 1366,
      "line": 1367,
      "alk": 1368,
      "Ġpass": 1369,
      "ug": 1370,
      "Ġdevelopment": 1371,
      "Ġdon": 1372,
      "angu": 1373,
      "Ġdisease": 1374,
      "Ġwomen": 1375,
      "Ġpos": 1376,
      "Ġpot": 1377,
      "'t": 1378,
      "Ġ&": 1379,
      "Ġprof": 1380,
      "ĠRes": 1381,
      "gin": 1382,
      "Ġsit": 1383,
      "Ġmus": 1384,
      "__": 1385,
      "Ġdesc": 1386,
      "ability": 1387,
      "Ġlight": 1388,
      "ajor": 1389,
      "iness": 1390,
      "Ġproject": 1391,
      "arent": 1392,
      "ets": 1393,
      "Ġben": 1394,
      "Ġimpro": 1395,
      "Ġve": 1396,
      "ĠOn": 1397,
      "Ġinterest": 1398,
      "ified": 1399,
      "pr": 1400,
      "Ġhome": 1401,
      "Ġspe": 1402,
      "ĠLe": 1403,
      "Ġrest": 1404,
      "ained": 1405,
      "Ġbelie": 1406,
      "ological": 1407,
      "Ġbas": 1408,
      "ccess": 1409,
      "ats": 1410,
      "Ġcult": 1411,
      "Ġcontrol": 1412,
      "Ġant": 1413,
      "rist": 1414,
      "agn": 1415,
      "Ġinclude": 1416,
      "erc": 1417,
      "Ġagainst": 1418,
      "bs": 1419,
      "Ġgovernment": 1420,
      "Ġmeas": 1421,
      "Ġeng": 1422,
      "ĠCl": 1423,
      "Ġrisk": 1424,
      "Ġeconom": 1425,
      "ield": 1426,
      "az": 1427,
      "ĠBe": 1428,
      "Ġmil": 1429,
      "Ġbest": 1430,
      "atic": 1431,
      "Ġopp": 1432,
      "ental": 1433,
      "Ġet": 1434,
      "lished": 1435,
      "Ġold": 1436,
      "Ġleg": 1437,
      "ently": 1438,
      "ik": 1439,
      "arc": 1440,
      "ify": 1441,
      "Ġmethod": 1442,
      "Ġsever": 1443,
      "Ġprogram": 1444,
      "Ġwar": 1445,
      "Ġblood": 1446,
      "Ġbecome": 1447,
      "Ġanim": 1448,
      "hor": 1449,
      "Ġearly": 1450,
      "ĠPl": 1451,
      "ways": 1452,
      "ĠCol": 1453,
      "Ġpar": 1454,
      "ern": 1455,
      "atural": 1456,
      "rodu": 1457,
      "Ġlow": 1458,
      "ision": 1459,
      "Ġanal": 1460,
      "ret": 1461,
      "Ġele": 1462,
      "Ġmark": 1463,
      "Ġmove": 1464,
      "Ġ[": 1465,
      "ĠUnited": 1466,
      "Ġsecond": 1467,
      "str": 1468,
      "Ġpain": 1469,
      "Ġorder": 1470,
      "Ġreal": 1471,
      "ission": 1472,
      "Ġlast": 1473,
      "ĠSo": 1474,
      "Ġmeans": 1475,
      "Ġproper": 1476,
      "ĠâĢĶ": 1477,
      "ource": 1478,
      "Ġfamily": 1479,
      "ĠCan": 1480,
      "ĠQ": 1481,
      "Ġhere": 1482,
      "Ġbetter": 1483,
      "Ġtoo": 1484,
      "rap": 1485,
      "Ġfore": 1486,
      "ining": 1487,
      "Ġter": 1488,
      "Ġoper": 1489,
      "ories": 1490,
      "Ġhistory": 1491,
      "Ġmajor": 1492,
      "Ġ15": 1493,
      "Ġunt": 1494,
      "Ġtop": 1495,
      "Ġprovide": 1496,
      "Ġsay": 1497,
      "here": 1498,
      "Ġparticular": 1499,
      "Ġoccur": 1500,
      "use": 1501,
      "Ġdev": 1502,
      "ards": 1503,
      "irc": 1504,
      "Ġtre": 1505,
      "ĠZ": 1506,
      "Ġkeep": 1507,
      "ples": 1508,
      "Ġpossible": 1509,
      "Ġpercent": 1510,
      "Ġfin": 1511,
      "ote": 1512,
      "ills": 1513,
      "ention": 1514,
      "Ġnear": 1515,
      "ider": 1516,
      "ĠComm": 1517,
      "icle": 1518,
      "Ġperiod": 1519,
      "Ġcurrent": 1520,
      "Ġseveral": 1521,
      "Ġ.": 1522,
      "ised": 1523,
      "Ġavail": 1524,
      "Ġorig": 1525,
      "idence": 1526,
      "Ġcause": 1527,
      "Ġindu": 1528,
      "ware": 1529,
      "par": 1530,
      "Ġaddition": 1531,
      "Ġsaf": 1532,
      "tt": 1533,
      "Ġsince": 1534,
      "Ġmar": 1535,
      "pect": 1536,
      "Ġinvol": 1537,
      "Ġscient": 1538,
      "Ġhig": 1539,
      "ograph": 1540,
      "Ġspecies": 1541,
      "Ġmen": 1542,
      "sy": 1543,
      "ina": 1544,
      "Ġopen": 1545,
      ",\"": 1546,
      "Ġable": 1547,
      "Ġcr": 1548,
      "Ġperform": 1549,
      "ĠAll": 1550,
      "ĠGod": 1551,
      "Ġlearning": 1552,
      "view": 1553,
      "Ġel": 1554,
      "Ġhapp": 1555,
      "Ġlangu": 1556,
      "Ġinfl": 1557,
      "ients": 1558,
      "urop": 1559,
      "ĠEn": 1560,
      "Ġmean": 1561,
      "ogn": 1562,
      "oid": 1563,
      "Ġprom": 1564,
      "Ġthings": 1565,
      "ĠOne": 1566,
      "Ġothers": 1567,
      "Ġareas": 1568,
      "ĠStates": 1569,
      "Ġname": 1570,
      "though": 1571,
      "Ġfre": 1572,
      "Ġgr": 1573,
      "Ġnon": 1574,
      "ames": 1575,
      "Ġbus": 1576,
      "ator": 1577,
      "Ġbenef": 1578,
      "Ġlim": 1579,
      "Ġcal": 1580,
      "Ġamong": 1581,
      "ane": 1582,
      "Ġbased": 1583,
      "Ġsays": 1584,
      "Ġ17": 1585,
      "Ġobject": 1586,
      "ole": 1587,
      "Ġaffect": 1588,
      "Ġcountry": 1589,
      "ilar": 1590,
      "Ġfour": 1591,
      "Ġprop": 1592,
      "Ġfeel": 1593,
      "ĠChrist": 1594,
      "ek": 1595,
      "osp": 1596,
      "Ġfollowing": 1597,
      "ĠOr": 1598,
      "Ġcertain": 1599,
      "elf": 1600,
      "br": 1601,
      "Ġplant": 1602,
      "ploy": 1603,
      "Ġtimes": 1604,
      "une": 1605,
      "ended": 1606,
      "Ġsignific": 1607,
      "Ġcond": 1608,
      "to": 1609,
      "ably": 1610,
      "Ġcase": 1611,
      "Ġtreatment": 1612,
      "ends": 1613,
      "Ġfac": 1614,
      "Ġavailable": 1615,
      "ĠTe": 1616,
      "stit": 1617,
      "Ġlo": 1618,
      "Ġhead": 1619,
      "ling": 1620,
      "ĠNational": 1621,
      "Ġ12": 1622,
      "Ġbir": 1623,
      "sc": 1624,
      "Ġrun": 1625,
      "Ġaccess": 1626,
      "urope": 1627,
      "Ġcost": 1628,
      "Ġbro": 1629,
      "Ġage": 1630,
      "Ġconn": 1631,
      "Ġcells": 1632,
      "ĠCent": 1633,
      "Ġlittle": 1634,
      "Ġview": 1635,
      "Ġdel": 1636,
      "ĠSome": 1637,
      "Ġprevent": 1638,
      "be": 1639,
      "urther": 1640,
      "ww": 1641,
      "Ġsuccess": 1642,
      "Ġlab": 1643,
      "Ġfree": 1644,
      "Ġlater": 1645,
      "Ġrece": 1646,
      "Ġlocal": 1647,
      "Ġstruct": 1648,
      "Ġcome": 1649,
      "Ġmonth": 1650,
      "Ġpost": 1651,
      "ope": 1652,
      "ots": 1653,
      "Ġpress": 1654,
      "Ġfar": 1655,
      "ression": 1656,
      "ĠWith": 1657,
      "ocus": 1658,
      "ething": 1659,
      "ances": 1660,
      "Ġput": 1661,
      "Ġbi": 1662,
      "resent": 1663,
      "ggest": 1664,
      "Ġlist": 1665,
      "ĠAf": 1666,
      "olution": 1667,
      "cing": 1668,
      "ĠFr": 1669,
      "Ġproblem": 1670,
      "Ġuntil": 1671,
      "Ġtype": 1672,
      "oint": 1673,
      "Ġvol": 1674,
      "Ġintern": 1675,
      "ĠMed": 1676,
      "Ġcreat": 1677,
      "Ġyoung": 1678,
      "ged": 1679,
      "Ġlet": 1680,
      "Ġseem": 1681,
      "Ġassoci": 1682,
      "Ġ16": 1683,
      "ither": 1684,
      "ĠBy": 1685,
      "ĠUS": 1686,
      "eg": 1687,
      "ĠEurope": 1688,
      "Ġlevels": 1689,
      "work": 1690,
      "Ġ0": 1691,
      "Ġnatural": 1692,
      "Ġflow": 1693,
      "Ġhard": 1694,
      "Ġamount": 1695,
      "icult": 1696,
      "Ġgiven": 1697,
      "Ġturn": 1698,
      "Ġpolit": 1699,
      "Ġsuggest": 1700,
      "Ġproblems": 1701,
      "oks": 1702,
      "aper": 1703,
      "ately": 1704,
      "ured": 1705,
      "Ġshort": 1706,
      "Ġcirc": 1707,
      "Ġbook": 1708,
      "Ġsw": 1709,
      "por": 1710,
      "ones": 1711,
      "ortun": 1712,
      "Ġmult": 1713,
      "Ġcomput": 1714,
      "ead": 1715,
      "aken": 1716,
      "Ġ$": 1717,
      "ps": 1718,
      "ĠWor": 1719,
      "Ġmaking": 1720,
      "Ġheart": 1721,
      "ĠBl": 1722,
      "ides": 1723,
      "Ġdeterm": 1724,
      "ledge": 1725,
      "ohn": 1726,
      "over": 1727,
      "Ġsomething": 1728,
      "isc": 1729,
      "ĠEar": 1730,
      "uture": 1731,
      "atory": 1732,
      "not": 1733,
      "Ġcho": 1734,
      "Ġcourse": 1735,
      "Ġfunction": 1736,
      "Ġalong": 1737,
      "Ġinvest": 1738,
      "Ġrad": 1739,
      "Ġdra": 1740,
      "Ġess": 1741,
      "vious": 1742,
      "Ġvir": 1743,
      "aps": 1744,
      "Ġbehav": 1745,
      "Ġdeath": 1746,
      "Ġpopulation": 1747,
      "Ġimpact": 1748,
      "Ġsing": 1749,
      "ours": 1750,
      "Ġlikely": 1751,
      "Ġeducation": 1752,
      "Ġdue": 1753,
      "Ġsignificant": 1754,
      "Ġfil": 1755,
      "Ġfocus": 1756,
      "Ġalways": 1757,
      "ried": 1758,
      "Ġ'": 1759,
      "face": 1760,
      "Ġcentury": 1761,
      "ring": 1762,
      "ned": 1763,
      "hem": 1764,
      "orts": 1765,
      "Ġdays": 1766,
      "Ġappear": 1767,
      "Ġwords": 1768,
      "yd": 1769,
      "ication": 1770,
      "12": 1771,
      "mit": 1772,
      "Ġcomb": 1773,
      "Ġusually": 1774,
      "agement": 1775,
      "Ġclear": 1776,
      "Ġincrease": 1777,
      "ĠBrit": 1778,
      "ember": 1779,
      "ĠThat": 1780,
      "Ġauthor": 1781,
      "ym": 1782,
      "Ġmillion": 1783,
      "18": 1784,
      "Ġrele": 1785,
      "Ġcancer": 1786,
      "Ġdescrib": 1787,
      "omm": 1788,
      "Ġrecord": 1789,
      "Ġer": 1790,
      "Ġobs": 1791,
      "Ġgive": 1792,
      "ending": 1793,
      "cle": 1794,
      "Ġpast": 1795,
      "etic": 1796,
      "Ġexist": 1797,
      "Ġlanguage": 1798,
      "ecially": 1799,
      "Ġsystems": 1800,
      "aster": 1801,
      "idd": 1802,
      "Ġteac": 1803,
      "Ġtoday": 1804,
      "ored": 1805,
      "Ġconditions": 1806,
      "Ġsimilar": 1807,
      "Ġdifficult": 1808,
      "Ġabove": 1809,
      "Ġtemper": 1810,
      "Ġestab": 1811,
      "Ġresults": 1812,
      "min": 1813,
      "Ġmov": 1814,
      "Ġcharacter": 1815,
      "Ġnext": 1816,
      "Ġcommunity": 1817,
      "Ġspecific": 1818,
      "Ġline": 1819,
      "ape": 1820,
      "ĠAfric": 1821,
      "ler": 1822,
      "asing": 1823,
      "iation": 1824,
      "Ġcreate": 1825,
      "obal": 1826,
      "ĠJohn": 1827,
      "ively": 1828,
      "put": 1829,
      "Ġmot": 1830,
      "oph": 1831,
      "most": 1832,
      "Ġenc": 1833,
      "ruction": 1834,
      "Ġdam": 1835,
      "Ġexperience": 1836,
      "app": 1837,
      "ators": 1838,
      "Ġey": 1839,
      "ĠGerm": 1840,
      "selves": 1841,
      "Ġbegin": 1842,
      "ribut": 1843,
      "especially": 1844,
      "Ġparent": 1845,
      "Ġwhy": 1846,
      "Ġkind": 1847,
      "Ġneeds": 1848,
      "Ġask": 1849,
      "Ġnever": 1850,
      "Ġconsum": 1851,
      "Ġdiscuss": 1852,
      "Ġtechnology": 1853,
      "Ġbrain": 1854,
      "Ġleast": 1855,
      "Ġill": 1856,
      "Ġapplic": 1857,
      "Ġchanges": 1858,
      "Ġstrong": 1859,
      "reen": 1860,
      "aining": 1861,
      "Ġspace": 1862,
      "ĠDr": 1863,
      "Ġnecess": 1864,
      "aim": 1865,
      "50": 1866,
      "Ġcrit": 1867,
      "Ġfuture": 1868,
      "Ġhigher": 1869,
      "Ġhowever": 1870,
      "ptoms": 1871,
      "oman": 1872,
      "Ġcountries": 1873,
      "Ġcolle": 1874,
      "Ġspecial": 1875,
      "ĠGo": 1876,
      "Ġresearc": 1877,
      "Ġvarious": 1878,
      "Ġacross": 1879,
      "ique": 1880,
      "gether": 1881,
      "Ġtogether": 1882,
      "of": 1883,
      "Ġcomplete": 1884,
      "Ġrespons": 1885,
      "nal": 1886,
      "ĠGen": 1887,
      "Ġleft": 1888,
      "Ġside": 1889,
      "atch": 1890,
      "alf": 1891,
      "rug": 1892,
      "Ġtry": 1893,
      "ateg": 1894,
      "Ġterm": 1895,
      "duct": 1896,
      "ilities": 1897,
      "omes": 1898,
      "ĠIm": 1899,
      "Ġaway": 1900,
      "ĠAfter": 1901,
      "ray": 1902,
      "Ġprofess": 1903,
      "ĠWhile": 1904,
      "af": 1905,
      "ĠAm": 1906,
      "Ġenough": 1907,
      "ued": 1908,
      "Ġworking": 1909,
      "Ġtru": 1910,
      "sp": 1911,
      "aves": 1912,
      "Ġnet": 1913,
      "ĠNe": 1914,
      "ĠWar": 1915,
      "oney": 1916,
      "Ġhaving": 1917,
      "Ġbusiness": 1918,
      "Ġbecame": 1919,
      "ode": 1920,
      "aces": 1921,
      "ison": 1922,
      "NA": 1923,
      "thing": 1924,
      "Ġespecially": 1925,
      "acy": 1926,
      "Ġcy": 1927,
      "ument": 1928,
      "amm": 1929,
      "ilt": 1930,
      "let": 1931,
      "Ġprim": 1932,
      "ĠEnglish": 1933,
      "Ġworks": 1934,
      "Ġplants": 1935,
      "ĠAb": 1936,
      "ysis": 1937,
      "Ġchem": 1938,
      "oot": 1939,
      "Ġtool": 1940,
      "Ġrequire": 1941,
      "Ġ198": 1942,
      "11": 1943,
      "ires": 1944,
      "ĠWorld": 1945,
      "Ġfull": 1946,
      "ĠCar": 1947,
      "Ġimprove": 1948,
      "Ġcases": 1949,
      "Ġnorm": 1950,
      "Ġz": 1951,
      "Ġstudies": 1952,
      "Ġgeneral": 1953,
      "Ġkey": 1954,
      "ales": 1955,
      "ipp": 1956,
      "istic": 1957,
      "aching": 1958,
      "Ġhouse": 1959,
      "ges": 1960,
      "Ġteam": 1961,
      "Ġrelations": 1962,
      "lement": 1963,
      "ox": 1964,
      "Ġrepresent": 1965,
      "Ġeffects": 1966,
      "Ġcity": 1967,
      "sw": 1968,
      "Ġfund": 1969,
      "Ġreason": 1970,
      "Ġways": 1971,
      "Ġsens": 1972,
      "Ġstep": 1973,
      "Ġtypes": 1974,
      "ĠMar": 1975,
      "ĠIntern": 1976,
      "side": 1977,
      "ann": 1978,
      "itor": 1979,
      "Ġsubject": 1980,
      "Ġ30": 1981,
      "port": 1982,
      "ley": 1983,
      "Ġwhether": 1984,
      "Ġconsider": 1985,
      "ising": 1986,
      "Ġaccount": 1987,
      "erence": 1988,
      "aring": 1989,
      "ott": 1990,
      "iting": 1991,
      "Ġself": 1992,
      "Ġgoing": 1993,
      "Ġsum": 1994,
      "Ġstat": 1995,
      "ae": 1996,
      "mber": 1997,
      "for": 1998,
      "ency": 1999,
      "Ġground": 2000,
      "Ġknowledge": 2001,
      "ĠCal": 2002,
      "ush": 2003,
      "Ġ14": 2004,
      "Ġmind": 2005,
      "by": 2006,
      "Ġmakes": 2007,
      "edi": 2008,
      "Ġconcer": 2009,
      "...": 2010,
      "urity": 2011,
      "Ġfurther": 2012,
      "Ġinflu": 2013,
      "Ġphysical": 2014,
      "ready": 2015,
      "ung": 2016,
      "unt": 2017,
      "200": 2018,
      "ĠShe": 2019,
      "ird": 2020,
      "Ġprotect": 2021,
      "ĠGe": 2022,
      "30": 2023,
      "Ġlower": 2024,
      "Ġpolic": 2025,
      "ery": 2026,
      "Ġmic": 2027,
      "ĠStud": 2028,
      "Ġgroups": 2029,
      "Ġeff": 2030,
      "Ġscience": 2031,
      "ification": 2032,
      "ĠHealth": 2033,
      "chie": 2034,
      "ĠTr": 2035,
      "Ġquestion": 2036,
      "Ġemploy": 2037,
      "Ġvalue": 2038,
      "Ġrole": 2039,
      "ĠPr": 2040,
      "iol": 2041,
      "Ġur": 2042,
      "aut": 2043,
      "Ġ11": 2044,
      "apt": 2045,
      "Ġpred": 2046,
      "ĠSoc": 2047,
      "lo": 2048,
      "Ġsymptoms": 2049,
      "Ġclose": 2050,
      "Ġrather": 2051,
      "Ġseen": 2052,
      "Ġstory": 2053,
      "Ġreturn": 2054,
      "ĠMay": 2055,
      "augh": 2056,
      "Ġoffic": 2057,
      "Ġpatients": 2058,
      "Ġbig": 2059,
      "sych": 2060,
      "ĠResear": 2061,
      "Ġword": 2062,
      "Ġevidence": 2063,
      "Ġactivity": 2064,
      "//": 2065,
      "Ġneg": 2066,
      "atures": 2067,
      "Ġlive": 2068,
      "Ġprob": 2069,
      "Ġindic": 2070,
      "etimes": 2071,
      "Ġloss": 2072,
      "ands": 2073,
      "ites": 2074,
      "Ġopt": 2075,
      "Ġchall": 2076,
      "Ġsure": 2077,
      "ibility": 2078,
      "Ġnut": 2079,
      "Ġtoward": 2080,
      "ables": 2081,
      "Ġalready": 2082,
      "Ġeither": 2083,
      "Ġsite": 2084,
      "Ġbelow": 2085,
      "ream": 2086,
      "Ġproducts": 2087,
      "Ġparticip": 2088,
      "urch": 2089,
      "Ġwr": 2090,
      "cul": 2091,
      "Ġens": 2092,
      "yn": 2093,
      "rams": 2094,
      "acc": 2095,
      "Ġreally": 2096,
      "Ġrange": 2097,
      "overed": 2098,
      "Ġdeg": 2099,
      "Ġnational": 2100,
      "amin": 2101,
      "Ġtext": 2102,
      "Ġsingle": 2103,
      "Ġgrowth": 2104,
      "Ġupon": 2105,
      "Ġactivities": 2106,
      "verage": 2107,
      "Ġdone": 2108,
      "ĠDo": 2109,
      "rel": 2110,
      "ĠNorth": 2111,
      "eds": 2112,
      "ER": 2113,
      "Ġsun": 2114,
      "Ġphot": 2115,
      "Ġwind": 2116,
      "esc": 2117,
      "15": 2118,
      "Ġrecogn": 2119,
      "ival": 2120,
      "Ġmodel": 2121,
      "Ġfive": 2122,
      "Ġtradition": 2123,
      "Ġfall": 2124,
      "Ġdeveloped": 2125,
      "Ġaccording": 2126,
      "Ġrate": 2127,
      "://": 2128,
      "Ġpotential": 2129,
      "wh": 2130,
      "ivil": 2131,
      "Ġresources": 2132,
      "iam": 2133,
      "Ġfr": 2134,
      "Ġdiet": 2135,
      "Ġcollect": 2136,
      "Ġdig": 2137,
      "ĠRep": 2138,
      "ĠAust": 2139,
      "Ġmembers": 2140,
      "fer": 2141,
      "oura": 2142,
      "Ġlot": 2143,
      "Ġarticle": 2144,
      "Ġmass": 2145,
      "uation": 2146,
      "Ġoil": 2147,
      "Ġwhole": 2148,
      "Ġproduction": 2149,
      "Ġrelig": 2150,
      "Ġdest": 2151,
      "iple": 2152,
      "Ġresearchers": 2153,
      "Ġtaken": 2154,
      "Ġonce": 2155,
      "Ġcame": 2156,
      "Ġevent": 2157,
      "ublic": 2158,
      "Ġquality": 2159,
      "Ġbuilding": 2160,
      "Ġmedical": 2161,
      "ĠDep": 2162,
      "ule": 2163,
      "bon": 2164,
      "ĠAmerica": 2165,
      "ĠSouth": 2166,
      "ĠYork": 2167,
      "osis": 2168,
      "Ġmeet": 2169,
      "Ġindust": 2170,
      "Ġsent": 2171,
      "Ġsurface": 2172,
      "Ġ13": 2173,
      "ĠMan": 2174,
      "Ġwhite": 2175,
      "Ġsource": 2176,
      "val": 2177,
      "rict": 2178,
      "Ġpolitical": 2179,
      "Ġliving": 2180,
      "Ġthemselves": 2181,
      "idered": 2182,
      "ĠAss": 2183,
      "Ġdom": 2184,
      "Ġdoct": 2185,
      "Ġann": 2186,
      "fact": 2187,
      "Ġachie": 2188,
      "ĠCont": 2189,
      "ĠAcc": 2190,
      "Ġdetail": 2191,
      "ips": 2192,
      "Ġfrequ": 2193,
      "Ġhold": 2194,
      "roll": 2195,
      "Ġissues": 2196,
      "Ġbat": 2197,
      "Ġinit": 2198,
      "Ġthought": 2199,
      "ournal": 2200,
      "ee": 2201,
      "Ġ197": 2202,
      "Ġflu": 2203,
      "Ġcreated": 2204,
      "Ġclimate": 2205,
      "Ġaddress": 2206,
      "Ġstates": 2207,
      "ĠAct": 2208,
      "Ġfield": 2209,
      "Ġpaper": 2210,
      "Ġabs": 2211,
      "Ġnature": 2212,
      "ĠÂ": 2213,
      "Ġcannot": 2214,
      "Ġtot": 2215,
      "\".": 2216,
      "Ġwide": 2217,
      "Ġred": 2218,
      "Ġobserv": 2219,
      "Ġitself": 2220,
      "Ġreduce": 2221,
      "Ġdrug": 2222,
      "eter": 2223,
      "Ġquestions": 2224,
      "illed": 2225,
      "Ġver": 2226,
      "apan": 2227,
      "Ġanimals": 2228,
      "ask": 2229,
      "Ġconsidered": 2230,
      "17": 2231,
      "ĠHis": 2232,
      "Ġlay": 2233,
      "Ġfri": 2234,
      "Ġconcept": 2235,
      "ĠEarth": 2236,
      "Ġ=": 2237,
      "16": 2238,
      "Ġhistor": 2239,
      "fficient": 2240,
      "Ġsize": 2241,
      "ĠHist": 2242,
      "ibr": 2243,
      "Ġincreased": 2244,
      "ober": 2245,
      "reme": 2246,
      "Ġsound": 2247,
      "ights": 2248,
      "Ġdoc": 2249,
      "Ġtell": 2250,
      "Ġfail": 2251,
      "Ġrights": 2252,
      "ety": 2253,
      "like": 2254,
      "Ġactually": 2255,
      "):": 2256,
      "Ġintrodu": 2257,
      "eb": 2258,
      "rect": 2259,
      "Ġmor": 2260,
      "Ġeconomic": 2261,
      "ĠNo": 2262,
      "Ġrepl": 2263,
      "Ġpublished": 2264,
      "ma": 2265,
      "reg": 2266,
      "leep": 2267,
      "Ġassociated": 2268,
      "Ġalmost": 2269,
      "Ġpressure": 2270,
      "Ġpay": 2271,
      "sh": 2272,
      "ĠMany": 2273,
      "go": 2274,
      "ĠPe": 2275,
      "Ġfamil": 2276,
      "utions": 2277,
      "Ġskills": 2278,
      "Ġweek": 2279,
      "Ġcut": 2280,
      "ications": 2281,
      "Ġadult": 2282,
      "Ġblack": 2283,
      "org": 2284,
      "ĠFl": 2285,
      "Ġrecomm": 2286,
      "ened": 2287,
      "ĠGu": 2288,
      "Ġsal": 2289,
      "enn": 2290,
      "ĠEm": 2291,
      "Ġarg": 2292,
      "Ġrequired": 2293,
      "Ġsimple": 2294,
      "SA": 2295,
      "Ġglobal": 2296,
      "Ġidea": 2297,
      "ĠX": 2298,
      "Ġtook": 2299,
      "epend": 2300,
      "Ġfat": 2301,
      "ĠCo": 2302,
      "Ġmodern": 2303,
      "itary": 2304,
      "Ġskin": 2305,
      ".)": 2306,
      "Ġopportun": 2307,
      "Ġrelationship": 2308,
      "artment": 2309,
      "Ġclaim": 2310,
      "aced": 2311,
      "Ġentire": 2312,
      "ivity": 2313,
      "Ġmaint": 2314,
      "Ġcomplex": 2315,
      "sequ": 2316,
      "Ġprovides": 2317,
      "ĠState": 2318,
      "Ġsoil": 2319,
      "Ġhalf": 2320,
      "itud": 2321,
      "Ġstudent": 2322,
      "aged": 2323,
      "Ġpractice": 2324,
      "14": 2325,
      "Ġunderstanding": 2326,
      "ĠJapan": 2327,
      "Ġfish": 2328,
      "âĢ¦": 2329,
      "ĠSy": 2330,
      "hib": 2331,
      "ging": 2332,
      "Ġsuper": 2333,
      "Ġneeded": 2334,
      "Ġability": 2335,
      "Ġpriv": 2336,
      "lying": 2337,
      "Ġrelated": 2338,
      "Ġmarket": 2339,
      "Ġmaterials": 2340,
      "Ġquick": 2341,
      "Ġengine": 2342,
      "acks": 2343,
      "Ġpurp": 2344,
      "Ġport": 2345,
      "Ġprote": 2346,
      "Ġbegan": 2347,
      "oon": 2348,
      "Ġarch": 2349,
      "Ġhours": 2350,
      "Ġcondition": 2351,
      "Ġcat": 2352,
      "Ġparts": 2353,
      "hing": 2354,
      "erve": 2355,
      "ump": 2356,
      "Ġeffective": 2357,
      "Ġexerc": 2358,
      "13": 2359,
      "ĠInstit": 2360,
      "mon": 2361,
      "olic": 2362,
      "Ġcop": 2363,
      "gest": 2364,
      "yl": 2365,
      "ĠSu": 2366,
      "ĠBritish": 2367,
      "Ġstress": 2368,
      "Ġever": 2369,
      "rown": 2370,
      "Ġsepar": 2371,
      "ĠMore": 2372,
      "Ġmoney": 2373,
      "Ġweight": 2374,
      "Ġarr": 2375,
      "Ġ196": 2376,
      "ney": 2377,
      "ening": 2378,
      "Ġvers": 2379,
      "ĠMost": 2380,
      "Ġcomes": 2381,
      "het": 2382,
      "Ġexperien": 2383,
      "oses": 2384,
      "my": 2385,
      "Ġsense": 2386,
      "Ġhtt": 2387,
      "eding": 2388,
      "Ġmonths": 2389,
      "ores": 2390,
      "ply": 2391,
      "Ġregion": 2392,
      "Ġnecessary": 2393,
      "Ġyet": 2394,
      "Ġrul": 2395,
      "utes": 2396,
      "Ġheat": 2397,
      "irm": 2398,
      "Ġgreen": 2399,
      "ai": 2400,
      "ese": 2401,
      "Ġlink": 2402,
      "Ġge": 2403,
      "usion": 2404,
      "ript": 2405,
      "rad": 2406,
      "ises": 2407,
      "Ġmanagement": 2408,
      "urs": 2409,
      "gar": 2410,
      "vere": 2411,
      "Ġansw": 2412,
      "Ġcoll": 2413,
      "oll": 2414,
      "Ġdog": 2415,
      "Ġsuff": 2416,
      "ĠResearch": 2417,
      "Ġconduct": 2418,
      "empt": 2419,
      "Ġliter": 2420,
      "Ġ50": 2421,
      "Ġreact": 2422,
      "estern": 2423,
      "Ġavoid": 2424,
      "Ġwin": 2425,
      "Ġanc": 2426,
      "chan": 2427,
      "Ġproduce": 2428,
      "Ġcamp": 2429,
      "Ġapproach": 2430,
      "Ġservices": 2431,
      "--": 2432,
      "Ġ100": 2433,
      "iddle": 2434,
      "Ġassess": 2435,
      "son": 2436,
      "Ġpath": 2437,
      "Ġhealthy": 2438,
      "Ġparents": 2439,
      "abit": 2440,
      "bo": 2441,
      "ĠCanad": 2442,
      "ĠAlthough": 2443,
      "uel": 2444,
      "Ġfire": 2445,
      "Ġgas": 2446,
      "ĠPer": 2447,
      "Ġstop": 2448,
      "Ġcomputer": 2449,
      "aging": 2450,
      "Ġpopular": 2451,
      "Ġmeasure": 2452,
      "ensive": 2453,
      "Ġthroughout": 2454,
      "izing": 2455,
      "Ġtar": 2456,
      "Ġanalysis": 2457,
      "Ġprinc": 2458,
      "Ġregard": 2459,
      "Ġ25": 2460,
      "ĠSec": 2461,
      "Ġsix": 2462,
      "Ġfactors": 2463,
      "Ġpersonal": 2464,
      "nces": 2465,
      "ences": 2466,
      "ederal": 2467,
      "Ġmusic": 2468,
      "Ġbar": 2469,
      "Ġchemical": 2470,
      "hold": 2471,
      "ume": 2472,
      "ĠII": 2473,
      "Ġprevious": 2474,
      "Ġsam": 2475,
      "Ġemer": 2476,
      "ections": 2477,
      "abor": 2478,
      "based": 2479,
      "ĠHere": 2480,
      "Ġshows": 2481,
      "Ġrecent": 2482,
      "Ġpattern": 2483,
      "Ġreading": 2484,
      "Th": 2485,
      "Ġsoft": 2486,
      "Ġincreasing": 2487,
      "erous": 2488,
      "Ġfarm": 2489,
      "Ġjob": 2490,
      "Ġut": 2491,
      "icles": 2492,
      "ches": 2493,
      "Ġtherap": 2494,
      "Ġla": 2495,
      "Ġinteract": 2496,
      "Ġlonger": 2497,
      "Ġtaking": 2498,
      "igure": 2499,
      "uck": 2500,
      "Ġprovided": 2501,
      "pid": 2502,
      "Ġsociety": 2503,
      "Ġbur": 2504,
      "Ġcolor": 2505,
      "Ġsurv": 2506,
      "ulations": 2507,
      "Ġstructure": 2508,
      "Ġindividuals": 2509,
      "Ġbuilt": 2510,
      "Ġbehavior": 2511,
      "ĠOther": 2512,
      "Ġtalk": 2513,
      "abet": 2514,
      "Ġaction": 2515,
      "pro": 2516,
      "Ġposition": 2517,
      "Ġconc": 2518,
      "onse": 2519,
      "Ġtotal": 2520,
      "Ġmatter": 2521,
      "minist": 2522,
      "Ġonline": 2523,
      "ES": 2524,
      "ĠPres": 2525,
      "Ġsex": 2526,
      "ister": 2527,
      "Ã©": 2528,
      "ster": 2529,
      "Ġthing": 2530,
      "Ġmedia": 2531,
      "____": 2532,
      "Ġservice": 2533,
      "ucle": 2534,
      "Ġviol": 2535,
      "iction": 2536,
      "ze": 2537,
      "lands": 2538,
      "ĠSchool": 2539,
      "Ġindustry": 2540,
      "Ġenvironmental": 2541,
      "ows": 2542,
      "Ġheav": 2543,
      "Ġetc": 2544,
      "emic": 2545,
      "order": 2546,
      "inary": 2547,
      "ĠAccording": 2548,
      "ĠJew": 2549,
      "Ġearth": 2550,
      "Ġtemperature": 2551,
      "Ġaccept": 2552,
      "yle": 2553,
      "ĠKing": 2554,
      "Ġterms": 2555,
      "ene": 2556,
      "Ġrev": 2557,
      "Ġbring": 2558,
      "Ġcaused": 2559,
      "hood": 2560,
      "vey": 2561,
      "Ġexperim": 2562,
      "Ġmeaning": 2563,
      "Ġtrue": 2564,
      "ĠMe": 2565,
      "istance": 2566,
      "Ġcontent": 2567,
      "Ġce": 2568,
      "Ġcheck": 2569,
      "rought": 2570,
      "Ġdesigned": 2571,
      "Ġlove": 2572,
      "lt": 2573,
      "Ġthreat": 2574,
      "ns": 2575,
      "fully": 2576,
      "Ġvari": 2577,
      "Ġshown": 2578,
      "Ġtraining": 2579,
      "Ġbreak": 2580,
      "Ġprograms": 2581,
      "Ġwriting": 2582,
      "Ġsat": 2583,
      "aily": 2584,
      "ricult": 2585,
      "mb": 2586,
      "Ġoriginal": 2587,
      "Ġple": 2588,
      "asc": 2589,
      "aries": 2590,
      "ĠPre": 2591,
      "Ġincludes": 2592,
      "ĠPar": 2593,
      "Ġcontact": 2594,
      "Ġschools": 2595,
      "anced": 2596,
      "Ġtravel": 2597,
      "uge": 2598,
      "Ġcompany": 2599,
      "Ġmethods": 2600,
      "ID": 2601,
      "Ġled": 2602,
      "amed": 2603,
      "ched": 2604,
      "ĠQu": 2605,
      "rench": 2606,
      "Ġculture": 2607,
      "ĠAustral": 2608,
      "reng": 2609,
      "ĠMin": 2610,
      "ĠWill": 2611,
      "Ġlives": 2612,
      "Ġsometimes": 2613,
      "Ġpositive": 2614,
      "Ġcontain": 2615,
      "dom": 2616,
      "Ġexc": 2617,
      "atives": 2618,
      "Ġpage": 2619,
      "Ġ--": 2620,
      "istics": 2621,
      "ĠPart": 2622,
      "Ġstandard": 2623,
      "Ġdiagn": 2624,
      "Ġsafe": 2625,
      "ronic": 2626,
      "Ġslow": 2627,
      "Ġ194": 2628,
      "Ġrelative": 2629,
      "ĠInt": 2630,
      "ades": 2631,
      "Ġvide": 2632,
      "Ġscientists": 2633,
      "Ġspread": 2634,
      "Ġsimply": 2635,
      "imately": 2636,
      "Ġgreater": 2637,
      "Ġinj": 2638,
      "Ġvariety": 2639,
      "Ġeasy": 2640,
      "Ġsleep": 2641,
      "icine": 2642,
      "ĠApp": 2643,
      "Ġbenefits": 2644,
      "Ġreported": 2645,
      "duc": 2646,
      "Ġaverage": 2647,
      "ĠJes": 2648,
      "Ġfem": 2649,
      "ĠEd": 2650,
      "ington": 2651,
      "Ġwild": 2652,
      "Ġtarget": 2653,
      "aving": 2654,
      "umb": 2655,
      "ropri": 2656,
      "Ġbelieve": 2657,
      "Ġcauses": 2658,
      "aff": 2659,
      "AT": 2660,
      "cil": 2661,
      "Ġemb": 2662,
      "Ġissue": 2663,
      "ĠCons": 2664,
      "ius": 2665,
      "Ġlif": 2666,
      "itation": 2667,
      "ĠComp": 2668,
      "ĠFrom": 2669,
      "rior": 2670,
      "osition": 2671,
      "Ġmach": 2672,
      "Ġfru": 2673,
      "rie": 2674,
      "Ġwritten": 2675,
      "ĠNot": 2676,
      "idge": 2677,
      "Ġinvolved": 2678,
      "astic": 2679,
      "Ġorigin": 2680,
      "lex": 2681,
      "ervation": 2682,
      "Ġdeep": 2683,
      "ĠHar": 2684,
      "Ġclean": 2685,
      "ĠYour": 2686,
      "ban": 2687,
      "arily": 2688,
      "Ġeat": 2689,
      "ĠAug": 2690,
      "ĠRec": 2691,
      "Ġrespect": 2692,
      "Ġpict": 2693,
      "Ġsubst": 2694,
      "Ġpoll": 2695,
      "Ġste": 2696,
      "Ġregular": 2697,
      "new": 2698,
      "Ġmovement": 2699,
      "Ġuses": 2700,
      "ĠJan": 2701,
      "Ġprec": 2702,
      "Ġforms": 2703,
      "Ġmicro": 2704,
      "aches": 2705,
      "Ġnormal": 2706,
      "ĠJu": 2707,
      "ĠCount": 2708,
      "Ġlate": 2709,
      "eration": 2710,
      "Ġattempt": 2711,
      "rand": 2712,
      "Ġdemon": 2713,
      "ials": 2714,
      "rim": 2715,
      "Ġmechan": 2716,
      "Ġcompl": 2717,
      "aling": 2718,
      "Ġcompan": 2719,
      "Ġoutside": 2720,
      "Ġpsych": 2721,
      "Ġevents": 2722,
      "ĠIndia": 2723,
      "ĠScience": 2724,
      "ief": 2725,
      "Ġshare": 2726,
      "Ġdamage": 2727,
      "ached": 2728,
      "ĠChina": 2729,
      "bor": 2730,
      "Ġimage": 2731,
      "Ġlog": 2732,
      "ĠAc": 2733,
      "Ġparticularly": 2734,
      "ufact": 2735,
      "Ġdoing": 2736,
      "ength": 2737,
      "Ġbasic": 2738,
      "Ġsou": 2739,
      "Ġappl": 2740,
      "Ġsources": 2741,
      "Ġlack": 2742,
      "Ġrefer": 2743,
      "Ġsqu": 2744,
      "Ġreview": 2745,
      "ĠNow": 2746,
      "Ġstreng": 2747,
      "light": 2748,
      "verse": 2749,
      "Ġencoura": 2750,
      "Ġgenerally": 2751,
      "ĠOf": 2752,
      "hel": 2753,
      "Ġdeveloping": 2754,
      "osure": 2755,
      "Ġidentify": 2756,
      "ops": 2757,
      "Ġpoor": 2758,
      "Ġproduced": 2759,
      "know": 2760,
      "Ġimplement": 2761,
      "Ġtax": 2762,
      "In": 2763,
      "Ġresponse": 2764,
      "Ġnetwork": 2765,
      "Ġserious": 2766,
      "Ġforce": 2767,
      "rast": 2768,
      "Ġcarbon": 2769,
      "AR": 2770,
      "Ġ/": 2771,
      "Ġremov": 2772,
      "Ġgrowing": 2773,
      "Ġwood": 2774,
      "ĠBo": 2775,
      "Ġinternational": 2776,
      "ĠFirst": 2777,
      "ĠUs": 2778,
      "ĠBec": 2779,
      "Ġdraw": 2780,
      "Ġ24": 2781,
      "imum": 2782,
      "Ġvisit": 2783,
      "Ġcust": 2784,
      "Ġfeet": 2785,
      "Ġseries": 2786,
      "ership": 2787,
      "Ġface": 2788,
      "Ġbacter": 2789,
      "ĠâĢ¢": 2790,
      "Ġsea": 2791,
      "Ġattack": 2792,
      "Ġaff": 2793,
      "Ġfoods": 2794,
      "ĠCenter": 2795,
      "Ġprobably": 2796,
      "ender": 2797,
      "isions": 2798,
      "oor": 2799,
      "ĠDuring": 2800,
      "ĠGl": 2801,
      "Ġcompet": 2802,
      "Ġextreme": 2803,
      "IN": 2804,
      "ana": 2805,
      "uth": 2806,
      "ĠAg": 2807,
      "Ġideas": 2808,
      "Ġharm": 2809,
      "uary": 2810,
      "erg": 2811,
      "Ġap": 2812,
      "rated": 2813,
      "Ġlat": 2814,
      "Ġforest": 2815,
      "ĠMy": 2816,
      "Ġago": 2817,
      "Ġcoun": 2818,
      "Ġattention": 2819,
      "ided": 2820,
      "Ġmother": 2821,
      "Ġsafety": 2822,
      "Ġconsist": 2823,
      "ribution": 2824,
      "ror": 2825,
      "Ġnumbers": 2826,
      "Ġelectric": 2827,
      "Ġcompon": 2828,
      "ĠEduc": 2829,
      "OR": 2830,
      "Ġmess": 2831,
      "eed": 2832,
      "raft": 2833,
      "Ġcross": 2834,
      "Ġhelps": 2835,
      "Ġdeb": 2836,
      "ĠRuss": 2837,
      "Ġselect": 2838,
      "ctions": 2839,
      "Ġexpress": 2840,
      "Ġvit": 2841,
      "Ġanimal": 2842,
      "ĠEl": 2843,
      "oly": 2844,
      "ĠTw": 2845,
      "Ġteachers": 2846,
      "Ġdou": 2847,
      "ĠFrench": 2848,
      "Ġcit": 2849,
      "elling": 2850,
      "Ġinteg": 2851,
      "Ġensure": 2852,
      "Ġir": 2853,
      "Ġdefin": 2854,
      "Ġsust": 2855,
      "cies": 2856,
      "vention": 2857,
      "Ġveget": 2858,
      "Ġ2010": 2859,
      "ĠKe": 2860,
      "Ġvirus": 2861,
      "Ġtown": 2862,
      "Ġcommit": 2863,
      "Ġindepend": 2864,
      "ĠArt": 2865,
      "Ġbirth": 2866,
      "Ġprep": 2867,
      "haps": 2868,
      "Ġemot": 2869,
      "Ġbal": 2870,
      "oles": 2871,
      "Ġcivil": 2872,
      "22": 2873,
      "ino": 2874,
      "erson": 2875,
      "Ġfa": 2876,
      "Ġtherefore": 2877,
      "Ġnight": 2878,
      "Ġox": 2879,
      "ground": 2880,
      "Ġcontinue": 2881,
      "Ġtheory": 2882,
      "Ġincluded": 2883,
      "Ġpolicy": 2884,
      "ĠOur": 2885,
      "inks": 2886,
      "Ġgetting": 2887,
      "ony": 2888,
      "Ġsecurity": 2889,
      "ĠCalif": 2890,
      "ying": 2891,
      "Ġdispl": 2892,
      "ĠEuropean": 2893,
      "Ġlooking": 2894,
      "Ġestablished": 2895,
      "Ġestim": 2896,
      "osing": 2897,
      "Ġwall": 2898,
      "fect": 2899,
      "Ġinstead": 2900,
      "irit": 2901,
      "Ġwarm": 2902,
      "Ġmilitary": 2903,
      "Ġthus": 2904,
      "Ġ,": 2905,
      "overy": 2906,
      "ĠCO": 2907,
      "ĠRet": 2908,
      "ĠInstitute": 2909,
      "Ġearl": 2910,
      "ĠDepartment": 2911,
      "ads": 2912,
      "useum": 2913,
      "Ġbooks": 2914,
      "Ġconcent": 2915,
      "Ġcover": 2916,
      "ems": 2917,
      "Ġ2012": 2918,
      "abetes": 2919,
      "Ġkids": 2920,
      "itude": 2921,
      "Ġthird": 2922,
      "Ġheld": 2923,
      "Ġthous": 2924,
      "Ġtree": 2925,
      "Ġadded": 2926,
      "Ġscientific": 2927,
      "Ġinvestig": 2928,
      "Ġdiv": 2929,
      "ĠJune": 2930,
      "Ġcorrect": 2931,
      "Ġwebs": 2932,
      "Ġtakes": 2933,
      "Ġ40": 2934,
      "Ġchalleng": 2935,
      "ĠIndian": 2936,
      "Ġaware": 2937,
      "yr": 2938,
      "ĠChar": 2939,
      "25": 2940,
      "ls": 2941,
      "Ġquite": 2942,
      "Ġinstit": 2943,
      "cell": 2944,
      "thern": 2945,
      "ĠGerman": 2946,
      "Ġbab": 2947,
      "ha": 2948,
      "ĠMarch": 2949,
      "Ġdang": 2950,
      "Ġdaily": 2951,
      "Ġprimary": 2952,
      "ties": 2953,
      "ming": 2954,
      "Ġpoints": 2955,
      "ĠChild": 2956,
      "Ġdifference": 2957,
      "Ġdoesn": 2958,
      "Ġful": 2959,
      "Ġpatient": 2960,
      "Ġfinanc": 2961,
      "Ġeth": 2962,
      "room": 2963,
      "Ġcompared": 2964,
      "Ġhyd": 2965,
      "Ġmanufact": 2966,
      "Ġessential": 2967,
      "rew": 2968,
      "issions": 2969,
      "Ġfav": 2970,
      "ille": 2971,
      "We": 2972,
      "Ġeasily": 2973,
      "Ġprint": 2974,
      "Ġseems": 2975,
      "ĠOct": 2976,
      "Ġi": 2977,
      "ĠMus": 2978,
      "hern": 2979,
      "ĠSm": 2980,
      "Ġfront": 2981,
      "Ġdetermine": 2982,
      "Ġsomeone": 2983,
      "ornia": 2984,
      "Ġcapt": 2985,
      "Ġsolar": 2986,
      "ension": 2987,
      "Ġnation": 2988,
      "ĠTra": 2989,
      "undred": 2990,
      "Ġstarted": 2991,
      "Ġfamilies": 2992,
      "asons": 2993,
      "ĠEven": 2994,
      "Ġimmedi": 2995,
      "ography": 2996,
      "where": 2997,
      "na": 2998,
      "Ġreflect": 2999,
      "Wh": 3000,
      "Ġperformance": 3001,
      "Ġmagn": 3002,
      "Ġnucle": 3003,
      "Ġtraditional": 3004,
      "AN": 3005,
      "arr": 3006,
      "set": 3007,
      "Ġlarger": 3008,
      "Ġsold": 3009,
      "rs": 3010,
      "Ġtur": 3011,
      "Ġbit": 3012,
      "Ġalthough": 3013,
      "elt": 3014,
      "Ġ2011": 3015,
      "Ġdocument": 3016,
      "ĠReg": 3017,
      "ĠChristian": 3018,
      "Ġhumans": 3019,
      "Ġallows": 3020,
      "Ġreve": 3021,
      "ĠHer": 3022,
      "Ġappropri": 3023,
      "ĠAnt": 3024,
      "ĠInternational": 3025,
      "pril": 3026,
      "Ġcommunities": 3027,
      "IS": 3028,
      "Ġunique": 3029,
      "ĠCalifornia": 3030,
      "ift": 3031,
      "Ġinside": 3032,
      "Ġnegative": 3033,
      "Ġaud": 3034,
      "Ġprogress": 3035,
      "ancy": 3036,
      "Ġeval": 3037,
      "ĠSch": 3038,
      "ĠWest": 3039,
      "Ġdirectly": 3040,
      "ĠSince": 3041,
      "Ġdiseases": 3042,
      "Ġwent": 3043,
      "Ġtrees": 3044,
      "www": 3045,
      "ĠDav": 3046,
      "Ġquickly": 3047,
      "Ġcompanies": 3048,
      "ĠAfrican": 3049,
      "rate": 3050,
      "Ġadditional": 3051,
      "ĠJesus": 3052,
      "Ġmultiple": 3053,
      "Ġdecre": 3054,
      "Ġoffer": 3055,
      "ellow": 3056,
      "Ġdemonstr": 3057,
      "oes": 3058,
      "ounds": 3059,
      "Ġaltern": 3060,
      "ĠCor": 3061,
      "Ġbehind": 3062,
      "Ġdoctor": 3063,
      "ĠHistory": 3064,
      "Ġactive": 3065,
      "Ġlabor": 3066,
      "orthern": 3067,
      "Ġtools": 3068,
      "fl": 3069,
      "iency": 3070,
      "att": 3071,
      "ĠBr": 3072,
      "ĠWash": 3073,
      "anks": 3074,
      "gency": 3075,
      "Ġhttp": 3076,
      "Ġwhose": 3077,
      "Ġspeak": 3078,
      "uman": 3079,
      "olar": 3080,
      "Ġvacc": 3081,
      "iot": 3082,
      "aly": 3083,
      "Ġachieve": 3084,
      "Ġsil": 3085,
      "Ġnorth": 3086,
      "Ġmental": 3087,
      "Ġaspect": 3088,
      "ĠSept": 3089,
      "Ġhost": 3090,
      "Ġhighly": 3091,
      "Ġtend": 3092,
      "Ġrout": 3093,
      "Ġinfection": 3094,
      "Ġfoot": 3095,
      "rition": 3096,
      "Ġdry": 3097,
      "Ġsoon": 3098,
      "yond": 3099,
      "Ġbeginning": 3100,
      "Ġhabit": 3101,
      "ims": 3102,
      "Ġwalk": 3103,
      "ĠBar": 3104,
      "Ġextra": 3105,
      "Ġmount": 3106,
      "Ġhar": 3107,
      "joy": 3108,
      "ĠMon": 3109,
      "den": 3110,
      "Ġstri": 3111,
      "Ġhor": 3112,
      "uries": 3113,
      "IC": 3114,
      "Ġexercise": 3115,
      "Ġtri": 3116,
      "ĠRead": 3117,
      "Ġgard": 3118,
      "Ġthinking": 3119,
      "ĠAugust": 3120,
      "Ġcentral": 3121,
      "ĠJuly": 3122,
      "Ġsevere": 3123,
      "Ġinterp": 3124,
      "Ġeye": 3125,
      "Ġhot": 3126,
      "Ġlost": 3127,
      "Ġfeed": 3128,
      "Ġelements": 3129,
      "Ġprior": 3130,
      "Ġdecl": 3131,
      "Ġbroad": 3132,
      "eks": 3133,
      "Ġimpl": 3134,
      "icated": 3135,
      "ĠIr": 3136,
      "Ġ2009": 3137,
      "Ġhy": 3138,
      "Ġanswer": 3139,
      "ulate": 3140,
      "inese": 3141,
      "cean": 3142,
      "ĠBecause": 3143,
      "Ġsus": 3144,
      "ĠAfrica": 3145,
      "Ġjud": 3146,
      "ĠLear": 3147,
      "Ġsupply": 3148,
      "iter": 3149,
      "Ġx": 3150,
      "ĠGree": 3151,
      "Ġvalues": 3152,
      "Ġtiss": 3153,
      "Ġprotein": 3154,
      "Ġreceived": 3155,
      "Ġ21": 3156,
      "term": 3157,
      "Ġancient": 3158,
      "Ġclin": 3159,
      "rael": 3160,
      "Ġcritical": 3161,
      "ĠCong": 3162,
      "Ġbase": 3163,
      "Ġvideo": 3164,
      "Ġinn": 3165,
      "Ġlimited": 3166,
      "Ġelse": 3167,
      "Ġleading": 3168,
      "Ġhundred": 3169,
      "21": 3170,
      "Ġbad": 3171,
      "ields": 3172,
      "Ġobt": 3173,
      "Ġpurpose": 3174,
      "Ġexpect": 3175,
      "Ġjo": 3176,
      "rogen": 3177,
      "Ġfram": 3178,
      "Ġdrink": 3179,
      "Ġcontains": 3180,
      "ilos": 3181,
      "mar": 3182,
      "Ġprotection": 3183,
      "mission": 3184,
      "Ġcapital": 3185,
      "Ġuseful": 3186,
      "iers": 3187,
      "iques": 3188,
      "Ġcred": 3189,
      "Ġquant": 3190,
      "con": 3191,
      "Ġbrought": 3192,
      "Ġtowards": 3193,
      "Ġdescribed": 3194,
      "ON": 3195,
      "Ġdecision": 3196,
      "Ġprivate": 3197,
      "Ġord": 3198,
      "Ġcard": 3199,
      "Ġsection": 3200,
      "Ġlargest": 3201,
      "uk": 3202,
      "ĠWhy": 3203,
      "ĠApril": 3204,
      "ĠAlso": 3205,
      "Ġfight": 3206,
      "Ġminutes": 3207,
      "Ġsouth": 3208,
      "oming": 3209,
      "ĠSw": 3210,
      "Ġagree": 3211,
      "Ġadop": 3212,
      "Ġproced": 3213,
      "hest": 3214,
      "Ġdark": 3215,
      "Ġteaching": 3216,
      "Ġreligious": 3217,
      "Ġacid": 3218,
      "ĠGovern": 3219,
      "Ġnews": 3220,
      "pe": 3221,
      "ĠInc": 3222,
      "isms": 3223,
      "It": 3224,
      "ils": 3225,
      "ĠProg": 3226,
      "ching": 3227,
      "Ġadminist": 3228,
      "ĠPresident": 3229,
      "40": 3230,
      "Ġgame": 3231,
      "Ġmom": 3232,
      "ĠRiver": 3233,
      "Ġanaly": 3234,
      "Ġsearch": 3235,
      "lection": 3236,
      "iber": 3237,
      "cks": 3238,
      "vant": 3239,
      "Ġcontribut": 3240,
      "Ġremains": 3241,
      "formation": 3242,
      "ĠPress": 3243,
      "Ġtransport": 3244,
      "Ġsituation": 3245,
      "Ġstrateg": 3246,
      "23": 3247,
      "ĠEngland": 3248,
      "ription": 3249,
      "arian": 3250,
      "Ġseason": 3251,
      "Ġcapac": 3252,
      "oring": 3253,
      "Ġfast": 3254,
      "omet": 3255,
      "ĠMc": 3256,
      "inct": 3257,
      "Ġinfluence": 3258,
      "ĠWashington": 3259,
      "coh": 3260,
      "Ġcarry": 3261,
      "Ġcustom": 3262,
      "Ġestablish": 3263,
      "Ġapplication": 3264,
      "Ġshall": 3265,
      "IV": 3266,
      "hens": 3267,
      "Ġstay": 3268,
      "Ġfeatures": 3269,
      "ĠThen": 3270,
      "Ġgot": 3271,
      "ĠChinese": 3272,
      "Ġpack": 3273,
      "wise": 3274,
      "ĠFin": 3275,
      "istry": 3276,
      "bol": 3277,
      "Ġnearly": 3278,
      "ĠServ": 3279,
      "Ġmiles": 3280,
      "Ġones": 3281,
      "Ġenjoy": 3282,
      "Ġwrite": 3283,
      "Ġmill": 3284,
      "uous": 3285,
      "rote": 3286,
      "iles": 3287,
      "Ġstra": 3288,
      "Ġ*": 3289,
      "Ġrates": 3290,
      "Ġlocated": 3291,
      "sect": 3292,
      "bit": 3293,
      "Ġlength": 3294,
      "Ġdisp": 3295,
      "Ġplaces": 3296,
      "ĠAmericans": 3297,
      "Ġexcept": 3298,
      "Ġremain": 3299,
      "Ġadults": 3300,
      "'re": 3301,
      "Ġhands": 3302,
      "ĠSim": 3303,
      "ĠIsrael": 3304,
      "Ġborn": 3305,
      "Ġbecomes": 3306,
      "used": 3307,
      "Ġaccur": 3308,
      "Ġ2008": 3309,
      "Ġblock": 3310,
      "oke": 3311,
      "gn": 3312,
      "Ġtold": 3313,
      "Ġvict": 3314,
      "Ġhimself": 3315,
      "âĢĿ.": 3316,
      "Ġlaws": 3317,
      "ulated": 3318,
      "ĠWilliam": 3319,
      "Ġworkers": 3320,
      "Ġexact": 3321,
      "Ġtit": 3322,
      "Ġtransl": 3323,
      "ĠAssoci": 3324,
      "Ġreach": 3325,
      "Ġgoal": 3326,
      "Ġbeaut": 3327,
      "ologies": 3328,
      "Ġegg": 3329,
      "Ġang": 3330,
      "Ġagricult": 3331,
      "itect": 3332,
      "Ġweeks": 3333,
      "Ġfinancial": 3334,
      "Ġsoftware": 3335,
      "orders": 3336,
      "Ġdevice": 3337,
      "ĠEc": 3338,
      "pper": 3339,
      "eal": 3340,
      "Ġwa": 3341,
      "ondon": 3342,
      "80": 3343,
      "Ġrare": 3344,
      "Ġcool": 3345,
      "Ġimag": 3346,
      "Ġdead": 3347,
      "ĠCity": 3348,
      "Ġdemand": 3349,
      "Ġsn": 3350,
      "ovember": 3351,
      "uments": 3352,
      "Ġefforts": 3353,
      "Ġ:": 3354,
      "Ġfather": 3355,
      "60": 3356,
      "Ġlines": 3357,
      "udd": 3358,
      "itis": 3359,
      "Ġhous": 3360,
      "Ġfederal": 3361,
      "ica": 3362,
      "Ġcoast": 3363,
      "Ġtests": 3364,
      "Ġstru": 3365,
      "izations": 3366,
      "fort": 3367,
      "Ġcommand": 3368,
      "see": 3369,
      "Ġproperty": 3370,
      "Ġbasis": 3371,
      "ĠCanada": 3372,
      "ĠEducation": 3373,
      "Ġrequires": 3374,
      "cember": 3375,
      "ĠTrans": 3376,
      "Ġsaw": 3377,
      "rag": 3378,
      "ext": 3379,
      "Ġobjects": 3380,
      "Ġdied": 3381,
      "imin": 3382,
      "Ġsustain": 3383,
      "odies": 3384,
      "Ġsites": 3385,
      "ibrary": 3386,
      "Ġforces": 3387,
      "alled": 3388,
      "ĠPol": 3389,
      "med": 3390,
      "ĠJanuary": 3391,
      "atur": 3392,
      "ĠFeb": 3393,
      "Ġ23": 3394,
      "Ġimages": 3395,
      "Ġmemory": 3396,
      "ĠDevelop": 3397,
      "Ġdevices": 3398,
      "Ġsummer": 3399,
      "entially": 3400,
      "EN": 3401,
      "Ġcitiz": 3402,
      "Ġimportance": 3403,
      "ĠRed": 3404,
      "iece": 3405,
      "aul": 3406,
      "life": 3407,
      "ĠGreat": 3408,
      "ĠPeople": 3409,
      "ceed": 3410,
      "ira": 3411,
      "Ġder": 3412,
      "exic": 3413,
      "Ġfriends": 3414,
      "Ġmention": 3415,
      "Ġaccom": 3416,
      "PA": 3417,
      "Ġking": 3418,
      "resh": 3419,
      "Ġpan": 3420,
      "Ġep": 3421,
      "Ġnothing": 3422,
      "Ġsurround": 3423,
      "anish": 3424,
      "ĠSeptember": 3425,
      "ama": 3426,
      "ocol": 3427,
      "ĠOctober": 3428,
      "vest": 3429,
      "Ġtable": 3430,
      "idents": 3431,
      "imal": 3432,
      "ĠDay": 3433,
      "Ġleaves": 3434,
      "Ġeyes": 3435,
      "Ġtrade": 3436,
      "Ġspeed": 3437,
      "alt": 3438,
      "Ġcou": 3439,
      "Ġmole": 3440,
      "water": 3441,
      "Ġrapid": 3442,
      "Ġult": 3443,
      "ipment": 3444,
      "oud": 3445,
      "Ġbott": 3446,
      "Ġconstit": 3447,
      "ĠJust": 3448,
      "ĠHigh": 3449,
      "Ġcosts": 3450,
      "Ġanything": 3451,
      "Ġhope": 3452,
      "Ġadj": 3453,
      "come": 3454,
      "year": 3455,
      "Ġsolution": 3456,
      "Ġ2013": 3457,
      "Ġmid": 3458,
      "Ġrespond": 3459,
      "ĠArch": 3460,
      "ĠEach": 3461,
      "Ġcenter": 3462,
      "Ġfit": 3463,
      "Ġ2007": 3464,
      "cles": 3465,
      "Ġappropriate": 3466,
      "Ġtypically": 3467,
      "Ġfollowed": 3468,
      "Ġprojects": 3469,
      "Ġmonitor": 3470,
      "Ġcultural": 3471,
      "Ġeating": 3472,
      "AS": 3473,
      "ĠDis": 3474,
      "Ġtesting": 3475,
      "rieved": 3476,
      "Ġlegal": 3477,
      "Ġbeyond": 3478,
      "Ġpen": 3479,
      "Ġbul": 3480,
      "ĠSee": 3481,
      "ĠSan": 3482,
      "Ġeverything": 3483,
      "equ": 3484,
      "Ġgives": 3485,
      "ĠLaw": 3486,
      "Ġson": 3487,
      "sec": 3488,
      "Ġresponsible": 3489,
      "estic": 3490,
      "Ġtechniques": 3491,
      "Ġfinal": 3492,
      "Ġcolon": 3493,
      "Ġveh": 3494,
      "Ġconstruction": 3495,
      "Ġdestro": 3496,
      "ĠPark": 3497,
      "ĠAre": 3498,
      "This": 3499,
      "ĠOver": 3500,
      "ĠJournal": 3501,
      "Ġcreating": 3502,
      "Ġcontroll": 3503,
      "cohol": 3504,
      "Ġcommunication": 3505,
      "Ġasked": 3506,
      "Ġspirit": 3507,
      "lin": 3508,
      "Ġapplications": 3509,
      "ype": 3510,
      "ĠTechn": 3511,
      "ĠChurch": 3512,
      "Ġexamples": 3513,
      "IT": 3514,
      "ĠUse": 3515,
      "izes": 3516,
      "ĠBi": 3517,
      "Ġprocesses": 3518,
      "ĠAnother": 3519,
      "apter": 3520,
      "Ġrecently": 3521,
      "Ġbacteria": 3522,
      "ixed": 3523,
      "ĠVir": 3524,
      "ipl": 3525,
      "Ġfear": 3526,
      "ĠInst": 3527,
      "Ġmiddle": 3528,
      "Ġeconomy": 3529,
      "Ġ22": 3530,
      "Ġinstru": 3531,
      "iar": 3532,
      "ĠIS": 3533,
      "Ġsugar": 3534,
      "Ġwaste": 3535,
      "Ġdiabetes": 3536,
      "ests": 3537,
      "Ġteacher": 3538,
      "Ġolder": 3539,
      "Ġguid": 3540,
      ");": 3541,
      "ĠOnce": 3542,
      "cial": 3543,
      "Ġcele": 3544,
      "Ġten": 3545,
      "aught": 3546,
      "wor": 3547,
      "ĠCounty": 3548,
      "Ġdepend": 3549,
      "Ġcold": 3550,
      "199": 3551,
      "back": 3552,
      "amb": 3553,
      "Ġcode": 3554,
      "Ġadapt": 3555,
      "gypt": 3556,
      "Ġdate": 3557,
      "Ġexpected": 3558,
      "Ġanti": 3559,
      "Ġ193": 3560,
      "mosp": 3561,
      "Ġwebsite": 3562,
      "ĠMexic": 3563,
      "Ġgradu": 3564,
      "ĠNovember": 3565,
      "Ġsett": 3566,
      "Ġautom": 3567,
      "ĠLet": 3568,
      "Ġice": 3569,
      "Ġadvant": 3570,
      "Ġinsp": 3571,
      "Ġbenefit": 3572,
      "Ġcontinued": 3573,
      "aid": 3574,
      "Ġneigh": 3575,
      "ĠVal": 3576,
      "Ġwoman": 3577,
      "Ġsmaller": 3578,
      "Ġeffort": 3579,
      "ĠDecember": 3580,
      "ford": 3581,
      "Ġdigital": 3582,
      "Ġfile": 3583,
      "Ġformer": 3584,
      "edom": 3585,
      "ham": 3586,
      "Ġstandards": 3587,
      "isl": 3588,
      "ĠEast": 3589,
      "Ġnamed": 3590,
      "Ġrules": 3591,
      "Ġpractices": 3592,
      "ought": 3593,
      "ĠWater": 3594,
      "illing": 3595,
      "Ġcrop": 3596,
      "Ġcompletely": 3597,
      "head": 3598,
      "enge": 3599,
      "edia": 3600,
      "ĠCoun": 3601,
      "Ġconnect": 3602,
      "ĠPat": 3603,
      "Ġapprox": 3604,
      "Ġpet": 3605,
      "ĠLondon": 3606,
      "Ġseek": 3607,
      "Ġund": 3608,
      "Ġproviding": 3609,
      "ĠMod": 3610,
      "ĠSystem": 3611,
      "ogen": 3612,
      "Ġfuel": 3613,
      "rab": 3614,
      "Ġstage": 3615,
      "uit": 3616,
      "aur": 3617,
      "strial": 3618,
      "ĠCommun": 3619,
      "iples": 3620,
      "Ġgenetic": 3621,
      "Ġcourt": 3622,
      "Ġdegree": 3623,
      "Ġsuccessful": 3624,
      "Ġreasons": 3625,
      "oe": 3626,
      "Ġmiss": 3627,
      "Ġconsequ": 3628,
      "omb": 3629,
      "Ġwinter": 3630,
      "Ġweb": 3631,
      "ĠRoman": 3632,
      "ĠSociety": 3633,
      "Ġâ": 3634,
      "Ġrain": 3635,
      "aters": 3636,
      "Ġtherapy": 3637,
      "book": 3638,
      "Ġbeg": 3639,
      "Ġlocation": 3640,
      "à¤": 3641,
      "Ġwrote": 3642,
      "ĠSur": 3643,
      "24": 3644,
      "Ġbirds": 3645,
      "Ġreceive": 3646,
      "Ġaffected": 3647,
      "Ġbreat": 3648,
      "men": 3649,
      "ĠDNA": 3650,
      "Ġcollection": 3651,
      "ocr": 3652,
      "Ġunc": 3653,
      "Ġconflic": 3654,
      "Ġchoose": 3655,
      "Ġopportunity": 3656,
      "Ġbehavi": 3657,
      "Ġalone": 3658,
      "ĠCur": 3659,
      "Ġelectr": 3660,
      "mitted": 3661,
      "Ġcurrently": 3662,
      "Ġscreen": 3663,
      "Ġ60": 3664,
      "airs": 3665,
      "ocks": 3666,
      "Ġearlier": 3667,
      "Ġsch": 3668,
      "Ġtrying": 3669,
      "ĠProf": 3670,
      "Ġexposure": 3671,
      "ĠBlack": 3672,
      "Ġeight": 3673,
      "Ġinteresting": 3674,
      "ED": 3675,
      "Ġast": 3676,
      "Ġgoes": 3677,
      "Ġmember": 3678,
      "Ġorganization": 3679,
      "Ġbillion": 3680,
      "Ġuser": 3681,
      "Ġallowed": 3682,
      "ĠGeneral": 3683,
      "ari": 3684,
      "Ġhon": 3685,
      "emy": 3686,
      "Ġcru": 3687,
      "Ġoccurs": 3688,
      "ĠSocial": 3689,
      "Ġwon": 3690,
      "Ġcalcul": 3691,
      "ula": 3692,
      "ĠEgypt": 3693,
      "Ġusers": 3694,
      "ĠGermany": 3695,
      "ĠProt": 3696,
      "Ġroom": 3697,
      "ĠRetrieved": 3698,
      "Ġhyp": 3699,
      "Ġdifferences": 3700,
      "Ġformed": 3701,
      "Ġden": 3702,
      "Ġmeasures": 3703,
      "Ġscale": 3704,
      "Ġdiscovered": 3705,
      "Ġmax": 3706,
      "Ġleave": 3707,
      "Ġeveryone": 3708,
      "amic": 3709,
      "Ġequipment": 3710,
      "Ġmodels": 3711,
      "ruary": 3712,
      "Ġpoly": 3713,
      "Ġpow": 3714,
      "Ġvia": 3715,
      "ingu": 3716,
      "vert": 3717,
      "ky": 3718,
      "Ġexec": 3719,
      "ĠRel": 3720,
      "ribute": 3721,
      "Ġrule": 3722,
      "oday": 3723,
      "Ġpregn": 3724,
      "ensity": 3725,
      "load": 3726,
      "Ġsequ": 3727,
      "Ġswe": 3728,
      "iest": 3729,
      "Ġcoming": 3730,
      "Ġplaced": 3731,
      "Ġoccup": 3732,
      "ding": 3733,
      "Ġshape": 3734,
      "ibly": 3735,
      "Ġapplied": 3736,
      "rees": 3737,
      "itable": 3738,
      "Ġconstant": 3739,
      "Ġtele": 3740,
      "Ġvill": 3741,
      "Ġgir": 3742,
      "Ġperfect": 3743,
      "ĠUnder": 3744,
      "wide": 3745,
      "ara": 3746,
      "Ġyourself": 3747,
      "Ġpredict": 3748,
      "Ġmaintain": 3749,
      "Ġweather": 3750,
      "Ġstrength": 3751,
      "amer": 3752,
      "off": 3753,
      "Ġplanet": 3754,
      "ords": 3755,
      "orge": 3756,
      "Ġgave": 3757,
      "Ġdeal": 3758,
      "Ġcommonly": 3759,
      "Ġcateg": 3760,
      "ners": 3761,
      "AL": 3762,
      "ĠTheir": 3763,
      "ĠThus": 3764,
      "Ġwond": 3765,
      "Ġstatus": 3766,
      "Ġrise": 3767,
      "oration": 3768,
      "AC": 3769,
      "Ġpurch": 3770,
      "EC": 3771,
      "Ġfair": 3772,
      "Ġteach": 3773,
      "can": 3774,
      "Ġperhaps": 3775,
      "Ġshowed": 3776,
      "Ġcommerc": 3777,
      "ĠDon": 3778,
      "Ġ28": 3779,
      "Ġrock": 3780,
      "reet": 3781,
      "ellig": 3782,
      "\",": 3783,
      "Ġhistorical": 3784,
      "irection": 3785,
      "Ġrecommend": 3786,
      "Ġdidn": 3787,
      "Ġvirt": 3788,
      "icate": 3789,
      "Ġemp": 3790,
      "Ġdrugs": 3791,
      "ĠChe": 3792,
      "encies": 3793,
      "ĠHouse": 3794,
      "Ġcorn": 3795,
      "Ġfruit": 3796,
      "Ġreduced": 3797,
      "ĠAut": 3798,
      "rig": 3799,
      "uff": 3800,
      "ĠCongress": 3801,
      "Ġidentified": 3802,
      "Ġprofessional": 3803,
      "tery": 3804,
      "Ġoverall": 3805,
      "ĠEnvironment": 3806,
      "70": 3807,
      "que": 3808,
      "phas": 3809,
      "ech": 3810,
      "Ġvisual": 3811,
      "ĠNA": 3812,
      "bl": 3813,
      "time": 3814,
      "Ġacqu": 3815,
      "Ġtou": 3816,
      "Ġgrass": 3817,
      "Ġ26": 3818,
      "ĠAustralia": 3819,
      "Ġgold": 3820,
      "iful": 3821,
      "ĠCour": 3822,
      "ĠUN": 3823,
      "Ġchurch": 3824,
      "Ġtrack": 3825,
      "Ġassign": 3826,
      "hemat": 3827,
      "craft": 3828,
      "St": 3829,
      "Ġpresence": 3830,
      "Ġmis": 3831,
      "Ġsteps": 3832,
      "ev": 3833,
      "Ġroad": 3834,
      "Ġmajority": 3835,
      "Ġisn": 3836,
      "Ġenter": 3837,
      "Ġriver": 3838,
      "ĠUnion": 3839,
      "ospital": 3840,
      "iable": 3841,
      "Ġcra": 3842,
      "Ġmob": 3843,
      "Ġworked": 3844,
      "Ġ195": 3845,
      "Ġdisplay": 3846,
      "Ġrich": 3847,
      "Ġatmosp": 3848,
      "aled": 3849,
      "ĠDavid": 3850,
      "Ġpiece": 3851,
      "ĠPublic": 3852,
      "unch": 3853,
      "Ġnote": 3854,
      "ĠInter": 3855,
      "Ġpeace": 3856,
      "itch": 3857,
      "Ġelement": 3858,
      "Ġsymbol": 3859,
      "Ġrelatively": 3860,
      "Ġfully": 3861,
      "ĠPhil": 3862,
      "ference": 3863,
      "Ġpowerful": 3864,
      "odes": 3865,
      "more": 3866,
      "Ġrob": 3867,
      "enty": 3868,
      "bur": 3869,
      "Ġappears": 3870,
      "Ġenh": 3871,
      "Ġremember": 3872,
      "Ġincreases": 3873,
      "Ġ2000": 3874,
      "known": 3875,
      "Ġbaby": 3876,
      "Ġtox": 3877,
      "ĠTur": 3878,
      "Ġcontext": 3879,
      "Ġexpand": 3880,
      "Ġbreast": 3881,
      "Ġillness": 3882,
      "cious": 3883,
      "Ġchoice": 3884,
      "Ġillust": 3885,
      "Ġmoving": 3886,
      "Ġball": 3887,
      "Ġattract": 3888,
      "Ġtransfer": 3889,
      "Ġnames": 3890,
      "Ġcompar": 3891,
      "Ġevolution": 3892,
      "Ġphilos": 3893,
      "Ġpromot": 3894,
      "Ġversion": 3895,
      "Ġactions": 3896,
      "inated": 3897,
      "Ġrat": 3898,
      "29": 3899,
      "ĠFebruary": 3900,
      "ĠCouncil": 3901,
      "Ġsect": 3902,
      "Ġunit": 3903,
      "Ġcities": 3904,
      "ĠAng": 3905,
      "Ġarchitect": 3906,
      "ament": 3907,
      "Ġwid": 3908,
      "Ġmoment": 3909,
      "26": 3910,
      "Ġconstruct": 3911,
      "aign": 3912,
      "Ġcook": 3913,
      "Ġbelief": 3914,
      "Ġfemale": 3915,
      "ĠRo": 3916,
      "ĠJapanese": 3917,
      "ris": 3918,
      "rupt": 3919,
      "Ġfresh": 3920,
      "Ġworth": 3921,
      "Ġteeth": 3922,
      "Ġacad": 3923,
      "co": 3924,
      "ĠWestern": 3925,
      "bre": 3926,
      "aste": 3927,
      "force": 3928,
      "Ġjoint": 3929,
      "ĠColle": 3930,
      "Ġgiving": 3931,
      "ĠGreen": 3932,
      "Ġrunning": 3933,
      "iences": 3934,
      "Ġproperties": 3935,
      "Ġnuclear": 3936,
      "Ġlimit": 3937,
      "Ġstories": 3938,
      "Ġchanged": 3939,
      "iny": 3940,
      "Ġexisting": 3941,
      "Ġmachine": 3942,
      "osy": 3943,
      "rief": 3944,
      "Ġdefined": 3945,
      "Ġsurvey": 3946,
      "Ġequal": 3947,
      "Ġpatterns": 3948,
      "related": 3949,
      "Ġ2006": 3950,
      "ĠTH": 3951,
      "urance": 3952,
      "Ġsitu": 3953,
      "resp": 3954,
      "Ġmission": 3955,
      "omas": 3956,
      "Ġmut": 3957,
      "Ġmig": 3958,
      "Ġcapacity": 3959,
      "Ġcry": 3960,
      "Ġstrugg": 3961,
      "ĠAssociation": 3962,
      "Ġ27": 3963,
      "ĠSpec": 3964,
      "Ġvo": 3965,
      "Ġrepe": 3966,
      "Ġthousands": 3967,
      "ternal": 3968,
      "ste": 3969,
      "Ġforeign": 3970,
      "hy": 3971,
      "Ġcitizens": 3972,
      "Ġjournal": 3973,
      "Ġdestroy": 3974,
      "Ġefficient": 3975,
      "Ġantib": 3976,
      "aint": 3977,
      "Ġconvers": 3978,
      "Ġdat": 3979,
      "ĠFood": 3980,
      "Ġforward": 3981,
      "Ġ+": 3982,
      "Ġfigure": 3983,
      "Ġiniti": 3984,
      "Ġinsect": 3985,
      "ĠMich": 3986,
      "Ġsurpr": 3987,
      "semb": 3988,
      "ees": 3989,
      "asion": 3990,
      "Ġbound": 3991,
      "uls": 3992,
      "lim": 3993,
      "gery": 3994,
      "Ġlearned": 3995,
      "Ġpassed": 3996,
      "ĠOb": 3997,
      "Ġfindings": 3998,
      "Ġvitamin": 3999,
      "ĠHuman": 4000,
      "ĠEvery": 4001,
      "atin": 4002,
      "Ġassist": 4003,
      "ĠInternet": 4004,
      "Ġimmune": 4005,
      "ĠChildren": 4006,
      "rick": 4007,
      "Ġassum": 4008,
      "Ġdetails": 4009,
      "rehens": 4010,
      "âĢĿ,": 4011,
      "Ġseparate": 4012,
      "Ġpicture": 4013,
      "Ġalcohol": 4014,
      "Ġsigns": 4015,
      "Ġfunctions": 4016,
      "Ġsac": 4017,
      "ession": 4018,
      "Ġfert": 4019,
      "ĠToday": 4020,
      "ĠDec": 4021,
      "Ġseven": 4022,
      "Ġoffers": 4023,
      "ĠFrance": 4024,
      "Ġnutri": 4025,
      "ĠAv": 4026,
      "ss": 4027,
      "Ġfactor": 4028,
      "Ġsuggests": 4029,
      "Ġdirection": 4030,
      "house": 4031,
      "ĠProgram": 4032,
      "Ġopportunities": 4033,
      "ero": 4034,
      "ĠMor": 4035,
      "Ġchance": 4036,
      "ĠBel": 4037,
      "Ġeducational": 4038,
      "Ġmouth": 4039,
      "Ġhuge": 4040,
      "ĠJames": 4041,
      "Ġinstance": 4042,
      "Ġevalu": 4043,
      "ĠJewish": 4044,
      "Ġoffice": 4045,
      "Ġ2015": 4046,
      "Ġdistance": 4047,
      "Ġweak": 4048,
      "Ġbelieved": 4049,
      "iox": 4050,
      "iant": 4051,
      "Ġcontract": 4052,
      "hors": 4053,
      "27": 4054,
      "Ġmap": 4055,
      "Ġstar": 4056,
      "Ġtask": 4057,
      "Ġwrong": 4058,
      "ĠMic": 4059,
      "che": 4060,
      "Ġpp": 4061,
      "Ġleaders": 4062,
      "ĠSub": 4063,
      "Ġregions": 4064,
      "Ġdetect": 4065,
      "Ġeventually": 4066,
      "pan": 4067,
      "DA": 4068,
      "ux": 4069,
      "Ġnative": 4070,
      "Ġanx": 4071,
      "antic": 4072,
      "Ġtruth": 4073,
      "iring": 4074,
      "Ġbra": 4075,
      "Ġvision": 4076,
      "Ġqual": 4077,
      "Ġincor": 4078,
      "pped": 4079,
      "abilities": 4080,
      "ĠVol": 4081,
      "Ġfriend": 4082,
      "Ġfamous": 4083,
      "Ġincome": 4084,
      "ifically": 4085,
      "28": 4086,
      "pective": 4087,
      "Ġmoved": 4088,
      "Ch": 4089,
      "Ġresistance": 4090,
      "Ġreports": 4091,
      "Ġbank": 4092,
      "Ġmal": 4093,
      "Ġinnov": 4094,
      "Ġstim": 4095,
      "cular": 4096,
      "iance": 4097,
      "Ġing": 4098,
      "Ġeffic": 4099,
      "Ġsuppl": 4100,
      "Ġexplain": 4101,
      "Ġgarden": 4102,
      "ĠPal": 4103,
      "ĠBra": 4104,
      "rec": 4105,
      "Ġapply": 4106,
      "Ġhighest": 4107,
      "Ġimmediately": 4108,
      "Ġblue": 4109,
      "Ġaim": 4110,
      "Ġstyle": 4111,
      "isation": 4112,
      "Ġroot": 4113,
      "Ġinstruct": 4114,
      "Ġcomponents": 4115,
      "Ġabsor": 4116,
      "Ġfavor": 4117,
      "Ġguide": 4118,
      "Ġbalance": 4119,
      "Ġcarried": 4120,
      "Ġopin": 4121,
      "II": 4122,
      "ĠStudents": 4123,
      "eces": 4124,
      "Ġbox": 4125,
      "ĠBu": 4126,
      "ĠDes": 4127,
      "Ġexhib": 4128,
      "Ġdistribution": 4129,
      "Ġkid": 4130,
      "ĠUK": 4131,
      "ologist": 4132,
      "Ġapproximately": 4133,
      "ĠNet": 4134,
      "Ġdivid": 4135,
      "ĠLord": 4136,
      "Ġgene": 4137,
      "Ġ#": 4138,
      "oma": 4139,
      "ĠCollege": 4140,
      "Ġ2005": 4141,
      "90": 4142,
      "Ġphen": 4143,
      "Ġtissue": 4144,
      "Ġprice": 4145,
      "Ġpresident": 4146,
      "ald": 4147,
      "Ġmale": 4148,
      "Ġmuscle": 4149,
      "Ġactual": 4150,
      "Ġstaff": 4151,
      "Ġchallenges": 4152,
      "Ġdecades": 4153,
      "ographic": 4154,
      "Ġemissions": 4155,
      "Ġfilm": 4156,
      "Ġmilk": 4157,
      "Ġplans": 4158,
      "ĠMat": 4159,
      "orage": 4160,
      "Ġnutrition": 4161,
      "ken": 4162,
      "ĠGovernment": 4163,
      "Ġcommercial": 4164,
      "Ġsexual": 4165,
      "Ġpopulations": 4166,
      "nes": 4167,
      "Ġvot": 4168,
      "ĠPlan": 4169,
      "Ġobserved": 4170,
      "Ġcand": 4171,
      "Ġdyn": 4172,
      "lor": 4173,
      "Ġwatch": 4174,
      "ogle": 4175,
      "ĠDevelopment": 4176,
      "Ġparty": 4177,
      "Ġurban": 4178,
      "Ġdisorder": 4179,
      "tee": 4180,
      "Ġcelebr": 4181,
      "wards": 4182,
      "Ġtreated": 4183,
      "Ġemphas": 4184,
      "Ġspring": 4185,
      "Ġlegisl": 4186,
      "Ġstrategies": 4187,
      "uing": 4188,
      "Ġconsumption": 4189,
      "ĠGeorge": 4190,
      "icip": 4191,
      "key": 4192,
      "Ġboard": 4193,
      "ĠWork": 4194,
      "Ġchallenge": 4195,
      "enth": 4196,
      "Ġheavy": 4197,
      "Ġmag": 4198,
      "Ġestimated": 4199,
      "Ġextremely": 4200,
      "Ġtechnologies": 4201,
      "Ġslight": 4202,
      "Ġconnected": 4203,
      "Ġoptions": 4204,
      "Ġhappen": 4205,
      "Ġgain": 4206,
      "cast": 4207,
      "ube": 4208,
      "Ġexperiences": 4209,
      "Ġrecords": 4210,
      "Ġ190": 4211,
      "iment": 4212,
      "ĠAir": 4213,
      "Ġclinical": 4214,
      "Ġutil": 4215,
      "bed": 4216,
      "Ġreference": 4217,
      "Ġhair": 4218,
      "Ġstructures": 4219,
      "ĠTwo": 4220,
      "ĠSpanish": 4221,
      "Ġcollabor": 4222,
      "ĠMary": 4223,
      "Ġgoals": 4224,
      "Ġclassroom": 4225,
      "Ġexcess": 4226,
      "Ġorganizations": 4227,
      "ĠGr": 4228,
      "RE": 4229,
      "Ġmo": 4230,
      "hetic": 4231,
      "part": 4232,
      "Ġhousehold": 4233,
      "Ġgeneration": 4234,
      "Ġbuildings": 4235,
      "Ġfeature": 4236,
      "ĠRepublic": 4237,
      "Ġexplore": 4238,
      "ĠRev": 4239,
      "Ġbed": 4240,
      "Ġhom": 4241,
      "iding": 4242,
      "ĠRem": 4243,
      "apers": 4244,
      "ygen": 4245,
      "ĠWeb": 4246,
      "Ġdepression": 4247,
      "Ġesc": 4248,
      "ĠTherefore": 4249,
      "Ġfields": 4250,
      "Ġfaith": 4251,
      "ida": 4252,
      "Ġ29": 4253,
      "Ġload": 4254,
      "Ġfig": 4255,
      "Ġindustrial": 4256,
      "Ġsetting": 4257,
      "Ġ2016": 4258,
      "Ġign": 4259,
      "Ġrot": 4260,
      "mark": 4261,
      "ĠPaul": 4262,
      "clus": 4263,
      "change": 4264,
      "OS": 4265,
      "Ġvary": 4266,
      "ĠFound": 4267,
      "Ġplanning": 4268,
      "Ġbecoming": 4269,
      "Ġrelease": 4270,
      "Ġpick": 4271,
      "Ġelectricity": 4272,
      "Ġpresented": 4273,
      "Ġalternative": 4274,
      "ares": 4275,
      "Ġmedicine": 4276,
      "Ġtopic": 4277,
      "Ġfreedom": 4278,
      "Ġisland": 4279,
      "Ġkilled": 4280,
      "Ġnotes": 4281,
      "Ġlived": 4282,
      "Ġdesp": 4283,
      "Ġdecisions": 4284,
      "Ġmer": 4285,
      "rest": 4286,
      "Ġaspects": 4287,
      "Ġitems": 4288,
      "Ġintroduced": 4289,
      "Ġspect": 4290,
      "Ġserve": 4291,
      "Ġ80": 4292,
      "Ġreality": 4293,
      "Ġneu": 4294,
      "Ġletter": 4295,
      "Ġbodies": 4296,
      "porary": 4297,
      "ped": 4298,
      "Ġliqu": 4299,
      "Ġappe": 4300,
      "Ġstarting": 4301,
      "Ġtour": 4302,
      "Ġturned": 4303,
      "Ġexperiment": 4304,
      "ulf": 4305,
      "Ġhomes": 4306,
      "Ġclearly": 4307,
      "Ġreleased": 4308,
      "ĠFurther": 4309,
      "35": 4310,
      "ĠOff": 4311,
      "Ġ2014": 4312,
      "Ġstream": 4313,
      "Ġnoted": 4314,
      "Ġeasier": 4315,
      "elines": 4316,
      "Ġdoub": 4317,
      "ĠMuseum": 4318,
      "tered": 4319,
      "Ġgraph": 4320,
      "rome": 4321,
      "Ġagg": 4322,
      "Ġgod": 4323,
      "unction": 4324,
      "Ġsignificantly": 4325,
      "ĠDi": 4326,
      "Ġnovel": 4327,
      "iate": 4328,
      "Ġliterature": 4329,
      "Ġ...": 4330,
      "Ġterrit": 4331,
      "ria": 4332,
      "Ġfrequently": 4333,
      "ĠEv": 4334,
      "Ġviolence": 4335,
      "amental": 4336,
      "Ġwidely": 4337,
      "ĠSam": 4338,
      "ĠâĢ¦": 4339,
      "Ġsave": 4340,
      "ortion": 4341,
      "erate": 4342,
      "ĠIts": 4343,
      "ĠOrgan": 4344,
      "igen": 4345,
      "ĠCath": 4346,
      "Ġbone": 4347,
      "Ġthr": 4348,
      "Ġconv": 4349,
      "Ġtemperatures": 4350,
      "Ġresource": 4351,
      "lick": 4352,
      "Ġstore": 4353,
      "ĠBudd": 4354,
      "ĠGreek": 4355,
      "Ġbottom": 4356,
      "cont": 4357,
      "zz": 4358,
      "ĠMal": 4359,
      "ressive": 4360,
      "ĠIsland": 4361,
      "Ġbattle": 4362,
      "Ġconducted": 4363,
      "Ġoperations": 4364,
      "ander": 4365,
      "ĠDem": 4366,
      "ĠSun": 4367,
      "char": 4368,
      "ĠLa": 4369,
      "Ġgets": 4370,
      "ously": 4371,
      "Ġcausing": 4372,
      "Ġnumerous": 4373,
      "Ġtim": 4374,
      "Ġoutput": 4375,
      "Ġcombination": 4376,
      "Ġisol": 4377,
      "Ġves": 4378,
      "Ġmetal": 4379,
      "Ġlayer": 4380,
      "erved": 4381,
      "Ġindependent": 4382,
      "Ġcampaign": 4383,
      "uses": 4384,
      "ios": 4385,
      "Ġwhom": 4386,
      "ophy": 4387,
      "ta": 4388,
      "Ġhear": 4389,
      "Ġconnection": 4390,
      "Ġdiscussion": 4391,
      "ĠMark": 4392,
      "Ġcycle": 4393,
      "Ġdisorders": 4394,
      "Ġrequirements": 4395,
      "ologists": 4396,
      "olid": 4397,
      "essor": 4398,
      "Ġsand": 4399,
      "ager": 4400,
      "ĠUsing": 4401,
      "ĠLike": 4402,
      "ĠBoth": 4403,
      "Ġphysic": 4404,
      "Ġcovered": 4405,
      "Ġcontrast": 4406,
      "gal": 4407,
      "Ġcollege": 4408,
      "anch": 4409,
      "ĠST": 4410,
      "ulum": 4411,
      "Ġocean": 4412,
      "Ġchronic": 4413,
      "do": 4414,
      "ĠMount": 4415,
      "Ġtrib": 4416,
      "CC": 4417,
      "ET": 4418,
      "stitution": 4419,
      "atically": 4420,
      "rog": 4421,
      "Ġpi": 4422,
      "ĠIsl": 4423,
      "Ġmessage": 4424,
      "AM": 4425,
      "ognitive": 4426,
      "Ġnorthern": 4427,
      "works": 4428,
      "ĠBas": 4429,
      "ĠFore": 4430,
      "ĠRober": 4431,
      "Ġplastic": 4432,
      "Ġexpression": 4433,
      "ĠProject": 4434,
      "Ġship": 4435,
      "Ġsample": 4436,
      "Ġflood": 4437,
      "Ġauthors": 4438,
      "ĠGra": 4439,
      "Ġfinding": 4440,
      "Ġperformed": 4441,
      "Ġgrant": 4442,
      "Ġdrop": 4443,
      "ĠWell": 4444,
      "Ġassessment": 4445,
      "ilit": 4446,
      "olved": 4447,
      "Ġanyone": 4448,
      "Ġannual": 4449,
      "aped": 4450,
      "Ġparticipants": 4451,
      "ĠTest": 4452,
      "ollow": 4453,
      "erences": 4454,
      "EM": 4455,
      "imens": 4456,
      "care": 4457,
      "bal": 4458,
      "inter": 4459,
      "Ġnor": 4460,
      "Ġserved": 4461,
      "roph": 4462,
      "Ġtrig": 4463,
      "78": 4464,
      "Ġgames": 4465,
      "Ġdistinct": 4466,
      "Ġglass": 4467,
      "Ġprefer": 4468,
      "ĠSer": 4469,
      "ishing": 4470,
      "Ġrelationships": 4471,
      "met": 4472,
      "Ġunivers": 4473,
      "Ġremove": 4474,
      "45": 4475,
      "Ġtum": 4476,
      "ĠSen": 4477,
      "Ġtrust": 4478,
      "icial": 4479,
      "Ġpolicies": 4480,
      "Ġtechnique": 4481,
      "ĠPost": 4482,
      "Ġminor": 4483,
      "ĠTex": 4484,
      "Ġiron": 4485,
      "Ġcreation": 4486,
      "Ġmeat": 4487,
      "anging": 4488,
      "othes": 4489,
      "Ġsouthern": 4490,
      "Ġready": 4491,
      "Ġinterpret": 4492,
      "ago": 4493,
      "Ġchanging": 4494,
      "ĠSom": 4495,
      "Ġbelong": 4496,
      "Ġhelped": 4497,
      "rosc": 4498,
      "Ġreb": 4499,
      "ĠRich": 4500,
      "Ġrecommended": 4501,
      "ieties": 4502,
      "Ġbeautiful": 4503,
      "ĠHIV": 4504,
      "Ġwanted": 4505,
      "Ġcircum": 4506,
      "ĠBro": 4507,
      "Ġdram": 4508,
      "Ġdangerous": 4509,
      "Ġintellig": 4510,
      "Ġmeeting": 4511,
      "Ġupper": 4512,
      "Ġresulting": 4513,
      "isher": 4514,
      "Ġhappens": 4515,
      "onic": 4516,
      "ias": 4517,
      "Ġrisks": 4518,
      "ĠMr": 4519,
      "ressed": 4520,
      "raction": 4521,
      "Ġstatement": 4522,
      "ĠPort": 4523,
      "ructure": 4524,
      "Ġcore": 4525,
      "Ġfeeling": 4526,
      "Ġradio": 4527,
      "Ġfine": 4528,
      "ĠHel": 4529,
      "Ġsem": 4530,
      "Ġorganic": 4531,
      "iveness": 4532,
      "Ġprinciples": 4533,
      "Ġtrou": 4534,
      "rete": 4535,
      "ĠPhys": 4536,
      "Ġvul": 4537,
      "ii": 4538,
      "Ġinternal": 4539,
      "ĠHen": 4540,
      "ception": 4541,
      "Ġvessel": 4542,
      "tical": 4543,
      "Ġdegrees": 4544,
      "ĠNASA": 4545,
      "onds": 4546,
      "ĠAbout": 4547,
      "Â°": 4548,
      "orial": 4549,
      "Ġreligion": 4550,
      "ĠArab": 4551,
      "Ġstorage": 4552,
      "Ġplease": 4553,
      "Ġprepar": 4554,
      "rian": 4555,
      "Ġarm": 4556,
      "Ġoxygen": 4557,
      "ault": 4558,
      "Ġunf": 4559,
      "Ġcounter": 4560,
      "Ġconservation": 4561,
      "Ġburn": 4562,
      "ĠMexico": 4563,
      "Ġreferred": 4564,
      "riage": 4565,
      "Ġdetermined": 4566,
      "ĠMet": 4567,
      "Ġexcell": 4568,
      "ocal": 4569,
      "Ġconfirm": 4570,
      "Ġkill": 4571,
      "Ġreprodu": 4572,
      "Ġunits": 4573,
      "Ġmostly": 4574,
      "Ġgenes": 4575,
      "Ġdrive": 4576,
      "ĠDirect": 4577,
      "Ġinitial": 4578,
      "Ġpreviously": 4579,
      "oyal": 4580,
      "Ġcomprehens": 4581,
      "umn": 4582,
      "ĠThomas": 4583,
      "Ġradiation": 4584,
      "Ġcharacteristics": 4585,
      "Ġlib": 4586,
      "Ġexactly": 4587,
      "Ġheard": 4588,
      "asks": 4589,
      "Ġsolid": 4590,
      "atform": 4591,
      "Ġlic": 4592,
      "Ġround": 4593,
      "ĠLife": 4594,
      "Ġcast": 4595,
      "Ġvolunt": 4596,
      "Ġdescribe": 4597,
      "ĠMars": 4598,
      "Ġupd": 4599,
      "Ġmel": 4600,
      "raw": 4601,
      "ĠFre": 4602,
      "ategy": 4603,
      "Ġ186": 4604,
      "Ġsav": 4605,
      "Ġbrother": 4606,
      "US": 4607,
      "Ġremoved": 4608,
      "Ġbackground": 4609,
      "Ġobvious": 4610,
      "Ġcredit": 4611,
      "Ġemail": 4612,
      "ĠScient": 4613,
      "ĠJe": 4614,
      "Ġinfections": 4615,
      "Ġ90": 4616,
      "Ġ2004": 4617,
      "Ġstrategy": 4618,
      "ĠMedical": 4619,
      "oviet": 4620,
      "Ġbuy": 4621,
      "What": 4622,
      "Ġmotion": 4623,
      "Ġcalc": 4624,
      "Ġinput": 4625,
      "ĠMart": 4626,
      "Ġarticles": 4627,
      "Ġclasses": 4628,
      "Ġeggs": 4629,
      "ĠOld": 4630,
      "itz": 4631,
      "ĠMedicine": 4632,
      "Ġregarding": 4633,
      "Ġmeant": 4634,
      "alle": 4635,
      "ortunately": 4636,
      "Ġwaters": 4637,
      "Ġclick": 4638,
      "Ġhour": 4639,
      "ij": 4640,
      "33": 4641,
      "aughter": 4642,
      "rm": 4643,
      "ĠAcad": 4644,
      "och": 4645,
      "ĠAsia": 4646,
      "Ġlandsc": 4647,
      "Ġsurgery": 4648,
      "Ġdogs": 4649,
      "ping": 4650,
      "Ġdecided": 4651,
      "Ġsquare": 4652,
      "Ġded": 4653,
      "Ġencourage": 4654,
      "Ġcharge": 4655,
      "ĠCourt": 4656,
      "ĠTreat": 4657,
      "ĠWhite": 4658,
      "cers": 4659,
      "inate": 4660,
      "ĠKore": 4661,
      "Ġmentioned": 4662,
      "osystem": 4663,
      "Ġadvantage": 4664,
      "Ġreplace": 4665,
      "Ġinvent": 4666,
      "Ġlinked": 4667,
      "ĠBer": 4668,
      "Ġproposed": 4669,
      "PS": 4670,
      "ĠElect": 4671,
      "Ġspot": 4672,
      "Ġ2003": 4673,
      "Ġspeech": 4674,
      "Ġscen": 4675,
      "Ġofficial": 4676,
      "Ġsynt": 4677,
      "Ġspent": 4678,
      "ĠUp": 4679,
      "Ġkept": 4680,
      "Ġreducing": 4681,
      "Ġsaying": 4682,
      "Ġconflict": 4683,
      "Ġrace": 4684,
      "Ġremained": 4685,
      "arrow": 4686,
      "Ġnit": 4687,
      "Ġyouth": 4688,
      "Ġdiss": 4689,
      "Ġ2017": 4690,
      "Ġmathemat": 4691,
      "Ġinflamm": 4692,
      "rier": 4693,
      "eline": 4694,
      "berg": 4695,
      "Ġexperienced": 4696,
      "ĠVirgin": 4697,
      "vision": 4698,
      "ags": 4699,
      "Ġ70": 4700,
      "Ġpret": 4701,
      "Ġprepared": 4702,
      "Ġeast": 4703,
      "Ġclos": 4704,
      "Ġinvolve": 4705,
      "Ġfailure": 4706,
      "kin": 4707,
      "ĠSecond": 4708,
      "Äģ": 4709,
      "Ġleads": 4710,
      "Ġpromote": 4711,
      "ĠDef": 4712,
      "Ġinterested": 4713,
      "Ġrelevant": 4714,
      "Ġproperly": 4715,
      "Ġinstitutions": 4716,
      "Ġinvolves": 4717,
      "wood": 4718,
      "Ġwest": 4719,
      "Ġhop": 4720,
      "ĠSal": 4721,
      "Ġoption": 4722,
      "urt": 4723,
      "board": 4724,
      "Ġthick": 4725,
      "Ġtrial": 4726,
      "Ġinh": 4727,
      "lease": 4728,
      "Ġexperts": 4729,
      "ributed": 4730,
      "ĠOp": 4731,
      "Ġpip": 4732,
      "ĠJer": 4733,
      "Ġdie": 4734,
      "Ġexposed": 4735,
      "za": 4736,
      "Ġprocessing": 4737,
      "Ġtrend": 4738,
      "Ġvolume": 4739,
      "Ġconclud": 4740,
      "uted": 4741,
      "ĠAtl": 4742,
      "Ġamounts": 4743,
      "Ġdatab": 4744,
      "ams": 4745,
      "Ġreached": 4746,
      "ĠBritain": 4747,
      "riculum": 4748,
      "Ġsolutions": 4749,
      "Ġacademic": 4750,
      "Ġreaction": 4751,
      "Ġeffectively": 4752,
      "Ġelimin": 4753,
      "ĠService": 4754,
      "Ġsettle": 4755,
      "Ġsort": 4756,
      "Ġdepending": 4757,
      "Ġmanufacture": 4758,
      "acific": 4759,
      "astern": 4760,
      "Ġadvanced": 4761,
      "leg": 4762,
      "ĠCle": 4763,
      "Ġessay": 4764,
      "Ġmist": 4765,
      "Ġtrad": 4766,
      "Ġoperation": 4767,
      "Ġidentity": 4768,
      "well": 4769,
      "Ġpieces": 4770,
      "Ġpal": 4771,
      "Ġforced": 4772,
      "Ġinstall": 4773,
      "Ġsecret": 4774,
      "ĠMiss": 4775,
      "Ġfinally": 4776,
      "Ġadjust": 4777,
      "ĠÃ": 4778,
      "uration": 4779,
      "Ġexpert": 4780,
      "Ġvegetables": 4781,
      "Ġanxiety": 4782,
      "Ġsong": 4783,
      "Ġwealth": 4784,
      "Ġaid": 4785,
      "icit": 4786,
      "Ġinjury": 4787,
      "ĠRussian": 4788,
      "ĠCentral": 4789,
      "rates": 4790,
      "Ġtransform": 4791,
      "iverse": 4792,
      "Ġsignal": 4793,
      "ĠClass": 4794,
      "Ġconver": 4795,
      "Ġatmosphere": 4796,
      "Ġpun": 4797,
      "Ġpages": 4798,
      "ĠBen": 4799,
      "Ġcenturies": 4800,
      "ĠNews": 4801,
      "Ġlooks": 4802,
      "ĠFranc": 4803,
      "ĠTexas": 4804,
      "iling": 4805,
      "Ġlung": 4806,
      "ules": 4807,
      "Ġalg": 4808,
      "Ġpresc": 4809,
      "ĠSoviet": 4810,
      "75": 4811,
      "ĠSpace": 4812,
      "Ġfarmers": 4813,
      "Ġ35": 4814,
      "ĠCivil": 4815,
      "Ġfort": 4816,
      "yright": 4817,
      "Ġarmy": 4818,
      "Ġsupported": 4819,
      "ball": 4820,
      "west": 4821,
      "Ġconcern": 4822,
      "Ġelectrical": 4823,
      "Ġmainly": 4824,
      "ĠGet": 4825,
      "Ġmanner": 4826,
      "Ġmotor": 4827,
      "ifying": 4828,
      "Ġprofessor": 4829,
      "Ġpollution": 4830,
      "Ġdoll": 4831,
      "Ġcorresp": 4832,
      "rence": 4833,
      "'ll": 4834,
      "ya": 4835,
      "Ġincorpor": 4836,
      "Ġpric": 4837,
      "Ġphenomen": 4838,
      "36": 4839,
      "ishes": 4840,
      "Ġdro": 4841,
      "ĠDist": 4842,
      "Ġchemicals": 4843,
      "Ġdiscover": 4844,
      "Ġemotional": 4845,
      "Ġhearing": 4846,
      "rum": 4847,
      "Ġmorning": 4848,
      "Ġprofession": 4849,
      "acing": 4850,
      "ĠSupp": 4851,
      "Ġstorm": 4852,
      "Ġcontinues": 4853,
      "oper": 4854,
      "Ġdefinition": 4855,
      "Ġgender": 4856,
      "place": 4857,
      "pat": 4858,
      "ĠMake": 4859,
      "iology": 4860,
      "ĠLou": 4861,
      "ĠCommission": 4862,
      "ĠBay": 4863,
      "ĠStep": 4864,
      "Ġsufficient": 4865,
      "Ġconcerns": 4866,
      "ĠMass": 4867,
      "ĠSuch": 4868,
      "Ġjour": 4869,
      "Ġvulner": 4870,
      "Ġflowers": 4871,
      "Ġban": 4872,
      "ĠAD": 4873,
      "Ġcompleted": 4874,
      "Ġleader": 4875,
      "Ġconcepts": 4876,
      "Ġcere": 4877,
      "Ġgrand": 4878,
      "Ġengineering": 4879,
      "Ġraised": 4880,
      "ĠInformation": 4881,
      "Ġsusp": 4882,
      "Ġ2001": 4883,
      "Ġintended": 4884,
      "rows": 4885,
      "Ġoccurred": 4886,
      "atric": 4887,
      "Ġsnow": 4888,
      "Ġhelping": 4889,
      "ĠAny": 4890,
      "comes": 4891,
      "tes": 4892,
      "'ve": 4893,
      "mat": 4894,
      "enced": 4895,
      "Ġfoss": 4896,
      "akers": 4897,
      "Ġconsult": 4898,
      "Ġ189": 4899,
      "ĠQue": 4900,
      "EL": 4901,
      "standing": 4902,
      "clusion": 4903,
      "Ġwonder": 4904,
      "Ġauthority": 4905,
      "win": 4906,
      "Ġstation": 4907,
      "Ġpersons": 4908,
      "Ġtechnical": 4909,
      "Ġcomfort": 4910,
      "Ġoffered": 4911,
      "Ġyellow": 4912,
      "ĠBible": 4913,
      "ĠGroup": 4914,
      "ĠJose": 4915,
      "ears": 4916,
      "aturally": 4917,
      "Ġbegins": 4918,
      "Ġtooth": 4919,
      "ĠMac": 4920,
      "Ġdiagnosis": 4921,
      "Ġmaster": 4922,
      "Ġlinks": 4923,
      "Ġnotice": 4924,
      "Ġcoord": 4925,
      "Ġprimarily": 4926,
      "Ġindicate": 4927,
      "oo": 4928,
      "verty": 4929,
      "itors": 4930,
      "Ġmanage": 4931,
      "Ġlesson": 4932,
      "AD": 4933,
      "Ġcomment": 4934,
      "Ġplatform": 4935,
      "ĠData": 4936,
      "Ġreturned": 4937,
      "Ġlanguages": 4938,
      "oking": 4939,
      "ounced": 4940,
      "Ġtoxic": 4941,
      "ĠWomen": 4942,
      "Ġrecorded": 4943,
      "Ġpoverty": 4944,
      "Ġallowing": 4945,
      "Ġgirls": 4946,
      "Ġtro": 4947,
      "ixt": 4948,
      "ĠThrough": 4949,
      "ĠArmy": 4950,
      "lig": 4951,
      "ĠJews": 4952,
      "Ġlargely": 4953,
      "Ġcamer": 4954,
      "utive": 4955,
      "ĠOut": 4956,
      "ework": 4957,
      "Ġcombined": 4958,
      "ĠÎ": 4959,
      "Ġshared": 4960,
      "Ġcert": 4961,
      "Ġnav": 4962,
      "apes": 4963,
      "espite": 4964,
      "Ġfrequency": 4965,
      "Ġexistence": 4966,
      "RI": 4967,
      "Ġsustainable": 4968,
      "onomic": 4969,
      "ĠLearning": 4970,
      "Ġbrief": 4971,
      "ĠHistor": 4972,
      "ndrome": 4973,
      "olars": 4974,
      "Ġmotiv": 4975,
      "iated": 4976,
      "ĠDisc": 4977,
      "Ġappoint": 4978,
      "Ġcoal": 4979,
      "Ġletters": 4980,
      "roke": 4981,
      "ossible": 4982,
      "Ġefficiency": 4983,
      "Ġhit": 4984,
      "Ġpractical": 4985,
      "asure": 4986,
      "Ġseed": 4987,
      "Ġblog": 4988,
      "Ġcollected": 4989,
      "Ġflex": 4990,
      "Ġpurposes": 4991,
      "Ġneighbor": 4992,
      "ht": 4993,
      "Ġideal": 4994,
      "Ġkinds": 4995,
      "ĠTechnology": 4996,
      "Ġreduction": 4997,
      "ĠMil": 4998,
      "ĠBook": 4999,
      "Ġkn": 5000,
      "Ġrenew": 5001,
      "nic": 5002,
      "zing": 5003,
      "ĠSte": 5004,
      "Ġrand": 5005,
      "Ġprotected": 5006,
      "Ġfirm": 5007,
      "Ġparticles": 5008,
      "Ġtaught": 5009,
      "Ġphase": 5010,
      "Ġmath": 5011,
      "ĠMont": 5012,
      "Ġresist": 5013,
      "Ġclaims": 5014,
      "Ġnations": 5015,
      "Ġjobs": 5016,
      "su": 5017,
      "38": 5018,
      "ĠEnergy": 5019,
      "Ġshar": 5020,
      "Ġmort": 5021,
      "going": 5022,
      "ĠFlor": 5023,
      "acters": 5024,
      "ormal": 5025,
      "Ġimproved": 5026,
      "Ġ2002": 5027,
      "vis": 5028,
      "Ġdespite": 5029,
      "Ġsin": 5030,
      "Ġsamples": 5031,
      "omin": 5032,
      "ĠCop": 5033,
      "ĠInstead": 5034,
      "Ġseeds": 5035,
      "Ġexplan": 5036,
      "Ġbiological": 5037,
      "ĠCharles": 5038,
      "Ġawareness": 5039,
      "Ġ>": 5040,
      "gra": 5041,
      "ĠAddition": 5042,
      "Ġfelt": 5043,
      "ĠSou": 5044,
      "rapy": 5045,
      "Ġrandom": 5046,
      "Ġwife": 5047,
      "otic": 5048,
      "ĠThose": 5049,
      "Ġextent": 5050,
      "Ġshowing": 5051,
      "ĠLatin": 5052,
      "Ġ1990": 5053,
      "Ġdrinking": 5054,
      "ael": 5055,
      "ĠStand": 5056,
      "Ġfacts": 5057,
      "Ġstraight": 5058,
      "unk": 5059,
      "Ġgrade": 5060,
      "Ġpark": 5061,
      "Ġwet": 5062,
      "Ġformation": 5063,
      "Ġcertainly": 5064,
      "Ġrevolution": 5065,
      "Ġfib": 5066,
      "Ġvoice": 5067,
      "osite": 5068,
      "Ġfundamental": 5069,
      "van": 5070,
      "ĠFam": 5071,
      "ensus": 5072,
      "Ġemergency": 5073,
      "Ġprocedure": 5074,
      "Ġconsequences": 5075,
      "Ġlov": 5076,
      "Ġbill": 5077,
      "ado": 5078,
      "48": 5079,
      "osen": 5080,
      "ĠNor": 5081,
      "Ġinstrument": 5082,
      "ĠWind": 5083,
      "Ġwel": 5084,
      "Ġquar": 5085,
      "Ġfif": 5086,
      "ĠCommon": 5087,
      "Ġpul": 5088,
      "Ġspecifically": 5089,
      "Ġhabitat": 5090,
      "ville": 5091,
      "ĠMiddle": 5092,
      "ĠFe": 5093,
      "Ġthoughts": 5094,
      "Ġmere": 5095,
      "Ġprison": 5096,
      "tion": 5097,
      "Ġsuggested": 5098,
      "ĠYet": 5099,
      "Ġpros": 5100,
      "Ġagricultural": 5101,
      "uable": 5102,
      "aker": 5103,
      "ĠDise": 5104,
      "ĠBet": 5105,
      "Ġdetailed": 5106,
      "ĠRussia": 5107,
      "Ġexcellent": 5108,
      "Ġmaximum": 5109,
      "RO": 5110,
      "Ġcris": 5111,
      "ĠPacific": 5112,
      "iced": 5113,
      "osa": 5114,
      "Ġfocused": 5115,
      "Ġsche": 5116,
      "Ġgreatest": 5117,
      "ĠBur": 5118,
      "onomy": 5119,
      "Ġstem": 5120,
      "ulating": 5121,
      "ĠHol": 5122,
      "reland": 5123,
      "Ġattacks": 5124,
      "field": 5125,
      "ĠWild": 5126,
      "Ġliquid": 5127,
      "Ġminimum": 5128,
      "Ġperman": 5129,
      "ested": 5130,
      "Ġsyn": 5131,
      "Ġplayed": 5132,
      "Ġfluid": 5133,
      "inn": 5134,
      "Ġhorm": 5135,
      "ĠExam": 5136,
      "Ġrecognized": 5137,
      "ĠCatholic": 5138,
      "ĠEnvironmental": 5139,
      "Ġexplains": 5140,
      "Ġlooked": 5141,
      "ĠMem": 5142,
      "Ġadvance": 5143,
      "Ġresponsibility": 5144,
      "Ġtitle": 5145,
      "ĠDel": 5146,
      "Ġsend": 5147,
      "Ġplaying": 5148,
      "Ġofficials": 5149,
      "ĠTHE": 5150,
      "rations": 5151,
      "Ġconsists": 5152,
      "Ġflat": 5153,
      "ĠConf": 5154,
      "CO": 5155,
      "Ã¡": 5156,
      "Ġotherwise": 5157,
      "Ġdivided": 5158,
      "Ġmix": 5159,
      "Ġsatis": 5160,
      "Ġdri": 5161,
      "Ġhospital": 5162,
      "Ġsalt": 5163,
      "Ġhundreds": 5164,
      "ĠRobert": 5165,
      "Ġhappened": 5166,
      "________": 5167,
      "Ġcontrolled": 5168,
      "Ġsituations": 5169,
      "Ġdu": 5170,
      "Ġdocuments": 5171,
      "Ġstars": 5172,
      "Ġheight": 5173,
      "ĠCD": 5174,
      "Ġonto": 5175,
      "ND": 5176,
      "olute": 5177,
      "Ġpolice": 5178,
      "Ġvast": 5179,
      "Ġbright": 5180,
      "rep": 5181,
      "istan": 5182,
      "Ġslightly": 5183,
      "cript": 5184,
      "roc": 5185,
      "Ġcontinuous": 5186,
      "Ġvaccine": 5187,
      "band": 5188,
      "inent": 5189,
      "point": 5190,
      "Ġstone": 5191,
      "Ġfle": 5192,
      "ellect": 5193,
      "Ġsounds": 5194,
      "100": 5195,
      "Ġlik": 5196,
      "Ġmoral": 5197,
      "anges": 5198,
      "rich": 5199,
      "Ġkm": 5200,
      "Ġrefers": 5201,
      "Ġecosystem": 5202,
      "Ġpotentially": 5203,
      "oral": 5204,
      "Ġgar": 5205,
      "Ġcontribute": 5206,
      "ĠKnow": 5207,
      "othing": 5208,
      "Ġknew": 5209,
      "Ġbird": 5210,
      "ĠDespite": 5211,
      "Ġinterests": 5212,
      "Ġdisapp": 5213,
      "Ġperspective": 5214,
      "Ġcharacters": 5215,
      "Ġadvice": 5216,
      "oughly": 5217,
      "rolog": 5218,
      "eters": 5219,
      "osc": 5220,
      "39": 5221,
      "Ġcognitive": 5222,
      "Ġgovernments": 5223,
      "Ġoperating": 5224,
      "zy": 5225,
      "Ġtreatments": 5226,
      "ĠNature": 5227,
      "lar": 5228,
      "ĠSum": 5229,
      "Ġhyper": 5230,
      "TS": 5231,
      "ĠIreland": 5232,
      "aks": 5233,
      "Ġmuscles": 5234,
      "Ġmeasured": 5235,
      "Ġappeared": 5236,
      "Ġbud": 5237,
      "Ġspend": 5238,
      "Ġapproaches": 5239,
      "Ġimmun": 5240,
      "Ġbow": 5241,
      "ING": 5242,
      "Ġmonitoring": 5243,
      "resents": 5244,
      "Ġsubjects": 5245,
      "body": 5246,
      "Ġfollows": 5247,
      "ĠEmp": 5248,
      "li": 5249,
      "Ġincreasingly": 5250,
      "ĠWhere": 5251,
      "Ġvent": 5252,
      "BN": 5253,
      "Ġstudied": 5254,
      "Ġexternal": 5255,
      "ague": 5256,
      "ĠNote": 5257,
      "Ġallerg": 5258,
      "Ġsurrounding": 5259,
      "Ġliver": 5260,
      "Ġdiscrim": 5261,
      "ĠBefore": 5262,
      "ses": 5263,
      "Ġwestern": 5264,
      "name": 5265,
      "Ġvital": 5266,
      "Ġ45": 5267,
      "ĠSea": 5268,
      "Ġspiritual": 5269,
      "Ġfaster": 5270,
      "ĠLake": 5271,
      "Ġkil": 5272,
      "ĠBul": 5273,
      "ĠGoogle": 5274,
      "Ġcontaining": 5275,
      "ĠStudies": 5276,
      "alian": 5277,
      "Ġclim": 5278,
      "Ġapparent": 5279,
      "Ġsubstant": 5280,
      "Ġdouble": 5281,
      "Ġ<": 5282,
      "Ġinstruction": 5283,
      "Ġtypical": 5284,
      "?âĢĿ": 5285,
      "ĠRights": 5286,
      "âĢľ": 5287,
      "Ġaren": 5288,
      "Ġneut": 5289,
      "Ġcareer": 5290,
      "Ġproteins": 5291,
      "ĠPers": 5292,
      "Ġspl": 5293,
      "Ġtrain": 5294,
      "enses": 5295,
      "Ġcomponent": 5296,
      "Ġchief": 5297,
      "ĠLand": 5298,
      "Ġdiscovery": 5299,
      "ĠPub": 5300,
      "Ġfamiliar": 5301,
      "ĠJud": 5302,
      "Ġportion": 5303,
      "ĠBC": 5304,
      "ipped": 5305,
      "which": 5306,
      "Ġmoist": 5307,
      "col": 5308,
      "Ġrail": 5309,
      "Ġimpacts": 5310,
      "Ġrein": 5311,
      "omy": 5312,
      "Ġsector": 5313,
      "gl": 5314,
      "Ġgoods": 5315,
      "Ġkeeping": 5316,
      "ded": 5317,
      "Ġroll": 5318,
      "Ġdepth": 5319,
      "Ġdirector": 5320,
      "stood": 5321,
      ".;": 5322,
      "what": 5323,
      "ĠColumb": 5324,
      "Ġexplained": 5325,
      "itage": 5326,
      "AP": 5327,
      "inger": 5328,
      "Ġtopics": 5329,
      "Ġages": 5330,
      "Ġpaid": 5331,
      "ĠOnly": 5332,
      "ĠGood": 5333,
      "Ġimmig": 5334,
      "hi": 5335,
      "iled": 5336,
      "ĠKen": 5337,
      "Ġvalid": 5338,
      "ĠId": 5339,
      "ingly": 5340,
      "Ġrepresents": 5341,
      "ĠPsych": 5342,
      "Ġvehicle": 5343,
      "ĠSl": 5344,
      "atever": 5345,
      "Ġweap": 5346,
      "Ġrural": 5347,
      "ĠExpl": 5348,
      "lers": 5349,
      "right": 5350,
      "Ġperiods": 5351,
      "Ġparties": 5352,
      "Ġtried": 5353,
      "Ġcouple": 5354,
      "ails": 5355,
      "Ġmetab": 5356,
      "ĠCompany": 5357,
      "Ġmarine": 5358,
      "Ġaffects": 5359,
      "Ġfacilities": 5360,
      "Ġclosely": 5361,
      "Ġstated": 5362,
      "Ġcontem": 5363,
      "Ġnaturally": 5364,
      "inding": 5365,
      "ĠReview": 5366,
      "Ġwalls": 5367,
      "ĠFoundation": 5368,
      "chers": 5369,
      "Ġreform": 5370,
      "BC": 5371,
      "Ġsubsequ": 5372,
      "Ġconcerned": 5373,
      "Ġnutrients": 5374,
      "ĠFederal": 5375,
      "Ġcircumst": 5376,
      "Ġconvent": 5377,
      "anta": 5378,
      "ancing": 5379,
      "itness": 5380,
      "Ġselected": 5381,
      "ĠNav": 5382,
      "Ġviews": 5383,
      "Ġleaving": 5384,
      "Ġhaz": 5385,
      "Ġfiles": 5386,
      "Ġnan": 5387,
      "ĠControl": 5388,
      "Ġrecy": 5389,
      "racy": 5390,
      "Ġthin": 5391,
      "Ġconcentration": 5392,
      "Ġtested": 5393,
      "Ġchann": 5394,
      "Ġcrops": 5395,
      "ĠProv": 5396,
      "Ġrapidly": 5397,
      "Ġju": 5398,
      "Ġmyth": 5399,
      "Ġabuse": 5400,
      "state": 5401,
      "ĠAtt": 5402,
      "active": 5403,
      "Ġdial": 5404,
      "Ġnarrow": 5405,
      "Ġinvestment": 5406,
      "ĠCarol": 5407,
      "ĠHenry": 5408,
      "Ġvisible": 5409,
      "Ġsen": 5410,
      "ĠConstitution": 5411,
      "Ġnerv": 5412,
      "ĠSmith": 5413,
      "ION": 5414,
      "Ġoutcomes": 5415,
      "ĠVirginia": 5416,
      "Ġresidents": 5417,
      "Ġdepends": 5418,
      "Ġaccurate": 5419,
      "Ġalt": 5420,
      "Ġband": 5421,
      "ĠWil": 5422,
      "Ġgrown": 5423,
      "44": 5424,
      "Ġpig": 5425,
      "ran": 5426,
      "Ġsed": 5427,
      "asive": 5428,
      "alse": 5429,
      "Ġpray": 5430,
      "hma": 5431,
      "Ġhelpful": 5432,
      "If": 5433,
      "nel": 5434,
      "Ġdeliver": 5435,
      "olf": 5436,
      "gment": 5437,
      "Ġelev": 5438,
      "Ġpaint": 5439,
      "mic": 5440,
      "Ġcorrespond": 5441,
      "Ġoral": 5442,
      "Ġopinion": 5443,
      "Ġpurs": 5444,
      "Ġconscious": 5445,
      "Ġfloor": 5446,
      "ye": 5447,
      "Ġcrisis": 5448,
      "rastructure": 5449,
      "liam": 5450,
      "ÃŃ": 5451,
      "Ġharvest": 5452,
      "Ġadding": 5453,
      "Ġsides": 5454,
      "ĠLibrary": 5455,
      "Ġmovements": 5456,
      "eria": 5457,
      "Ġcup": 5458,
      "Ġdistingu": 5459,
      "celer": 5460,
      "umin": 5461,
      "mas": 5462,
      "Ġlose": 5463,
      "ĠLong": 5464,
      "ascular": 5465,
      "tr": 5466,
      "ĠAnn": 5467,
      "Ġtasks": 5468,
      "Ġstret": 5469,
      "ĠTor": 5470,
      "Ġ188": 5471,
      "Ġod": 5472,
      "Ġmuseum": 5473,
      "road": 5474,
      "athy": 5475,
      "Ġcurriculum": 5476,
      "Ġfertil": 5477,
      "Ġfunding": 5478,
      "ĠAlex": 5479,
      "Ġdiscussed": 5480,
      "anes": 5481,
      "Ġfeelings": 5482,
      "ĠCanadian": 5483,
      "ĠPlease": 5484,
      "ĠProfessor": 5485,
      "Ġaccompl": 5486,
      "Ġvillage": 5487,
      "OT": 5488,
      "dden": 5489,
      "Ġpictures": 5490,
      "37": 5491,
      "mp": 5492,
      "Ġmit": 5493,
      "ĠTem": 5494,
      "Ġleadership": 5495,
      "ocratic": 5496,
      "ĠAp": 5497,
      "ĠSaf": 5498,
      "Ġflight": 5499,
      "ĠExp": 5500,
      "ST": 5501,
      "Ġmamm": 5502,
      "ĠInf": 5503,
      "Ġpoet": 5504,
      "Ġtherm": 5505,
      "Ġcolors": 5506,
      "attle": 5507,
      "Ġhouses": 5508,
      "ĠLabor": 5509,
      "Ġarms": 5510,
      "Ġjustice": 5511,
      "ship": 5512,
      "with": 5513,
      "ĠHome": 5514,
      "Ġargument": 5515,
      "Ġhttps": 5516,
      "Ġobtained": 5517,
      "ĠTer": 5518,
      ".|": 5519,
      "Ġimpossible": 5520,
      "Ġdefic": 5521,
      "Ġtips": 5522,
      "Ġfruits": 5523,
      "ĠCommit": 5524,
      "ĠLouis": 5525,
      "Ġprevention": 5526,
      "Ġmillions": 5527,
      "Ġcapable": 5528,
      "ĠEngine": 5529,
      "Ġsets": 5530,
      "Ġemployees": 5531,
      "Ġcrucial": 5532,
      "Ġpil": 5533,
      "Ġdomestic": 5534,
      "ificial": 5535,
      "igenous": 5536,
      "Ġpump": 5537,
      "ĠNations": 5538,
      "oster": 5539,
      "46": 5540,
      "Ġdut": 5541,
      "Ġaccepted": 5542,
      "Ġprotocol": 5543,
      "ĠFlorida": 5544,
      "ctic": 5545,
      "ĠWho": 5546,
      "Ġsecure": 5547,
      "Ġdescribes": 5548,
      "ĠBre": 5549,
      "obe": 5550,
      "Ġprinciple": 5551,
      "Ġraise": 5552,
      "ĠManagement": 5553,
      "Ġadvoc": 5554,
      "Ġbrown": 5555,
      "Ġtalking": 5556,
      "ga": 5557,
      "alysis": 5558,
      "icks": 5559,
      "down": 5560,
      "Ġingred": 5561,
      "ĠJoseph": 5562,
      "49": 5563,
      "ĠPower": 5564,
      "Ġsuffering": 5565,
      "Ġmedications": 5566,
      "DF": 5567,
      "Ġdecrease": 5568,
      "Ġlands": 5569,
      "uke": 5570,
      "ĠThough": 5571,
      "ĠFigure": 5572,
      "Ġ31": 5573,
      "Ġformal": 5574,
      "ĠISBN": 5575,
      "osph": 5576,
      "Ġbones": 5577,
      "ario": 5578,
      "Ġroots": 5579,
      "Ġdeaths": 5580,
      "Ġsudden": 5581,
      "Ġlatest": 5582,
      "Ġregional": 5583,
      "Ġcalls": 5584,
      "Ġhunt": 5585,
      "Ġ185": 5586,
      "Ġinterview": 5587,
      "Ġdream": 5588,
      "Ġtouch": 5589,
      "Ġrecon": 5590,
      "ĠVis": 5591,
      "500": 5592,
      "ĠDiv": 5593,
      "rant": 5594,
      "Ġmedium": 5595,
      "liament": 5596,
      "Ġdiam": 5597,
      "sembly": 5598,
      "ĠRad": 5599,
      "ras": 5600,
      "ĠOx": 5601,
      "Ġinfected": 5602,
      "Ġlessons": 5603,
      "Ġpure": 5604,
      "agues": 5605,
      "Ġextract": 5606,
      "Ġoriginally": 5607,
      "Ġfrag": 5608,
      "aria": 5609,
      "ĠIrish": 5610,
      "Ġprices": 5611,
      "Ġexpensive": 5612,
      "Ġapart": 5613,
      "Ġagreement": 5614,
      "ilding": 5615,
      "ĠKh": 5616,
      "Ġ2018": 5617,
      "Ġsimpl": 5618,
      "Ġlaun": 5619,
      "inet": 5620,
      "Ġwindow": 5621,
      "Ġincl": 5622,
      "Ġunlike": 5623,
      "Ġpossibly": 5624,
      "Ġgun": 5625,
      "Ġopened": 5626,
      "ĠOffice": 5627,
      "Ġ1999": 5628,
      "Ġcomputers": 5629,
      "Ġlatter": 5630,
      "pass": 5631,
      "Ġera": 5632,
      "Ġprocedures": 5633,
      "Ġsatell": 5634,
      "Ġinches": 5635,
      "Ġsurvival": 5636,
      "Ġaircraft": 5637,
      "ĠKeep": 5638,
      "Ġhorse": 5639,
      "umber": 5640,
      "Ġphone": 5641,
      "ĠStat": 5642,
      "Ġsubstance": 5643,
      "Ġsan": 5644,
      "long": 5645,
      "Ġfell": 5646,
      "ulin": 5647,
      "Ġclosed": 5648,
      "bi": 5649,
      "Ġrecognize": 5650,
      "Ġadopted": 5651,
      "As": 5652,
      "ny": 5653,
      "roid": 5654,
      "ĠPeter": 5655,
      "Ġprecise": 5656,
      "ĠGlobal": 5657,
      "âĢĻ.": 5658,
      "Ġrestrict": 5659,
      "ĠCamp": 5660,
      "ĠFollow": 5661,
      "Ġwarming": 5662,
      "Ġdepos": 5663,
      "Ġrecovery": 5664,
      "Ġpregnancy": 5665,
      "Ġpretty": 5666,
      "Ġtroops": 5667,
      "Ġble": 5668,
      "Ġregularly": 5669,
      "Ġtoler": 5670,
      "Ġnormally": 5671,
      "ĠFinally": 5672,
      "76": 5673,
      "Ġmoon": 5674,
      "Ġintellect": 5675,
      "Ġbusinesses": 5676,
      "ston": 5677,
      "Ġvaluable": 5678,
      "fall": 5679,
      "MS": 5680,
      "hist": 5681,
      "ĠPhot": 5682,
      "Ġscholars": 5683,
      "ooth": 5684,
      "Ġancest": 5685,
      "Ġdatabase": 5686,
      "des": 5687,
      "ita": 5688,
      "Ġtow": 5689,
      "tenance": 5690,
      "ca": 5691,
      "Ġpossibility": 5692,
      "ymph": 5693,
      "Ġcandid": 5694,
      "ibilities": 5695,
      "Ġwire": 5696,
      "Ġexchange": 5697,
      "Ġintroduction": 5698,
      "Ġproducing": 5699,
      "Ġnewsp": 5700,
      "Ġcomprehensive": 5701,
      "anda": 5702,
      "idden": 5703,
      "ĠAC": 5704,
      "ota": 5705,
      "Ġshel": 5706,
      "ĠConn": 5707,
      "Ġsmart": 5708,
      "Ġguidelines": 5709,
      "ava": 5710,
      "Ġcardi": 5711,
      "Ġstored": 5712,
      "Ġparam": 5713,
      "ĠMo": 5714,
      "Ġnetworks": 5715,
      "Ġnarr": 5716,
      "Ġrecip": 5717,
      "pping": 5718,
      "198": 5719,
      "Ġsoldiers": 5720,
      "Ġtal": 5721,
      "ĠSk": 5722,
      "ĠCancer": 5723,
      "ĠUSA": 5724,
      "Ġchapter": 5725,
      "32": 5726,
      "king": 5727,
      "ĠFact": 5728,
      "Ġcopy": 5729,
      "Ġrefuge": 5730,
      "vironments": 5731,
      "Ġperce": 5732,
      "bert": 5733,
      "Ġmarriage": 5734,
      "ĠDan": 5735,
      "Ġimper": 5736,
      "ĠExt": 5737,
      "anguage": 5738,
      "Ġabsolute": 5739,
      "isp": 5740,
      "ĠAustralian": 5741,
      "bing": 5742,
      "ĠCa": 5743,
      "Ġmountain": 5744,
      "Ġtail": 5745,
      "oted": 5746,
      "asp": 5747,
      "ĠSouthern": 5748,
      "Ġcorpor": 5749,
      "ĠEth": 5750,
      "Ġagriculture": 5751,
      "Ġaw": 5752,
      "Ġsecondary": 5753,
      "rors": 5754,
      "There": 5755,
      "99": 5756,
      "Ġstock": 5757,
      "Ġunderstood": 5758,
      "lements": 5759,
      "Ġapprec": 5760,
      "orrow": 5761,
      "Ġtiny": 5762,
      "aser": 5763,
      "Ġ2020": 5764,
      "Ġcreative": 5765,
      "Ġrepeated": 5766,
      "Ġfigures": 5767,
      "Ġpush": 5768,
      "abil": 5769,
      "Ġsuc": 5770,
      "Ġsuffer": 5771,
      "Ġextensive": 5772,
      "Ġdriving": 5773,
      "spec": 5774,
      "Ġdistrict": 5775,
      "Ġinsurance": 5776,
      "Ġerror": 5777,
      "ĠGold": 5778,
      "].": 5779,
      "Ġinflammation": 5780,
      "Ġunless": 5781,
      "Ġtransmission": 5782,
      "inations": 5783,
      "Ġreject": 5784,
      "ĠHave": 5785,
      "Ġagencies": 5786,
      "Ġacts": 5787,
      "ĠConst": 5788,
      "Ġtun": 5789,
      "Ġdiversity": 5790,
      "Ġplate": 5791,
      "Ġslowly": 5792,
      "ifies": 5793,
      "ĠAdd": 5794,
      "Americ": 5795,
      "ĠTake": 5796,
      "ĠSol": 5797,
      "Ġappearance": 5798,
      "Ġlandscape": 5799,
      "ml": 5800,
      "nam": 5801,
      "Ġedge": 5802,
      "Ġfacilit": 5803,
      "Ġadministration": 5804,
      "Ġformat": 5805,
      "Ġworldwide": 5806,
      "ĠEarly": 5807,
      "Ġfailed": 5808,
      "ĠChic": 5809,
      "ĠLast": 5810,
      "eper": 5811,
      "osal": 5812,
      "cling": 5813,
      "Ġinternet": 5814,
      "Ġ1980": 5815,
      "othe": 5816,
      "Ġachieved": 5817,
      "Ġwildlife": 5818,
      "Ġgenerate": 5819,
      "Ġconstitution": 5820,
      "ini": 5821,
      "Ġprepare": 5822,
      "LE": 5823,
      "Ġ1998": 5824,
      "Ġindeed": 5825,
      "Ġequival": 5826,
      "Ġlabel": 5827,
      "Ġsky": 5828,
      "Ġlisted": 5829,
      "Ġentirely": 5830,
      "sts": 5831,
      "Ġpossess": 5832,
      "Ġrevealed": 5833,
      "65": 5834,
      "esity": 5835,
      "Ġmassive": 5836,
      "Ġintake": 5837,
      "rine": 5838,
      "ĠWhe": 5839,
      "ĠGal": 5840,
      "Ġgather": 5841,
      "ĠItaly": 5842,
      "Ġphr": 5843,
      "Ġmanaged": 5844,
      "exp": 5845,
      "Ġsell": 5846,
      "Ġspeaking": 5847,
      "Ġsyndrome": 5848,
      "Ġsensitive": 5849,
      "ona": 5850,
      "Ġwww": 5851,
      "Ġshell": 5852,
      "ĠMicro": 5853,
      "Ġexpressed": 5854,
      "Ġvote": 5855,
      "Ġinfrastructure": 5856,
      "Ġtraffic": 5857,
      "Ġdoctors": 5858,
      "ffee": 5859,
      "tage": 5860,
      "ĠIll": 5861,
      "indu": 5862,
      "ĠDet": 5863,
      "Ġframework": 5864,
      "Ġpu": 5865,
      "Ġmobile": 5866,
      "34": 5867,
      "add": 5868,
      "Ġrub": 5869,
      "Ġdecline": 5870,
      "Ġdiverse": 5871,
      "orter": 5872,
      "Ġmur": 5873,
      "anged": 5874,
      "war": 5875,
      "ĠRichard": 5876,
      "ĠCult": 5877,
      "ĠWrit": 5878,
      "zen": 5879,
      "Ġgall": 5880,
      "mun": 5881,
      "ĠLab": 5882,
      "Ġuniverse": 5883,
      "faces": 5884,
      "ĠNatural": 5885,
      "Ġworse": 5886,
      "ĠReport": 5887,
      "Ġobtain": 5888,
      "Ġdust": 5889,
      "ĠRob": 5890,
      "Ġchain": 5891,
      "Ġcreates": 5892,
      "Ġcircumstances": 5893,
      "itan": 5894,
      "Ġfill": 5895,
      "Ġstages": 5896,
      "ĠIN": 5897,
      "Ġsurvive": 5898,
      "Ġsick": 5899,
      "Ġships": 5900,
      "reed": 5901,
      "aph": 5902,
      "Ġamb": 5903,
      "Ġassistance": 5904,
      "ada": 5905,
      "Ġminim": 5906,
      "ĠExper": 5907,
      "kins": 5908,
      "Ġadequ": 5909,
      "ocracy": 5910,
      "Ġenhance": 5911,
      "allel": 5912,
      ".âĢĻ": 5913,
      "ĠNorthern": 5914,
      "Ġexperiments": 5915,
      "Ġbehaviour": 5916,
      "ĠDiff": 5917,
      "hemical": 5918,
      "Ġremaining": 5919,
      "ioxide": 5920,
      "ĠCam": 5921,
      "Ġ300": 5922,
      "31": 5923,
      "fe": 5924,
      "ato": 5925,
      "itt": 5926,
      "ĠBrown": 5927,
      "ĠViet": 5928,
      "Ġsupplement": 5929,
      "Ġauthorities": 5930,
      "ĠTime": 5931,
      "Ġelectronic": 5932,
      "Ġaccounts": 5933,
      "Ġinsects": 5934,
      "ĠRome": 5935,
      "ropical": 5936,
      "la": 5937,
      "Ġlibrary": 5938,
      "stream": 5939,
      "Ġdin": 5940,
      "ĠAmong": 5941,
      "Ġinject": 5942,
      "ĠVict": 5943,
      "agers": 5944,
      "igation": 5945,
      "Ġdecade": 5946,
      "Ġextended": 5947,
      "ĠCare": 5948,
      "Ġchart": 5949,
      "Ġimproving": 5950,
      "ypes": 5951,
      "Ġstarts": 5952,
      "Ġtwice": 5953,
      "Ġvolunte": 5954,
      "ka": 5955,
      "Ġlifest": 5956,
      "Ġwants": 5957,
      "Ġhus": 5958,
      "ĠPM": 5959,
      "Ġselection": 5960,
      "Ġstom": 5961,
      "inder": 5962,
      "ĠClick": 5963,
      "ĠDesign": 5964,
      "Ġaf": 5965,
      "iform": 5966,
      "free": 5967,
      "Ġinner": 5968,
      "Ġgreatly": 5969,
      "Ġdoubt": 5970,
      "Ġcalcium": 5971,
      "ĠCap": 5972,
      "Ġopening": 5973,
      "Ġdaughter": 5974,
      "olve": 5975,
      "ansion": 5976,
      "ĠSpain": 5977,
      "Ġlaboratory": 5978,
      "Ġunknown": 5979,
      "Ġanswers": 5980,
      "heast": 5981,
      "ena": 5982,
      "Ġwave": 5983,
      "ĠPC": 5984,
      "imer": 5985,
      "icide": 5986,
      "Ġprem": 5987,
      "Ġwear": 5988,
      "Ġafford": 5989,
      "ĠSometimes": 5990,
      "luding": 5991,
      "Ġmarked": 5992,
      "Ġsuitable": 5993,
      "Ġenvironments": 5994,
      "apping": 5995,
      "inction": 5996,
      "Ġwaves": 5997,
      "born": 5998,
      "Ġabund": 5999,
      "Ġintelligence": 6000,
      "Ġthor": 6001,
      "Ġcompr": 6002,
      "ĠLearn": 6003,
      "rem": 6004,
      "Ġdescription": 6005,
      "ĠStudy": 6006,
      "Ġdestroyed": 6007,
      "Ġstick": 6008,
      "Ġstruggle": 6009,
      "ivery": 6010,
      "ĠSym": 6011,
      "ĠMill": 6012,
      "Ġtransition": 6013,
      "47": 6014,
      "olester": 6015,
      "ĠAcademy": 6016,
      "pet": 6017,
      "Ġmos": 6018,
      "ĠHall": 6019,
      "ĠCommittee": 6020,
      "Ġsight": 6021,
      "icians": 6022,
      "Ġfounded": 6023,
      "Ġfoundation": 6024,
      "Ġengage": 6025,
      "ĠClin": 6026,
      "Ġgal": 6027,
      "Ġsubs": 6028,
      "clop": 6029,
      "itative": 6030,
      "Ġsweet": 6031,
      "Ġuns": 6032,
      "Ġbroken": 6033,
      "Ġantibiot": 6034,
      "rants": 6035,
      "Ġplays": 6036,
      "Ġfilled": 6037,
      "Ġagency": 6038,
      "Ġflag": 6039,
      "Ġremote": 6040,
      "eck": 6041,
      "Ġtells": 6042,
      "Ġshut": 6043,
      "ĠEnd": 6044,
      "Ġimplementation": 6045,
      "Ġconsid": 6046,
      "Ġcritic": 6047,
      "Ġseeing": 6048,
      "Ġgenerated": 6049,
      "Ġvehicles": 6050,
      "ĠPan": 6051,
      "Ġdesire": 6052,
      "Ġ1970": 6053,
      "Ġorganized": 6054,
      "gent": 6055,
      "ribed": 6056,
      "Ġroutine": 6057,
      "arant": 6058,
      "being": 6059,
      "Ġcircuit": 6060,
      "ĠMad": 6061,
      "ĠMag": 6062,
      "Ġ500": 6063,
      "Ġfossil": 6064,
      "Ġdoor": 6065,
      "Ġourselves": 6066,
      "normal": 6067,
      "Ġnurs": 6068,
      "ĠOh": 6069,
      "ĠRef": 6070,
      "Ġforests": 6071,
      "Ġsports": 6072,
      "Ġcars": 6073,
      "Ġproduces": 6074,
      "UR": 6075,
      "ait": 6076,
      "Ġmedication": 6077,
      "wing": 6078,
      "ĠClimate": 6079,
      "Ġneck": 6080,
      "Ġphotograph": 6081,
      "Ġthousand": 6082,
      "Ġelectron": 6083,
      "You": 6084,
      "Ġsupplies": 6085,
      "Ġdecide": 6086,
      "Ġtruly": 6087,
      "Ġprincip": 6088,
      "Ġrank": 6089,
      "ĠPop": 6090,
      "Ġ2019": 6091,
      "Ã¼": 6092,
      "Ġunp": 6093,
      "Ġchildhood": 6094,
      "aud": 6095,
      "Ġdomin": 6096,
      "ĠIII": 6097,
      "abits": 6098,
      "Ġderived": 6099,
      "olesterol": 6100,
      "utch": 6101,
      "Ġdigest": 6102,
      "Ġfixed": 6103,
      "ĠWood": 6104,
      "Ġattend": 6105,
      "ront": 6106,
      "erent": 6107,
      "Ġdiscipl": 6108,
      "Ġcourses": 6109,
      "Ġstanding": 6110,
      "abric": 6111,
      "Ġacceler": 6112,
      "inking": 6113,
      "no": 6114,
      "ua": 6115,
      "ache": 6116,
      "Ġconcrete": 6117,
      "flow": 6118,
      "Ġax": 6119,
      "inity": 6120,
      "izer": 6121,
      "HO": 6122,
      "Ġcatch": 6123,
      "Ġlimits": 6124,
      "burg": 6125,
      "Ġreaders": 6126,
      "Ġarrived": 6127,
      "ĠMichael": 6128,
      "Ġdensity": 6129,
      "Ġhappy": 6130,
      "Ġdioxide": 6131,
      "ĠDig": 6132,
      "Ġscript": 6133,
      "ints": 6134,
      "Ġstudying": 6135,
      "ĠEmpire": 6136,
      "Ġcolleagues": 6137,
      "ĠIP": 6138,
      "ipping": 6139,
      "Ġpowers": 6140,
      "Ġaqu": 6141,
      "ĠForm": 6142,
      "Ġindex": 6143,
      "Ġwish": 6144,
      "ĠFree": 6145,
      "Ġbudget": 6146,
      "ki": 6147,
      "Ġlocations": 6148,
      "Ġchoices": 6149,
      "Ġsurve": 6150,
      "Ġhousing": 6151,
      "Ġzone": 6152,
      "ĠSecurity": 6153,
      "erals": 6154,
      "ĠFrank": 6155,
      "Ġoptim": 6156,
      "isters": 6157,
      "Ġpull": 6158,
      "icon": 6159,
      "Ġbear": 6160,
      "ĠPenn": 6161,
      "ĠItalian": 6162,
      "Ġgone": 6163,
      "teries": 6164,
      "Ġsentence": 6165,
      "Ġrepresented": 6166,
      "Ġfasc": 6167,
      "Ġissued": 6168,
      "Ġnine": 6169,
      "Ġsharing": 6170,
      "Ġfly": 6171,
      "Ġgrav": 6172,
      "ogue": 6173,
      "Ġjourney": 6174,
      "called": 6175,
      "ĠCre": 6176,
      "peror": 6177,
      "55": 6178,
      "Ġsignals": 6179,
      "Ġimmediate": 6180,
      "sey": 6181,
      "ĠValley": 6182,
      "orith": 6183,
      "Ġcultures": 6184,
      "Ġyounger": 6185,
      "Ġmice": 6186,
      "iration": 6187,
      "ĠDen": 6188,
      "ĠEss": 6189,
      "elled": 6190,
      "Ġmaintenance": 6191,
      "Ġaudience": 6192,
      "77": 6193,
      "Ġcloud": 6194,
      "Ġprofessionals": 6195,
      "ora": 6196,
      "Ġreader": 6197,
      "Ġreplaced": 6198,
      "Ġobst": 6199,
      "Ġcounty": 6200,
      "Ġfewer": 6201,
      "Ġindicates": 6202,
      "Ġvariable": 6203,
      "Ġlots": 6204,
      "rid": 6205,
      "Ġdifficulty": 6206,
      "ĠStreet": 6207,
      "Ġsuccessfully": 6208,
      "bridge": 6209,
      "Ġharmful": 6210,
      "CS": 6211,
      "Ġinteraction": 6212,
      "Ġconsistent": 6213,
      "organ": 6214,
      "Ġinstitution": 6215,
      "antly": 6216,
      "ĠAdminist": 6217,
      "fish": 6218,
      "Ġclust": 6219,
      "zil": 6220,
      "Ġoutl": 6221,
      "Ġreserv": 6222,
      "using": 6223,
      "Ġsupposed": 6224,
      "Ġserver": 6225,
      "cules": 6226,
      "Ġcloser": 6227,
      "cel": 6228,
      "Ġshift": 6229,
      "Ġunable": 6230,
      "Ġcarefully": 6231,
      "mary": 6232,
      "Ġenable": 6233,
      "Ġstomach": 6234,
      "Ġmarried": 6235,
      "Ġmanufacturing": 6236,
      "ctive": 6237,
      "Ġsequence": 6238,
      "ala": 6239,
      "Ġopposite": 6240,
      "ocy": 6241,
      "quit": 6242,
      "Ġoverl": 6243,
      "Ġknows": 6244,
      "Ġearthqu": 6245,
      "ĠTop": 6246,
      "Ġalle": 6247,
      "ĠRoyal": 6248,
      "Ġinjuries": 6249,
      "Ġsteel": 6250,
      "Ġsoul": 6251,
      "hyth": 6252,
      "iability": 6253,
      "Ġcultiv": 6254,
      "Ġfighting": 6255,
      "Ġfalse": 6256,
      "ĠOF": 6257,
      "etime": 6258,
      "Ġstroke": 6259,
      "DP": 6260,
      "ĠNut": 6261,
      "ĠDisease": 6262,
      "Ġeastern": 6263,
      "Ġmechanism": 6264,
      "Ġadministr": 6265,
      "ih": 6266,
      "ĠCheck": 6267,
      "Ġstands": 6268,
      "nership": 6269,
      "Ġunus": 6270,
      "ugh": 6271,
      "Ġterritory": 6272,
      "cher": 6273,
      "Ġshot": 6274,
      "ĠParis": 6275,
      "Ġvessels": 6276,
      "Ġsupports": 6277,
      "throp": 6278,
      "Ġjoin": 6279,
      "under": 6280,
      "ctor": 6281,
      "irty": 6282,
      "level": 6283,
      "âĢĻ,": 6284,
      "cture": 6285,
      "Ġtaste": 6286,
      "Ġflav": 6287,
      "Ġwalking": 6288,
      "Ġpermanent": 6289,
      "Ġleaf": 6290,
      "Ġjoined": 6291,
      "01": 6292,
      "Ġpra": 6293,
      "ĠBank": 6294,
      "usal": 6295,
      "umes": 6296,
      "Ġremark": 6297,
      "Ġdefe": 6298,
      "Ġresponses": 6299,
      "ĠCurrent": 6300,
      "ĠCat": 6301,
      "ifications": 6302,
      "Ġskill": 6303,
      "Ġemployment": 6304,
      "Ġ36": 6305,
      "Ġconsumers": 6306,
      "abul": 6307,
      "Ġrequest": 6308,
      "Ġintervention": 6309,
      "Ġaccum": 6310,
      "Ġamaz": 6311,
      "Ã³": 6312,
      "Ġmixed": 6313,
      "Ġlisten": 6314,
      "Ġtwenty": 6315,
      "Ġmulti": 6316,
      "stein": 6317,
      "fortunately": 6318,
      "Ġpurchase": 6319,
      "Ġborder": 6320,
      "Ġtea": 6321,
      "Ġhandle": 6322,
      "Ġoccasion": 6323,
      "Ġfunds": 6324,
      "itter": 6325,
      "Ġstring": 6326,
      "Ġsolve": 6327,
      "Ġbeneficial": 6328,
      "kes": 6329,
      "Ġorganisms": 6330,
      "He": 6331,
      "hand": 6332,
      "ĠAgricult": 6333,
      "Ġpup": 6334,
      "lder": 6335,
      "ĠColor": 6336,
      "Ġepid": 6337,
      "phone": 6338,
      "Ġacids": 6339,
      "Ġattached": 6340,
      "ĠIndians": 6341,
      "Ġnecessarily": 6342,
      "IL": 6343,
      "omic": 6344,
      "Ġpron": 6345,
      "ĠNative": 6346,
      "Ġrising": 6347,
      "Ã¶": 6348,
      "Ġpersist": 6349,
      "Ġends": 6350,
      "ione": 6351,
      "Ġregulations": 6352,
      "Ġarchitecture": 6353,
      "Ġchosen": 6354,
      "Ġhydrogen": 6355,
      "Ġnerve": 6356,
      "Ġturns": 6357,
      "Ġcryst": 6358,
      "ĠSign": 6359,
      "Ġroof": 6360,
      "ĠWik": 6361,
      "Ġcomposition": 6362,
      "Ġnegot": 6363,
      "Ġdrawing": 6364,
      "Ġmagnetic": 6365,
      "Ġbot": 6366,
      "Ġcomments": 6367,
      "ĠChicago": 6368,
      "Ġ1997": 6369,
      "Ġmac": 6370,
      "ashion": 6371,
      "ediatric": 6372,
      "Ġdebate": 6373,
      "How": 6374,
      "rovers": 6375,
      "esis": 6376,
      "Ġtall": 6377,
      "Ġsod": 6378,
      "Ġhoriz": 6379,
      "Ġconventional": 6380,
      "zed": 6381,
      "gu": 6382,
      "ĠTimes": 6383,
      "ĠBoard": 6384,
      "Ġcomparison": 6385,
      "Ġboost": 6386,
      "Ġgrew": 6387,
      "Ġspok": 6388,
      "Ġinstruments": 6389,
      "Al": 6390,
      "Ġpercentage": 6391,
      "Ġemotions": 6392,
      "stract": 6393,
      "Ġcrim": 6394,
      "ĠStr": 6395,
      "Ġphilosophy": 6396,
      "word": 6397,
      "ester": 6398,
      "Ġlies": 6399,
      "Ġmode": 6400,
      "Ġresulted": 6401,
      "Ġgluc": 6402,
      "Ġsupporting": 6403,
      "ĠSciences": 6404,
      "ployment": 6405,
      "Ġtransportation": 6406,
      "Ġvulnerable": 6407,
      "Ġexists": 6408,
      "ĠList": 6409,
      "Is": 6410,
      "ĠProp": 6411,
      "ĠHaw": 6412,
      "Ġexplo": 6413,
      "orous": 6414,
      "Ġprove": 6415,
      "Ġbutter": 6416,
      "Ġcentre": 6417,
      "Ġcustomers": 6418,
      "hop": 6419,
      "Ġcart": 6420,
      "ented": 6421,
      "Ġresolution": 6422,
      "gans": 6423,
      "Ġastr": 6424,
      "Ġwitness": 6425,
      "Ġteen": 6426,
      "Ġcarb": 6427,
      "ĠSever": 6428,
      "Ġcolour": 6429,
      "rating": 6430,
      "ĠSet": 6431,
      "Ġhem": 6432,
      "Ġhealthcare": 6433,
      "ĠParty": 6434,
      "Ġvoc": 6435,
      "Ġregist": 6436,
      "onia": 6437,
      "Ġsmoke": 6438,
      "Ġwhereas": 6439,
      "LA": 6440,
      "last": 6441,
      "Ġstable": 6442,
      "ĠMain": 6443,
      "ĠThree": 6444,
      "ĠCr": 6445,
      "Ġcoffee": 6446,
      "Ġultimately": 6447,
      "Ġequivalent": 6448,
      "Ġyield": 6449,
      "ums": 6450,
      "Ġdedicated": 6451,
      "Ġobservations": 6452,
      "ĠBab": 6453,
      "Ġfeeding": 6454,
      "Ġblocks": 6455,
      "Ġethnic": 6456,
      "isk": 6457,
      "ĠNon": 6458,
      "Ġinhib": 6459,
      "rot": 6460,
      "Ġdelivery": 6461,
      "Ġislands": 6462,
      "riers": 6463,
      "Ġwilling": 6464,
      "Ġelection": 6465,
      "uits": 6466,
      "Ġcos": 6467,
      "Ġ||": 6468,
      "Ġbrand": 6469,
      "eenth": 6470,
      "Ġhighlight": 6471,
      "05": 6472,
      "ĠMer": 6473,
      "Ġdomain": 6474,
      "Ġreven": 6475,
      "Ġcontained": 6476,
      "Ġunderlying": 6477,
      "Ġstreet": 6478,
      "Ġrelax": 6479,
      "Ġexplanation": 6480,
      "Ġnearby": 6481,
      "how": 6482,
      "Ġath": 6483,
      "Ġmatters": 6484,
      "Ġwhatever": 6485,
      "ighter": 6486,
      "....": 6487,
      "Ġguarant": 6488,
      "Ġdiscrimination": 6489,
      "79": 6490,
      "An": 6491,
      "Ġaer": 6492,
      "Ġdemonstrated": 6493,
      "ĠRevolution": 6494,
      "Ġtraum": 6495,
      "Ġprompt": 6496,
      "ading": 6497,
      "ĠChapter": 6498,
      "Ġraw": 6499,
      "Ġhypothes": 6500,
      "een": 6501,
      "tra": 6502,
      "Ġhur": 6503,
      "stone": 6504,
      "Ġusage": 6505,
      "Ġratio": 6506,
      "Ġpreval": 6507,
      "Ġbiggest": 6508,
      "ĠBig": 6509,
      "ĠEqu": 6510,
      "ĠSimilar": 6511,
      "ĠUnfortunately": 6512,
      "Ġacknow": 6513,
      "Ġcutting": 6514,
      "then": 6515,
      "ĠCreat": 6516,
      "ĠFace": 6517,
      "teen": 6518,
      "bour": 6519,
      "ĠPract": 6520,
      "ĠLook": 6521,
      "Ġvolcan": 6522,
      "Ġaward": 6523,
      "Ġmild": 6524,
      "ĠOcean": 6525,
      "Ġtrained": 6526,
      "avery": 6527,
      "ĠMoreover": 6528,
      "Ġalgorith": 6529,
      "Ġdental": 6530,
      "ĠSar": 6531,
      "Ġcommunicate": 6532,
      "irds": 6533,
      "Ġenemy": 6534,
      "Ġholds": 6535,
      "EP": 6536,
      "Ġbread": 6537,
      "ĠCast": 6538,
      "Ġmechanisms": 6539,
      "ĠAge": 6540,
      "ĠScott": 6541,
      "Ġparticipate": 6542,
      "Ġforth": 6543,
      "Ġreactions": 6544,
      "ĠâĨ": 6545,
      "xts": 6546,
      "Ġnone": 6547,
      "Ġcompounds": 6548,
      "ĠBrazil": 6549,
      "gs": 6550,
      "Ġprev": 6551,
      "Ġvoltage": 6552,
      "Ġmolecules": 6553,
      "Ġwriter": 6554,
      "Ġdemonstrate": 6555,
      "Ġchrom": 6556,
      "Ġconnections": 6557,
      "ĠDoes": 6558,
      "Ġintellectual": 6559,
      "lets": 6560,
      "ribe": 6561,
      "Ġplayers": 6562,
      "Ġnoise": 6563,
      "Ġfunctional": 6564,
      "Ġwasn": 6565,
      "Ġrid": 6566,
      "Ġregul": 6567,
      "Ġexamine": 6568,
      "Ġkidney": 6569,
      "Ġtrials": 6570,
      "ĠAS": 6571,
      "Ġpolitics": 6572,
      "Ġemployed": 6573,
      "Ġbehaviors": 6574,
      "Ġsacr": 6575,
      "ĠEastern": 6576,
      "Ġcholesterol": 6577,
      "Ġ75": 6578,
      "Ġlifestyle": 6579,
      "but": 6580,
      "etics": 6581,
      "Ġpsychological": 6582,
      "ĠFamily": 6583,
      "rd": 6584,
      "cyclop": 6585,
      "Ġdownload": 6586,
      "Ġbattery": 6587,
      "ĠMartin": 6588,
      "ĠAccess": 6589,
      "ĠSing": 6590,
      "ĠCoast": 6591,
      "Ġ32": 6592,
      "Ġestimate": 6593,
      "Ġcontamin": 6594,
      "Ġasthma": 6595,
      "Ġcards": 6596,
      "ĠRom": 6597,
      "Ġshop": 6598,
      "Ġkit": 6599,
      "ĠCy": 6600,
      "Ġrivers": 6601,
      "ĠHam": 6602,
      "Ġindependence": 6603,
      "Ġrecept": 6604,
      "ĠPet": 6605,
      "ĠGeorg": 6606,
      "ĠAtlantic": 6607,
      "ols": 6608,
      "Ġagreed": 6609,
      "erior": 6610,
      "Ġhun": 6611,
      "ĠPy": 6612,
      "top": 6613,
      "Ġhabits": 6614,
      "sets": 6615,
      "IG": 6616,
      "Ġveter": 6617,
      "Ġestimates": 6618,
      "Ġdistur": 6619,
      "anches": 6620,
      "Ġpartners": 6621,
      "ĠEffect": 6622,
      "Ġbond": 6623,
      "Ġended": 6624,
      "Ġparallel": 6625,
      "Ġtons": 6626,
      "Ġentered": 6627,
      "ĠÂ©": 6628,
      "Ġevaluation": 6629,
      "Ġlegs": 6630,
      "Ġrecognition": 6631,
      "Ġbreathing": 6632,
      "ĠCarolina": 6633,
      "Ġcrow": 6634,
      "Ġholid": 6635,
      "ĠBack": 6636,
      "ĠVer": 6637,
      "ĠMen": 6638,
      "Ġrow": 6639,
      "Ġ1960": 6640,
      "ĠJo": 6641,
      "Ġzero": 6642,
      "Ġmand": 6643,
      "Ġlayers": 6644,
      "ĠFurthermore": 6645,
      "IR": 6646,
      "exam": 6647,
      "Ġ1995": 6648,
      "Ġimprovement": 6649,
      "while": 6650,
      "95": 6651,
      "orph": 6652,
      "ola": 6653,
      "ĠMa": 6654,
      "Ġuniversity": 6655,
      "Ġconfidence": 6656,
      "ictionary": 6657,
      "Ġinstructions": 6658,
      "icious": 6659,
      "ĠHy": 6660,
      "Ġdollars": 6661,
      "abled": 6662,
      "Ġfrequent": 6663,
      "Ġcapture": 6664,
      "Ġcriminal": 6665,
      "Ġsail": 6666,
      "Ġthy": 6667,
      "ĠGard": 6668,
      "ĠVit": 6669,
      "Ġpassage": 6670,
      "Ġcoastal": 6671,
      "Ġfold": 6672,
      "Ġrelation": 6673,
      "Ġentry": 6674,
      "Ġgenerations": 6675,
      "ĠKingdom": 6676,
      "ittle": 6677,
      "Ġaccident": 6678,
      "Ġlegislation": 6679,
      "sen": 6680,
      "Ġdefine": 6681,
      "Ġfiber": 6682,
      "Ġdiagnosed": 6683,
      "ĠLar": 6684,
      "ĠIran": 6685,
      "ĠType": 6686,
      "espread": 6687,
      "Ġcrime": 6688,
      "Ġconclusion": 6689,
      "Ġneither": 6690,
      "ulty": 6691,
      "Ġoblig": 6692,
      "Ġsmoking": 6693,
      "Ġdrawn": 6694,
      "Ġsucceed": 6695,
      "Ġarrest": 6696,
      "Ġdanger": 6697,
      "ĠColumbia": 6698,
      "ĠAuthor": 6699,
      "ĠFour": 6700,
      "ĠFind": 6701,
      "Ġinteractions": 6702,
      "Ġfabric": 6703,
      "Ġcommitted": 6704,
      "ĠTable": 6705,
      "BS": 6706,
      "Ġmanip": 6707,
      "ishment": 6708,
      "Ġmedic": 6709,
      "Ġbridge": 6710,
      "Ġ1996": 6711,
      "ĠTeac": 6712,
      "Ġassociation": 6713,
      "ĠIslam": 6714,
      "88": 6715,
      "Ġmanif": 6716,
      "OL": 6717,
      "Ġahead": 6718,
      "Ġfu": 6719,
      "hips": 6720,
      "Ġsections": 6721,
      "ĠFort": 6722,
      "ults": 6723,
      "Ġarrange": 6724,
      "Ġvictims": 6725,
      "hav": 6726,
      "Ġmeters": 6727,
      "rey": 6728,
      "Ġcats": 6729,
      "Ġbiod": 6730,
      "ĠScot": 6731,
      "Ġruns": 6732,
      "Ġblow": 6733,
      "itivity": 6734,
      "ĠDar": 6735,
      "Ġobesity": 6736,
      "ĠZeal": 6737,
      "Ġhero": 6738,
      "OC": 6739,
      "Ġfract": 6740,
      "ĠPot": 6741,
      "ourage": 6742,
      "ĠStart": 6743,
      "orses": 6744,
      "ĠGuide": 6745,
      "uh": 6746,
      "inating": 6747,
      "ibl": 6748,
      "Ġsole": 6749,
      "Ġdelay": 6750,
      "ĠMuslim": 6751,
      "agon": 6752,
      "Ġdeclared": 6753,
      "Ġmolecular": 6754,
      "ĠOpen": 6755,
      "ĠBus": 6756,
      "ĠWall": 6757,
      "Ġrocks": 6758,
      "hesis": 6759,
      "azine": 6760,
      "66": 6761,
      "Ġhistoric": 6762,
      "such": 6763,
      "that": 6764,
      "Ġdebt": 6765,
      "IA": 6766,
      "Ġearn": 6767,
      "Ġowners": 6768,
      "Ġstatistics": 6769,
      "Ġscene": 6770,
      "Ġboys": 6771,
      "ĠComput": 6772,
      "Ġboy": 6773,
      "itely": 6774,
      "Ġcircle": 6775,
      "Ġmachines": 6776,
      "Ġbeliefs": 6777,
      "hered": 6778,
      "asty": 6779,
      "ĠAsian": 6780,
      "Ġbio": 6781,
      "Ġartificial": 6782,
      "Ġrealize": 6783,
      "Ġsomewhat": 6784,
      "arsh": 6785,
      "Ġmatch": 6786,
      "Ġpainting": 6787,
      "Ġoperate": 6788,
      "Ġburning": 6789,
      "Ġfeedback": 6790,
      "ĠServices": 6791,
      "ĠAdditionally": 6792,
      "43": 6793,
      "When": 6794,
      "Ġorient": 6795,
      "andon": 6796,
      "inson": 6797,
      "Ġille": 6798,
      "ĠHoly": 6799,
      "Ġphysics": 6800,
      "scale": 6801,
      "Ġprohib": 6802,
      "ĠÐ": 6803,
      "Ġongoing": 6804,
      "Ġpublication": 6805,
      "Ġpresentation": 6806,
      "Ġcamera": 6807,
      "ĠVictor": 6808,
      "Ġgreenhouse": 6809,
      "Ġment": 6810,
      "Ġinvolving": 6811,
      "Ġforget": 6812,
      "Ġdepart": 6813,
      "itudes": 6814,
      "ĠSecret": 6815,
      "rary": 6816,
      "Ġmaps": 6817,
      "Ġscan": 6818,
      "Ġconstructed": 6819,
      "aked": 6820,
      "Ġflo": 6821,
      "Ġphoto": 6822,
      "ĠFund": 6823,
      "ĠLanguage": 6824,
      "Ġholding": 6825,
      "Ġcompetition": 6826,
      "Ġexpansion": 6827,
      "asters": 6828,
      "Ġmerely": 6829,
      "ureau": 6830,
      "Ġpregnant": 6831,
      "Ġrice": 6832,
      "Ġeveryday": 6833,
      "ĠResearchers": 6834,
      "gov": 6835,
      "ĠOrig": 6836,
      "ĠZealand": 6837,
      "Ġsought": 6838,
      "Ġdesigns": 6839,
      "Ġcalories": 6840,
      "Ġpartner": 6841,
      "Ġ150": 6842,
      "Ġnitrogen": 6843,
      "Ġchick": 6844,
      "Ġdestruction": 6845,
      "Ġlaunched": 6846,
      "Ġsheet": 6847,
      "ĠChange": 6848,
      "Ar": 6849,
      "yles": 6850,
      "Ġmaintaining": 6851,
      "ĠMean": 6852,
      "Ġfro": 6853,
      "Ġmood": 6854,
      "ĠMD": 6855,
      "Ġapproved": 6856,
      "ĠAdv": 6857,
      "Ġhonor": 6858,
      "Ġnest": 6859,
      "Ġfever": 6860,
      "ĠArticle": 6861,
      "ĠKar": 6862,
      "ritis": 6863,
      "weight": 6864,
      "Ġpositions": 6865,
      "ĠSpecial": 6866,
      "ella": 6867,
      "Ġpanel": 6868,
      "Ġhusband": 6869,
      "Ġdrain": 6870,
      "ĠIns": 6871,
      "plant": 6872,
      "ĠPlant": 6873,
      "Ġlake": 6874,
      "Ġcompens": 6875,
      "Ġtrouble": 6876,
      "Ġgap": 6877,
      "Ġalter": 6878,
      "Ġbrings": 6879,
      "Ġbeings": 6880,
      "Ġgram": 6881,
      "igan": 6882,
      "ĠWord": 6883,
      "Ġcategory": 6884,
      "ĠSeveral": 6885,
      "omp": 6886,
      "osion": 6887,
      "Ġparticipation": 6888,
      "Ġjudge": 6889,
      "ĠNetwork": 6890,
      "ĠMethod": 6891,
      "Ġfourth": 6892,
      "earing": 6893,
      "Ġcomposed": 6894,
      "ĠVen": 6895,
      "idity": 6896,
      "Ġtrip": 6897,
      "Ġneur": 6898,
      "Ġcontrovers": 6899,
      "41": 6900,
      "Ġdoi": 6901,
      "Ġexercises": 6902,
      "Ġtheories": 6903,
      "Ġthanks": 6904,
      "Ġarchae": 6905,
      "Ġpapers": 6906,
      "Ġclaimed": 6907,
      "%)": 6908,
      "Ġconven": 6909,
      "Ġoutbre": 6910,
      "Ġmicrob": 6911,
      "Ġviruses": 6912,
      "Ġobjective": 6913,
      "car": 6914,
      "ifts": 6915,
      "gers": 6916,
      "Ġstrongly": 6917,
      "ĠResources": 6918,
      "Ġpounds": 6919,
      "ano": 6920,
      "iral": 6921,
      "Ġtexts": 6922,
      "Ġconsumer": 6923,
      "eless": 6924,
      "ĠJac": 6925,
      "Ġsettings": 6926,
      "Ph": 6927,
      "fit": 6928,
      "Ġspaces": 6929,
      "Ġcolumn": 6930,
      "Ġreceiving": 6931,
      "Ġdamaged": 6932,
      "net": 6933,
      "tic": 6934,
      "ĠHill": 6935,
      "igned": 6936,
      "42": 6937,
      "opy": 6938,
      "Ġmembr": 6939,
      "Ġsignificance": 6940,
      "Ġtel": 6941,
      "isdom": 6942,
      "adder": 6943,
      "Ġwidespread": 6944,
      "Ġmissing": 6945,
      "aded": 6946,
      "Ġundert": 6947,
      "Ġaccessible": 6948,
      "forcement": 6949,
      "Ġrepair": 6950,
      "roduction": 6951,
      "ĠAngel": 6952,
      "ether": 6953,
      "Ġrelief": 6954,
      "Ġmarkets": 6955,
      "uts": 6956,
      "Ġtissues": 6957,
      "Ġswim": 6958,
      "otes": 6959,
      "ĠNaz": 6960,
      "Ġinsulin": 6961,
      "Ġintegrated": 6962,
      "Ġroute": 6963,
      "TM": 6964,
      "Ġvs": 6965,
      "yal": 6966,
      "Ġsigned": 6967,
      "Ġindicated": 6968,
      "Ġindustries": 6969,
      "Ġcategories": 6970,
      "Ġpair": 6971,
      "ĠLow": 6972,
      "ĠYear": 6973,
      "Ġtub": 6974,
      "reek": 6975,
      "ĠÂ·": 6976,
      "Ġmoisture": 6977,
      "oples": 6978,
      "ĠQuest": 6979,
      "Ġspending": 6980,
      "Ġserving": 6981,
      "aska": 6982,
      "bra": 6983,
      "ĠPen": 6984,
      "Ġ38": 6985,
      "ĠDirector": 6986,
      "ocation": 6987,
      "Ġru": 6988,
      "ĠAgency": 6989,
      "Ġdefense": 6990,
      "ĠYoung": 6991,
      "oln": 6992,
      "umps": 6993,
      "Ġframe": 6994,
      "ĠNext": 6995,
      "Ġminute": 6996,
      "Ġmaintained": 6997,
      "Ġmeal": 6998,
      "ĠChristmas": 6999,
      "Ġorgans": 7000,
      "Ġcarrying": 7001,
      "Ġweapons": 7002,
      "Ġcoc": 7003,
      "ĠNever": 7004,
      "Ġglucose": 7005,
      "Ġdisaster": 7006,
      "Ġreliable": 7007,
      "Ġtut": 7008,
      "ĠLib": 7009,
      "Ġcovers": 7010,
      "Ġprogramming": 7011,
      "Ġasking": 7012,
      "Ġassume": 7013,
      "Ġputting": 7014,
      "Ġwait": 7015,
      "New": 7016,
      "Ġsmooth": 7017,
      "Ġseemed": 7018,
      "Ġneighborhood": 7019,
      "dule": 7020,
      "Ġplus": 7021,
      "Ġmoves": 7022,
      "Ġ65": 7023,
      "Ġescape": 7024,
      "Ġproportion": 7025,
      "Ġfacility": 7026,
      "Ġped": 7027,
      "Ġstrict": 7028,
      "ey": 7029,
      "ĠCho": 7030,
      "Ġcontrols": 7031,
      "Ġannounced": 7032,
      "Ġrarely": 7033,
      "Ġring": 7034,
      "Ġdefend": 7035,
      "Ġfurn": 7036,
      "ĠBill": 7037,
      "ĠKorea": 7038,
      "Ġphosph": 7039,
      "ĠJeff": 7040,
      "rite": 7041,
      "Ġsubstances": 7042,
      "American": 7043,
      "Ġske": 7044,
      "Ġdivision": 7045,
      "Ġfemales": 7046,
      "Ġ;": 7047,
      "iratory": 7048,
      "Ġbabies": 7049,
      "ohyd": 7050,
      "Ġturning": 7051,
      "bles": 7052,
      "ady": 7053,
      "ĠIss": 7054,
      "Ġrig": 7055,
      "Ġwriters": 7056,
      "Ġstre": 7057,
      "irt": 7058,
      "ĠUr": 7059,
      "Ġdistributed": 7060,
      "ĠDistrict": 7061,
      "bec": 7062,
      "Ġterror": 7063,
      "Ġfulf": 7064,
      "Ġbreath": 7065,
      "Ġbanks": 7066,
      "heric": 7067,
      "ĠLeg": 7068,
      "Ġhole": 7069,
      "ĠPolic": 7070,
      "ĠLight": 7071,
      "ĠFather": 7072,
      "Ġworry": 7073,
      "Ġseeking": 7074,
      "ĠMel": 7075,
      "ĠEr": 7076,
      "ĠOrganization": 7077,
      "operation": 7078,
      "oston": 7079,
      "Ġdepartment": 7080,
      "rial": 7081,
      "Ġintense": 7082,
      "Ġmales": 7083,
      "Ġabandon": 7084,
      "Ġresident": 7085,
      "Ġbeauty": 7086,
      "alm": 7087,
      "ĠEst": 7088,
      "rowing": 7089,
      "Ġelected": 7090,
      "Ġvisitors": 7091,
      "Ġguidance": 7092,
      "Ġcenters": 7093,
      "Ġvirtual": 7094,
      "ĠSup": 7095,
      "Ġoutcome": 7096,
      "IDS": 7097,
      "Ġevaluate": 7098,
      "Ġforg": 7099,
      "Ġdependent": 7100,
      "'m": 7101,
      "Ġmold": 7102,
      "ĠSat": 7103,
      "ersonal": 7104,
      "making": 7105,
      "Ġattempts": 7106,
      "opes": 7107,
      "IM": 7108,
      "Ġempt": 7109,
      "Ġbreeding": 7110,
      "abulary": 7111,
      "Ġye": 7112,
      "ĠGrand": 7113,
      "iah": 7114,
      "Ġtransp": 7115,
      "Ġbiology": 7116,
      "hent": 7117,
      "ĠSund": 7118,
      "ushed": 7119,
      "ĠEp": 7120,
      "Ġminerals": 7121,
      "Ġchallenging": 7122,
      "eut": 7123,
      "ĠStar": 7124,
      "ĠFacebook": 7125,
      "IP": 7126,
      "bu": 7127,
      "Ġinstalled": 7128,
      "Ġconversation": 7129,
      "herent": 7130,
      "Ġpassing": 7131,
      "Ġbringing": 7132,
      "Ġphenomenon": 7133,
      "ixture": 7134,
      "Ġinher": 7135,
      "nee": 7136,
      "ĠIndust": 7137,
      "Ġmeasurements": 7138,
      "Ġcrew": 7139,
      "Ġartists": 7140,
      "Ġtraditions": 7141,
      "ĠSil": 7142,
      "Ġblind": 7143,
      "AA": 7144,
      "vard": 7145,
      "itarian": 7146,
      "Ġcompare": 7147,
      "Ġ400": 7148,
      "Ġplane": 7149,
      "Ġconstantly": 7150,
      "Ġtelevision": 7151,
      "Ġcontemporary": 7152,
      "Ġtract": 7153,
      "Ġpoem": 7154,
      "Ġpharm": 7155,
      "Ġopposed": 7156,
      "Ġloved": 7157,
      "Ġtight": 7158,
      "Ġlymph": 7159,
      "ĠPrinc": 7160,
      "ĠSuper": 7161,
      "isco": 7162,
      "Ġordered": 7163,
      "Ġfavorite": 7164,
      "Ġrely": 7165,
      "CD": 7166,
      "pes": 7167,
      "Ġphysician": 7168,
      "va": 7169,
      "Ġheating": 7170,
      "ĠLo": 7171,
      "alls": 7172,
      "Ġdates": 7173,
      "ĠDown": 7174,
      "Ġproved": 7175,
      "ĠResp": 7176,
      "Ġlie": 7177,
      "ansas": 7178,
      "Ġplanned": 7179,
      "Ġingredients": 7180,
      "Ġsatellite": 7181,
      "Ġadvert": 7182,
      "06": 7183,
      "ĠSource": 7184,
      "Ġchest": 7185,
      "cient": 7186,
      "ĠLess": 7187,
      "ĠOxford": 7188,
      "ĠMult": 7189,
      "Ġ37": 7190,
      "Ġerrors": 7191,
      "Ġfashion": 7192,
      "Ġinformed": 7193,
      "Ġconsiderable": 7194,
      "Ġtranslation": 7195,
      "Ġid": 7196,
      "Ġfer": 7197,
      "Ġequally": 7198,
      "Ġadequate": 7199,
      "greg": 7200,
      "ĠTV": 7201,
      "Ġitem": 7202,
      "Ġ1994": 7203,
      "eren": 7204,
      "Ġmaybe": 7205,
      "Ġsurfaces": 7206,
      "gical": 7207,
      "ĠIV": 7208,
      "oding": 7209,
      "ĠHeb": 7210,
      "Ġtargets": 7211,
      "Ġshock": 7212,
      "rous": 7213,
      "OM": 7214,
      "Ġmeth": 7215,
      "Ġassigned": 7216,
      "ounded": 7217,
      "Ġmosquit": 7218,
      "ĠTre": 7219,
      "ĠTim": 7220,
      "Ġelectro": 7221,
      "aya": 7222,
      "ivered": 7223,
      "Ġseconds": 7224,
      "ude": 7225,
      "Ġengaged": 7226,
      "Ġmessages": 7227,
      "Ġconfirmed": 7228,
      "Ġgalax": 7229,
      "ĠNeu": 7230,
      "Ġpoison": 7231,
      "ĠConservation": 7232,
      "sis": 7233,
      "osh": 7234,
      "ĠKey": 7235,
      "ĠAP": 7236,
      "ricts": 7237,
      "Ġslavery": 7238,
      "irus": 7239,
      "Ġcomplicated": 7240,
      "Ġwithd": 7241,
      "Ġtheme": 7242,
      "Ġimplemented": 7243,
      "Ġsharp": 7244,
      "Ġsubsequent": 7245,
      "Ġaims": 7246,
      "ĠMoon": 7247,
      "Ġvac": 7248,
      "ĠEU": 7249,
      "Ġdischar": 7250,
      "Ġofficers": 7251,
      "Ġcaptured": 7252,
      "Ġroles": 7253,
      "Ġinterpretation": 7254,
      "Un": 7255,
      "Ġdefect": 7256,
      "oir": 7257,
      "ipedia": 7258,
      "oids": 7259,
      "Ġfairly": 7260,
      "%.": 7261,
      "Ġjump": 7262,
      "Ġdesired": 7263,
      "Ġlaid": 7264,
      "ĠScientists": 7265,
      "Ġtank": 7266,
      "Ġgained": 7267,
      "Ġtheore": 7268,
      "ĠPerhaps": 7269,
      "ĠWindows": 7270,
      "Ġspin": 7271,
      "including": 7272,
      "Ġimplications": 7273,
      "Ġproof": 7274,
      "Ġincred": 7275,
      "Ġmineral": 7276,
      "Ġmechanical": 7277,
      "ĠMah": 7278,
      "Ġdeeper": 7279,
      "ounter": 7280,
      "ĠEdward": 7281,
      "incoln": 7282,
      "Ġpreparation": 7283,
      "Ġroughly": 7284,
      "Ġeffectiveness": 7285,
      "ĠForest": 7286,
      "Ġunusual": 7287,
      "Ġagents": 7288,
      "lvan": 7289,
      "Ġedition": 7290,
      "Ġfed": 7291,
      "olesc": 7292,
      "Ġrhyth": 7293,
      "Ġstatements": 7294,
      "ĠChristians": 7295,
      "istical": 7296,
      "Ġremind": 7297,
      "Ġimagine": 7298,
      "rays": 7299,
      "Ġknowing": 7300,
      "Ġprincipal": 7301,
      "ĠAND": 7302,
      "Ġjur": 7303,
      "Ġrespectively": 7304,
      "Ġsatisf": 7305,
      "Ġnervous": 7306,
      "heimer": 7307,
      "Ġdecor": 7308,
      "For": 7309,
      "Ġbranches": 7310,
      "Ġrenewable": 7311,
      "85": 7312,
      "Ġreduces": 7313,
      "Ġfinished": 7314,
      "Ġevil": 7315,
      "ĠColl": 7316,
      "Ġrecommendations": 7317,
      "bar": 7318,
      "ishop": 7319,
      "Ġoffering": 7320,
      "Ġfacing": 7321,
      "Ġencouraged": 7322,
      "ĠFar": 7323,
      "Ġthreats": 7324,
      "Ġbomb": 7325,
      "ĠMS": 7326,
      "Ġmathematics": 7327,
      "ĠDou": 7328,
      "Ġpeak": 7329,
      "Ġphotos": 7330,
      "ĠCommunity": 7331,
      "Ġclothing": 7332,
      "Ġhorses": 7333,
      "Ġexclus": 7334,
      "Ġconcerning": 7335,
      "oven": 7336,
      "Ġstructural": 7337,
      "Ġinfluenced": 7338,
      "Ġmeasurement": 7339,
      "Ġexperimental": 7340,
      "Ġmountains": 7341,
      "tles": 7342,
      "Ġinfect": 7343,
      "Ġexamined": 7344,
      "ĠWithout": 7345,
      "ĠSwed": 7346,
      "Ġcollaboration": 7347,
      "ĠCentre": 7348,
      "ĠNov": 7349,
      "ĠLiter": 7350,
      "Ġcareful": 7351,
      "ĠOnline": 7352,
      "Ġgradually": 7353,
      "onn": 7354,
      "Ġcash": 7355,
      "airy": 7356,
      "Ġkilomet": 7357,
      "ĠAdministration": 7358,
      "RA": 7359,
      "Ġreward": 7360,
      "illa": 7361,
      "ĠForce": 7362,
      "64": 7363,
      "RC": 7364,
      "vin": 7365,
      "ĠPage": 7366,
      "Ġdealing": 7367,
      "UT": 7368,
      "itual": 7369,
      "Ġdent": 7370,
      "ĠPo": 7371,
      "Ġessentially": 7372,
      "Ã¤": 7373,
      "Ġisolated": 7374,
      "Ġoverw": 7375,
      "72": 7376,
      "mers": 7377,
      "ĠTry": 7378,
      "thritis": 7379,
      "Ġmining": 7380,
      "Ġradical": 7381,
      "etary": 7382,
      "uality": 7383,
      "Ġsuffered": 7384,
      "Ġpartnership": 7385,
      "Ġinterpre": 7386,
      "Ġarts": 7387,
      "Ġ1992": 7388,
      "Ġvariables": 7389,
      "Ġcav": 7390,
      "ĠDutch": 7391,
      "Ġfalls": 7392,
      "oured": 7393,
      "Ġrect": 7394,
      "ĠCell": 7395,
      "Ġdemands": 7396,
      "Ġlaunch": 7397,
      "aming": 7398,
      "Ġmodified": 7399,
      "Ġwarning": 7400,
      "Ġcombat": 7401,
      "rooms": 7402,
      "apse": 7403,
      "Ġstimul": 7404,
      "cons": 7405,
      "Ġflows": 7406,
      "Ġconcluded": 7407,
      "73": 7408,
      "Ġmetabol": 7409,
      "Ġscar": 7410,
      "esides": 7411,
      "Ġtube": 7412,
      "Ġgranted": 7413,
      "chen": 7414,
      "Ġ1993": 7415,
      "Ġstronger": 7416,
      "Ġsession": 7417,
      "oric": 7418,
      "Ġaged": 7419,
      "Ġvariation": 7420,
      "Ġsettlement": 7421,
      "health": 7422,
      "Ġdelivered": 7423,
      "Ġinsert": 7424,
      "sylvan": 7425,
      "outs": 7426,
      "ĠCross": 7427,
      "Ġpreventing": 7428,
      "rane": 7429,
      "ani": 7430,
      "71": 7431,
      "Ġexamination": 7432,
      "Ġconference": 7433,
      "medi": 7434,
      "Ġcm": 7435,
      "ima": 7436,
      "Ġusual": 7437,
      "ĠAgain": 7438,
      "Ġasc": 7439,
      "Ġ1950": 7440,
      "Ġproven": 7441,
      "Ġshapes": 7442,
      "roud": 7443,
      "lishing": 7444,
      "Ġsurprising": 7445,
      "ventions": 7446,
      "Ġvarieties": 7447,
      "Ġowner": 7448,
      "ĠWhich": 7449,
      "icted": 7450,
      ")|": 7451,
      "89": 7452,
      "Ġanalys": 7453,
      "ĠReading": 7454,
      "ĠBoston": 7455,
      "eness": 7456,
      "Ġstores": 7457,
      "Ġorbit": 7458,
      "ograp": 7459,
      "ruption": 7460,
      "ĠModern": 7461,
      "iological": 7462,
      "Ġremoval": 7463,
      "ĠSection": 7464,
      "Ġregulation": 7465,
      "Ġearliest": 7466,
      "Ġfilter": 7467,
      "ĠIdent": 7468,
      "Ġ33": 7469,
      "iana": 7470,
      "Ġembry": 7471,
      "ĠConnect": 7472,
      "Ġflour": 7473,
      "Ġtemple": 7474,
      "Ġobserve": 7475,
      "CE": 7476,
      "ĠLincoln": 7477,
      "Ġroads": 7478,
      "Ġuniversal": 7479,
      "Ġacute": 7480,
      "Ġinvestigation": 7481,
      "Ġmortality": 7482,
      "Ġabnormal": 7483,
      "Ġserves": 7484,
      "theless": 7485,
      "Ġbreed": 7486,
      "ĠProtection": 7487,
      "Ġalph": 7488,
      "Ġirrit": 7489,
      "Ġcopper": 7490,
      "Ġteams": 7491,
      "Ġsunlight": 7492,
      "ĠMinister": 7493,
      "ĠPolit": 7494,
      "Ġaccompan": 7495,
      "ĠSir": 7496,
      "Ġconqu": 7497,
      "elfare": 7498,
      "riz": 7499,
      "Ġnewly": 7500,
      "fts": 7501,
      "occ": 7502,
      "Ġpermission": 7503,
      "Ġcattle": 7504,
      "iner": 7505,
      "rox": 7506,
      "Ġnose": 7507,
      "Ġsplit": 7508,
      "ĠHor": 7509,
      "Ġconsidering": 7510,
      "Ġadm": 7511,
      "raining": 7512,
      "Ġparas": 7513,
      "Ġhazard": 7514,
      "Ġplenty": 7515,
      "ommod": 7516,
      "cyclopedia": 7517,
      "Ġcommunications": 7518,
      "Ġexcessive": 7519,
      "aired": 7520,
      "ĠSanta": 7521,
      "ĠOtt": 7522,
      "Ġcriteria": 7523,
      "Ġfishing": 7524,
      "Ġaccuracy": 7525,
      "Ġdrought": 7526,
      "ĠWorks": 7527,
      "Ġrose": 7528,
      "Ġepis": 7529,
      "Ġintent": 7530,
      "Ġcourts": 7531,
      "Ġstead": 7532,
      "Ġguard": 7533,
      "Ġcorner": 7534,
      "Ġwindows": 7535,
      "Ġbath": 7536,
      "ilation": 7537,
      "hyd": 7538,
      "Ġfaced": 7539,
      "ĠAmaz": 7540,
      "Ġuncertain": 7541,
      "Ġcooking": 7542,
      "ounce": 7543,
      "Ġflower": 7544,
      "Ġsuperior": 7545,
      "Ġsitting": 7546,
      "example": 7547,
      "Ġdose": 7548,
      "Ġcharacterized": 7549,
      "Ġpresents": 7550,
      "Ġidentification": 7551,
      "uset": 7552,
      "Ġfinds": 7553,
      "Ġscientist": 7554,
      "amics": 7555,
      "Ġinnovation": 7556,
      "Ġpref": 7557,
      "ĠLead": 7558,
      "ĠMedia": 7559,
      "irth": 7560,
      "ĠJul": 7561,
      "Ġ)": 7562,
      "acco": 7563,
      "ĠYes": 7564,
      "Ġdifficulties": 7565,
      "Ġbigger": 7566,
      "Ġadvantages": 7567,
      "ĠPennsylvan": 7568,
      "?\"": 7569,
      "ovascular": 7570,
      "Ġmarks": 7571,
      "ĠPrevention": 7572,
      "aka": 7573,
      "Ġgrows": 7574,
      "ioxid": 7575,
      "ĠWhether": 7576,
      "ĠFire": 7577,
      "asts": 7578,
      "Ġcommission": 7579,
      "ĠContin": 7580,
      "Ġmm": 7581,
      "Ġadds": 7582,
      "Ġfarming": 7583,
      "Ġscreening": 7584,
      "Ġemphasis": 7585,
      "Ġtrigger": 7586,
      "ĠTreatment": 7587,
      "ĠAI": 7588,
      "Ġstuff": 7589,
      "opic": 7590,
      "ĠOl": 7591,
      "Ġrecover": 7592,
      "Ġvisited": 7593,
      "oli": 7594,
      "Ġhealing": 7595,
      "abeth": 7596,
      "Ġunion": 7597,
      "Ġacres": 7598,
      "Ġquarter": 7599,
      "ĠCard": 7600,
      "ĠPur": 7601,
      "Ġinitially": 7602,
      "htt": 7603,
      "Ġunw": 7604,
      "Ġslaves": 7605,
      "ieval": 7606,
      "ĠPlay": 7607,
      "SS": 7608,
      "itals": 7609,
      "Ġscore": 7610,
      "Ġanywhere": 7611,
      "Ġargue": 7612,
      "Ġcaught": 7613,
      "ogether": 7614,
      "Ġsubstantial": 7615,
      "74": 7616,
      "Ġbees": 7617,
      "ĠAL": 7618,
      "oom": 7619,
      "igue": 7620,
      "from": 7621,
      "orted": 7622,
      "Ġangle": 7623,
      "Ġgro": 7624,
      "ercury": 7625,
      "yer": 7626,
      "olving": 7627,
      "Ġvan": 7628,
      "Ġattitude": 7629,
      "Ġbranch": 7630,
      "Ġopposition": 7631,
      "produ": 7632,
      "Ġmicrosc": 7633,
      "Ġprinted": 7634,
      "ĠSand": 7635,
      "achuset": 7636,
      "Ġhappening": 7637,
      "ĠMichigan": 7638,
      "iary": 7639,
      "Ġamazing": 7640,
      "Ġfest": 7641,
      "Ġprovince": 7642,
      "Ġartist": 7643,
      "roat": 7644,
      "amins": 7645,
      "Ġsenior": 7646,
      "achusetts": 7647,
      "Ġinfant": 7648,
      "Ġswitch": 7649,
      "ĠJohnson": 7650,
      "Ġabsence": 7651,
      "Ġpestic": 7652,
      "CT": 7653,
      "Ġlearners": 7654,
      "ĠEliz": 7655,
      "html": 7656,
      "agraph": 7657,
      "Ġouter": 7658,
      "mes": 7659,
      "encing": 7660,
      "rolled": 7661,
      "Ġregarded": 7662,
      "Ġvictim": 7663,
      "Ġcorrel": 7664,
      "ocolate": 7665,
      "Ġ×": 7666,
      "ĠBa": 7667,
      "ogs": 7668,
      "09": 7669,
      "Ã¢": 7670,
      "asant": 7671,
      "Ġdetection": 7672,
      "Ġprocessed": 7673,
      "Ġaudio": 7674,
      "Ġconj": 7675,
      "Ġliteracy": 7676,
      "ĠOhio": 7677,
      "onym": 7678,
      "angered": 7679,
      "ĠAM": 7680,
      "ĠPass": 7681,
      "ultane": 7682,
      "anger": 7683,
      "Ġmusical": 7684,
      "Ġreveal": 7685,
      "Ġtropical": 7686,
      "Ġclar": 7687,
      "Ġfung": 7688,
      "Ġinspired": 7689,
      "Ġsup": 7690,
      "ulpt": 7691,
      "ĠPak": 7692,
      "ĠInit": 7693,
      "ĠHeart": 7694,
      "Ġdriven": 7695,
      "nov": 7696,
      "ĠHaving": 7697,
      "Ġintensity": 7698,
      "Ġconserv": 7699,
      "ĠSupreme": 7700,
      "Ġdys": 7701,
      "Ġgiant": 7702,
      "ĠRock": 7703,
      "ĠGar": 7704,
      "Ġwheat": 7705,
      "Ġdemocracy": 7706,
      "Ġmeasuring": 7707,
      "ĠFollowing": 7708,
      "Ġfix": 7709,
      "Ġmouse": 7710,
      "ĠLin": 7711,
      "ptions": 7712,
      "ĠIndeed": 7713,
      "ĠGeorgia": 7714,
      "Ġoldest": 7715,
      "Ġprominent": 7716,
      "ĠImp": 7717,
      "Ġholes": 7718,
      "Ġarray": 7719,
      "Ġbless": 7720,
      "ĠAlz": 7721,
      "ĠBooks": 7722,
      "Ġexception": 7723,
      "ĠBulgar": 7724,
      "asma": 7725,
      "essions": 7726,
      "rene": 7727,
      "Ġcab": 7728,
      "iture": 7729,
      "Ġplayer": 7730,
      "Ġexpanded": 7731,
      "69": 7732,
      "ba": 7733,
      "Ġpreced": 7734,
      "Ġlogic": 7735,
      "Ġautomatically": 7736,
      "rance": 7737,
      "ĠGulf": 7738,
      "Ġdisrupt": 7739,
      "Ġdance": 7740,
      "ĠLittle": 7741,
      "Ġworst": 7742,
      "Ġ^": 7743,
      "Ġchannel": 7744,
      "Ġevolved": 7745,
      "Ġdirected": 7746,
      "Ġperception": 7747,
      "Ġpeoples": 7748,
      "ĠRemember": 7749,
      "Ġdiameter": 7750,
      "real": 7751,
      "Ġenorm": 7752,
      "Ġpanels": 7753,
      "Ġritual": 7754,
      "Ġoccurring": 7755,
      "Ġintest": 7756,
      "ĠArctic": 7757,
      "Ġslave": 7758,
      "Ġuniform": 7759,
      "Ġremed": 7760,
      "Ġfocuses": 7761,
      "ĠMusic": 7762,
      "Ġ48": 7763,
      "Ġcontributed": 7764,
      "night": 7765,
      "ĠAsk": 7766,
      "Ġattach": 7767,
      "Ġconsideration": 7768,
      "df": 7769,
      "mod": 7770,
      "Ġstations": 7771,
      "amber": 7772,
      "Ġcomplications": 7773,
      "quir": 7774,
      "unicip": 7775,
      "pling": 7776,
      "class": 7777,
      "Ġfatty": 7778,
      "ĠIslamic": 7779,
      "Ġtumor": 7780,
      "Ġsales": 7781,
      "eli": 7782,
      "ĠAvoid": 7783,
      "08": 7784,
      "HD": 7785,
      "mm": 7786,
      "iva": 7787,
      "Ġconfig": 7788,
      "arents": 7789,
      "bean": 7790,
      "ĠPennsylvania": 7791,
      "ĠTom": 7792,
      "Ġplanets": 7793,
      "Ġpit": 7794,
      "Ġautism": 7795,
      "----": 7796,
      "Ġneuro": 7797,
      "ĠIra": 7798,
      "Ġviewed": 7799,
      "ĠQueen": 7800,
      "ĠHebrew": 7801,
      "reated": 7802,
      "Ġseparated": 7803,
      "ĠChristianity": 7804,
      "Ġstrike": 7805,
      "Ġextend": 7806,
      "ĠMassachusetts": 7807,
      "iat": 7808,
      "Ġsubt": 7809,
      "Ġdecreased": 7810,
      "Ġathlet": 7811,
      "Ġpin": 7812,
      "ĠUt": 7813,
      "Ġthreatened": 7814,
      "AB": 7815,
      "igate": 7816,
      "VID": 7817,
      "âĢĺ": 7818,
      "acts": 7819,
      "Ġuncom": 7820,
      "Ġprofit": 7821,
      "print": 7822,
      "',": 7823,
      "04": 7824,
      "sell": 7825,
      "Ġconfident": 7826,
      "Ġrepresentation": 7827,
      "Ġeliminate": 7828,
      "otton": 7829,
      "Ġwrites": 7830,
      "Ġceremon": 7831,
      "Ġaccommod": 7832,
      "Ġvideos": 7833,
      "Ġinhabit": 7834,
      "Ġ55": 7835,
      "Ġmothers": 7836,
      "ĠFrancisco": 7837,
      "Ġspoken": 7838,
      "Go": 7839,
      "Ġdietary": 7840,
      "ucky": 7841,
      "Ġelder": 7842,
      "Ġreaching": 7843,
      "Ġformula": 7844,
      "03": 7845,
      "Ġstability": 7846,
      "Ġplot": 7847,
      "UN": 7848,
      "irms": 7849,
      "ĠOper": 7850,
      "Ġpolar": 7851,
      "usalem": 7852,
      "Ġcarbohyd": 7853,
      "Ġflash": 7854,
      "GE": 7855,
      "adel": 7856,
      "ĠAlzheimer": 7857,
      "she": 7858,
      "ĠSafety": 7859,
      "otherapy": 7860,
      "Gen": 7861,
      "Ġflying": 7862,
      "Ġmyst": 7863,
      "Ġbiom": 7864,
      "Ġov": 7865,
      "Ġcort": 7866,
      "Ġthereby": 7867,
      "Ġinterface": 7868,
      "atial": 7869,
      "ami": 7870,
      "Ġampl": 7871,
      "ĠBeing": 7872,
      "Ġcopyright": 7873,
      "Ġheavily": 7874,
      "ĠCambridge": 7875,
      "angle": 7876,
      "ĠUnlike": 7877,
      "ĠDev": 7878,
      "68": 7879,
      "riend": 7880,
      "action": 7881,
      "Ġcompound": 7882,
      "Ġstrengthen": 7883,
      "Ġtowns": 7884,
      "allow": 7885,
      "Ġlights": 7886,
      "Ġeru": 7887,
      "ĠBattle": 7888,
      "Ġclub": 7889,
      "Ġovercome": 7890,
      "Ġeditor": 7891,
      "ĠConvention": 7892,
      "Ġspectrum": 7893,
      "isted": 7894,
      "Ġaddressed": 7895,
      "ENT": 7896,
      "ĠEngineering": 7897,
      "Ġwine": 7898,
      "Ġgut": 7899,
      "Ġalive": 7900,
      "Ġtor": 7901,
      "ĠAnalysis": 7902,
      "Sp": 7903,
      "Ġroyal": 7904,
      "Ġcontainer": 7905,
      "ĠBusiness": 7906,
      "Ġstopped": 7907,
      "Ġhouseholds": 7908,
      "Ġperm": 7909,
      "icy": 7910,
      "ĠHand": 7911,
      "Ġhence": 7912,
      "Ġchap": 7913,
      "coming": 7914,
      "aping": 7915,
      "ĠView": 7916,
      "Ġtreating": 7917,
      "ĠVitamin": 7918,
      "soft": 7919,
      "Ġcovering": 7920,
      "trans": 7921,
      "ĠCorn": 7922,
      "rency": 7923,
      "Ġnewspaper": 7924,
      "ĠPoint": 7925,
      "ĠRight": 7926,
      "Ġcoverage": 7927,
      "Ġnice": 7928,
      "ĠMath": 7929,
      "ĠÂ£": 7930,
      "Ġpy": 7931,
      "ura": 7932,
      "ĠLater": 7933,
      "Ġcontribution": 7934,
      "Ġ1930": 7935,
      "Ġmoderate": 7936,
      "Ġdetected": 7937,
      "Ġcharged": 7938,
      "Ġwisdom": 7939,
      "ĠDC": 7940,
      "Ġran": 7941,
      "gence": 7942,
      "lims": 7943,
      "Ġfisher": 7944,
      "acent": 7945,
      "Ġrelie": 7946,
      "atively": 7947,
      "Ġrespiratory": 7948,
      "Ġelsewhere": 7949,
      "ĠPolicy": 7950,
      "bul": 7951,
      "rus": 7952,
      "ĠHum": 7953,
      "iop": 7954,
      "Ġfires": 7955,
      "Ġtaxes": 7956,
      "Ġorders": 7957,
      "Ġschedule": 7958,
      "edu": 7959,
      "Ġhosp": 7960,
      "archy": 7961,
      "Ġheads": 7962,
      "ogenic": 7963,
      "ugg": 7964,
      "emia": 7965,
      "Ġsport": 7966,
      "Ġobjectives": 7967,
      "Ġlosses": 7968,
      "On": 7969,
      "ette": 7970,
      "Ġexped": 7971,
      "ĠLee": 7972,
      "brid": 7973,
      "Ġswit": 7974,
      "Ġillegal": 7975,
      "lete": 7976,
      "agram": 7977,
      "Ġprovider": 7978,
      "Ġethical": 7979,
      "onal": 7980,
      "Ġproceed": 7981,
      "Ġrational": 7982,
      "Ġabilities": 7983,
      "Ġdisabilities": 7984,
      "aws": 7985,
      "century": 7986,
      "just": 7987,
      "Ġagent": 7988,
      "Ġsupplements": 7989,
      "Ġregardless": 7990,
      "iations": 7991,
      "rection": 7992,
      "Ġmanufacturers": 7993,
      "itory": 7994,
      "ĠCirc": 7995,
      "oga": 7996,
      "Ġweakness": 7997,
      "ĠSolar": 7998,
      "ĠBased": 7999,
      "ĠHead": 8000,
      "Ġpointed": 8001,
      "Ġgirl": 8002,
      "ĠGre": 8003,
      "Ġboat": 8004,
      "Ġconsume": 8005,
      "Ġprotecting": 8006,
      "Ġobservation": 8007,
      "ĠParliament": 8008,
      "Ġappointed": 8009,
      "effect": 8010,
      "ĠCP": 8011,
      "haust": 8012,
      "ĠMcC": 8013,
      "door": 8014,
      "Ġbeans": 8015,
      "Ġdesert": 8016,
      "otal": 8017,
      "Ġadvent": 8018,
      "neys": 8019,
      "ĠIncre": 8020,
      "Ġtrends": 8021,
      "Ġfra": 8022,
      "Ġcomprom": 8023,
      "Ġcalling": 8024,
      "ĠSpring": 8025,
      "Ġsilver": 8026,
      "02": 8027,
      "BT": 8028,
      "Ġchlor": 8029,
      "Ġplain": 8030,
      "atal": 8031,
      "struct": 8032,
      "Ġassumed": 8033,
      "NS": 8034,
      "ĠObs": 8035,
      "Ġracial": 8036,
      "Ġnarrative": 8037,
      "ĠAz": 8038,
      "elve": 8039,
      "ĠOk": 8040,
      "Ġimaging": 8041,
      "ruit": 8042,
      "Ġprobability": 8043,
      "Ġestablishment": 8044,
      "ĠEgyptian": 8045,
      "Ġvocabulary": 8046,
      "Ġlaser": 8047,
      "otype": 8048,
      "Ġdescript": 8049,
      "ĠAlexander": 8050,
      "rav": 8051,
      "ĠHospital": 8052,
      "Ġinsight": 8053,
      "Ġsuscept": 8054,
      "Ġordinary": 8055,
      "inf": 8056,
      "erman": 8057,
      "Ġbelieves": 8058,
      "Ġengineers": 8059,
      "Ġprinting": 8060,
      "Ġphrase": 8061,
      "Ex": 8062,
      "HS": 8063,
      "à¥": 8064,
      "Ġbrows": 8065,
      "urches": 8066,
      "ĠLos": 8067,
      "Ġsmell": 8068,
      "Ġprogramme": 8069,
      "Ġfalling": 8070,
      "Ġmixture": 8071,
      "Ġhumanity": 8072,
      "Ġdegrad": 8073,
      "Ġcounsel": 8074,
      "ĠPortug": 8075,
      "Ġhidden": 8076,
      "Ġcharacteristic": 8077,
      "Ġcomfortable": 8078,
      "CR": 8079,
      "aus": 8080,
      "ĠMax": 8081,
      "Ġconce": 8082,
      "Ġforming": 8083,
      "Ġargued": 8084,
      "Ġexperiencing": 8085,
      "ĠDue": 8086,
      "Ġsettled": 8087,
      "ĠJerusalem": 8088,
      "Ġgases": 8089,
      "Ġindigenous": 8090,
      "Ġsocieties": 8091,
      "ĠEconomic": 8092,
      "ket": 8093,
      "ĠVietnam": 8094,
      "Ġearthquake": 8095,
      "ĠTO": 8096,
      "Ġgrain": 8097,
      "ĠWay": 8098,
      "agen": 8099,
      "Ġauthent": 8100,
      "Ġquantum": 8101,
      "Ġcooling": 8102,
      "ifice": 8103,
      ".).": 8104,
      "Ġshad": 8105,
      "Ġaffecting": 8106,
      "Ġtribes": 8107,
      "98": 8108,
      "ĠMot": 8109,
      "Ġdism": 8110,
      "ĠBuilding": 8111,
      "ĠAssess": 8112,
      "ĠConsider": 8113,
      "And": 8114,
      "rat": 8115,
      "Ġbag": 8116,
      "Ġgrounds": 8117,
      "Ġexplicit": 8118,
      "Ġacquired": 8119,
      "ĠMajor": 8120,
      "Ġdistricts": 8121,
      "Ġentit": 8122,
      "Ġantibiotics": 8123,
      "enger": 8124,
      "ustain": 8125,
      "Ġdecay": 8126,
      "hus": 8127,
      "Ġantioxid": 8128,
      "HA": 8129,
      "Ġexploration": 8130,
      "Ġeducators": 8131,
      "Ġdynamic": 8132,
      "oul": 8133,
      "Ġenables": 8134,
      "Ġglac": 8135,
      "Ġupdated": 8136,
      "ĠSunday": 8137,
      "ĠPakistan": 8138,
      "Ġles": 8139,
      "Ġresearcher": 8140,
      "Ġbiodiversity": 8141,
      "quar": 8142,
      "Ġexecutive": 8143,
      "Ġworship": 8144,
      "Ġburied": 8145,
      "ĠElizabeth": 8146,
      "icing": 8147,
      "rob": 8148,
      "Ġclient": 8149,
      "Ġparad": 8150,
      "63": 8151,
      "Ġquiet": 8152,
      "Ġdramatic": 8153,
      "ĠWildlife": 8154,
      "ĠLaboratory": 8155,
      "Ġduty": 8156,
      "Ġoverwhel": 8157,
      "EF": 8158,
      "Ġlens": 8159,
      "istant": 8160,
      "Ġcommitment": 8161,
      "oler": 8162,
      "Ġinteractive": 8163,
      "Ġcleaning": 8164,
      "Ġinitiative": 8165,
      "bell": 8166,
      "athered": 8167,
      "Ġstrain": 8168,
      "ĠDesc": 8169,
      "Ġmeals": 8170,
      "Ġevening": 8171,
      "sm": 8172,
      "erty": 8173,
      "Ġreporting": 8174,
      "ĠDigital": 8175,
      "Ġtick": 8176,
      "Ġrab": 8177,
      "Ġpreserve": 8178,
      "Ġcyber": 8179,
      "ĠWal": 8180,
      "ĠLy": 8181,
      "Ġspr": 8182,
      "Ġsculpt": 8183,
      "Ġgrid": 8184,
      "Ġlistening": 8185,
      "Ġsizes": 8186,
      "Ġhardware": 8187,
      "ĠHarvard": 8188,
      "Ġidentifying": 8189,
      "Ġconcentrations": 8190,
      "Ġembra": 8191,
      "eor": 8192,
      "Ġspray": 8193,
      "Ġadolesc": 8194,
      "ontal": 8195,
      "Ġfunctioning": 8196,
      "Ġofficer": 8197,
      "ĠPalest": 8198,
      "ĠCopyright": 8199,
      "Ġfo": 8200,
      "Ġhoney": 8201,
      "ĠBal": 8202,
      "Ġmine": 8203,
      "Ġlists": 8204,
      "Ġsimultane": 8205,
      "Ġdimens": 8206,
      "iments": 8207,
      "ostic": 8208,
      "Ġfarms": 8209,
      "Ð°": 8210,
      "omatic": 8211,
      "Ġcreatures": 8212,
      "Ġcorrectly": 8213,
      "Ġstreets": 8214,
      "har": 8215,
      "ĠDrug": 8216,
      "ĠES": 8217,
      "Ġresid": 8218,
      "awa": 8219,
      "Ġproviders": 8220,
      "ĠSurvey": 8221,
      "ĠDO": 8222,
      "Ġliterary": 8223,
      "%,": 8224,
      "Ġappeal": 8225,
      "forest": 8226,
      "amine": 8227,
      "ĠDid": 8228,
      "Ġdrag": 8229,
      "Ġflexible": 8230,
      "ĠScotland": 8231,
      "Ġfur": 8232,
      "Ġkilling": 8233,
      "ĠDivision": 8234,
      "ranean": 8235,
      "Ġtables": 8236,
      "Ġbare": 8237,
      "Ġseat": 8238,
      "ĠThanks": 8239,
      "ymes": 8240,
      "Ġowned": 8241,
      "Ġ1991": 8242,
      "ĠCrit": 8243,
      "Ġfaces": 8244,
      "Ġversions": 8245,
      "Ġdeficiency": 8246,
      "ĠColorado": 8247,
      "ĠIraq": 8248,
      "rin": 8249,
      "ĠInvest": 8250,
      "Ġraising": 8251,
      "Ġarguments": 8252,
      ".'": 8253,
      "Ġresc": 8254,
      "Ġmir": 8255,
      "icular": 8256,
      "Ġorb": 8257,
      "ĠRNA": 8258,
      "ĠStan": 8259,
      "ographical": 8260,
      "Ġfellow": 8261,
      "ĠAk": 8262,
      "ĠRh": 8263,
      "ĠRest": 8264,
      "una": 8265,
      "Ġimprovements": 8266,
      "Ġexciting": 8267,
      "Ġmathematical": 8268,
      "Ġthermal": 8269,
      "endment": 8270,
      "ĠHom": 8271,
      "plete": 8272,
      "ĠSmall": 8273,
      "zyme": 8274,
      "Ġperceived": 8275,
      "Ġtemporary": 8276,
      "Ġkingdom": 8277,
      "ĠRoad": 8278,
      "ĠStill": 8279,
      "Ġadvis": 8280,
      "ĠImpro": 8281,
      "Ġsensitivity": 8282,
      "jo": 8283,
      "urning": 8284,
      "Ġ1920": 8285,
      "Ġvegetation": 8286,
      "Ġsubstit": 8287,
      "Ġstrategic": 8288,
      "\")": 8289,
      "Ġplanting": 8290,
      "Ġvertical": 8291,
      "Ġdim": 8292,
      "ailed": 8293,
      "Ġincident": 8294,
      "Ġhormone": 8295,
      "Ġexisted": 8296,
      "Ġstones": 8297,
      "Ġ34": 8298,
      "Ġ95": 8299,
      "Ġharder": 8300,
      "67": 8301,
      "Ġurine": 8302,
      "Ġpleasure": 8303,
      "ĠTestament": 8304,
      ":||": 8305,
      "thon": 8306,
      "Ġcancers": 8307,
      "ĠJustice": 8308,
      "Ġboundaries": 8309,
      "IF": 8310,
      "Ġ39": 8311,
      "Ġentertain": 8312,
      "Ġguess": 8313,
      "Ġempty": 8314,
      "Ġfinish": 8315,
      "Ġbrush": 8316,
      "Ġconsciousness": 8317,
      "Ġnotion": 8318,
      "],": 8319,
      "ĠFred": 8320,
      "ailable": 8321,
      "Ġecological": 8322,
      "ĠConference": 8323,
      "apor": 8324,
      "ospel": 8325,
      "Ġhunting": 8326,
      "esh": 8327,
      "Ġchair": 8328,
      "Ġaging": 8329,
      "Ġbehavioral": 8330,
      "Ġastronom": 8331,
      "isd": 8332,
      "Ġabstract": 8333,
      "Ġsched": 8334,
      "ĠAgriculture": 8335,
      "rh": 8336,
      "Ġlip": 8337,
      "olt": 8338,
      "Ġbegun": 8339,
      "TH": 8340,
      "Ġconclus": 8341,
      "Ġshore": 8342,
      "Ġbutton": 8343,
      "Ġpersonality": 8344,
      "ĠOften": 8345,
      "Ġwonderful": 8346,
      "Ġphotographs": 8347,
      "utation": 8348,
      "Ġbeat": 8349,
      "rize": 8350,
      "Ġperforming": 8351,
      "ao": 8352,
      "green": 8353,
      "rical": 8354,
      "ipe": 8355,
      "They": 8356,
      "ĠWithin": 8357,
      "EE": 8358,
      "ĠIndepend": 8359,
      "Ġgeomet": 8360,
      "Ġhabitats": 8361,
      "ĠField": 8362,
      "Ġcann": 8363,
      "Ġlifetime": 8364,
      "uan": 8365,
      "writ": 8366,
      ".||": 8367,
      "tw": 8368,
      "Ġtens": 8369,
      "Ġdense": 8370,
      "opher": 8371,
      "ricted": 8372,
      "gener": 8373,
      "Ġpsychology": 8374,
      "ĠModel": 8375,
      "aret": 8376,
      "cking": 8377,
      "Ġaimed": 8378,
      "Ġheaven": 8379,
      "Ġinnovative": 8380,
      "Ġconsumed": 8381,
      "Ġmigration": 8382,
      "Ġvel": 8383,
      "Ġfing": 8384,
      "Ġwaiting": 8385,
      "mann": 8386,
      "Ġexpectations": 8387,
      "Ġprofile": 8388,
      "Ġinvestigate": 8389,
      "Ġparameters": 8390,
      "EA": 8391,
      "LC": 8392,
      "def": 8393,
      "Ġheritage": 8394,
      "Ġequation": 8395,
      "Ġdirections": 8396,
      "Ġpropag": 8397,
      "ĠMuslims": 8398,
      "ĠCall": 8399,
      "ĠTurk": 8400,
      "ician": 8401,
      "ĠNob": 8402,
      "earch": 8403,
      "Ġgrains": 8404,
      "ĠIslands": 8405,
      "Ġmarg": 8406,
      "Ġemerging": 8407,
      "Ġcommittee": 8408,
      "Ġscheme": 8409,
      "Ġtempor": 8410,
      "wan": 8411,
      "Ġwage": 8412,
      "ĠCapt": 8413,
      "Ġparagraph": 8414,
      "Ġreturns": 8415,
      "Ġfatigue": 8416,
      "ĠAst": 8417,
      "Ġminds": 8418,
      "ĠSystems": 8419,
      "Ġsad": 8420,
      "uten": 8421,
      "Ġvariations": 8422,
      "icity": 8423,
      "Ġasp": 8424,
      "ĠMinistry": 8425,
      "Ġadapted": 8426,
      "ĠSymptoms": 8427,
      "Ġshoot": 8428,
      "Ġlowest": 8429,
      "Ġavailability": 8430,
      "Ġsaved": 8431,
      "ĠIT": 8432,
      "'d": 8433,
      "Ġexhaust": 8434,
      "anted": 8435,
      "ecess": 8436,
      "Ġextension": 8437,
      "Ġcure": 8438,
      "ĠLog": 8439,
      "Ġentering": 8440,
      "Ġquantity": 8441,
      "Ġanalyze": 8442,
      "Ġpromoting": 8443,
      "Ġcorresponding": 8444,
      "Ġchromos": 8445,
      "Ġdisability": 8446,
      "ĠVe": 8447,
      "ĠBM": 8448,
      "Ġmyself": 8449,
      "Ġtong": 8450,
      "Ġsevent": 8451,
      "Ġregime": 8452,
      "Ġtransmit": 8453,
      "ĠStandard": 8454,
      "Ġfought": 8455,
      "ĠDiet": 8456,
      "ĠNO": 8457,
      "Ġshaped": 8458,
      "Ġpool": 8459,
      "Ġassert": 8460,
      "Ġkeeps": 8461,
      "ĠFrid": 8462,
      "Ġprotective": 8463,
      "outheast": 8464,
      "ipher": 8465,
      "Ġsurge": 8466,
      "Ġinterior": 8467,
      "Ġmanifest": 8468,
      "ico": 8469,
      "ĠHim": 8470,
      "Ġdeeply": 8471,
      "Ġpriority": 8472,
      "ĠBiology": 8473,
      "Ġintroduce": 8474,
      "Ġnutrient": 8475,
      "Ġdriver": 8476,
      "Ġfinger": 8477,
      "Ġ120": 8478,
      "Ġreasonable": 8479,
      "ĠBetween": 8480,
      "ĠSecretary": 8481,
      "'.": 8482,
      "kind": 8483,
      "ĠVan": 8484,
      "ĠNavy": 8485,
      "Ġpoetry": 8486,
      "ĠAmazon": 8487,
      "Ġtom": 8488,
      "Ġparticle": 8489,
      "Ġcurve": 8490,
      "Ġviolent": 8491,
      "adelph": 8492,
      "alities": 8493,
      "antine": 8494,
      "aven": 8495,
      "Ġneutral": 8496,
      "Ġmedicines": 8497,
      "Sc": 8498,
      "Ġlungs": 8499,
      "61": 8500,
      "eting": 8501,
      "ifer": 8502,
      "Ġtransc": 8503,
      "Ġclassified": 8504,
      "Ġcolonies": 8505,
      "Ġenormous": 8506,
      "Ġlibr": 8507,
      "ema": 8508,
      "ogy": 8509,
      "ceans": 8510,
      "Ġtechnological": 8511,
      "Ġpreferred": 8512,
      "Ġholiday": 8513,
      "ĠOffic": 8514,
      "aren": 8515,
      "Ġchemistry": 8516,
      "eath": 8517,
      "Ð¾": 8518,
      "Ġacting": 8519,
      "Ġphysically": 8520,
      "Ġtelling": 8521,
      "Ġversus": 8522,
      "holders": 8523,
      "Ġcomputing": 8524,
      "orig": 8525,
      "Ġwouldn": 8526,
      "ĠPeace": 8527,
      "Ġcontributions": 8528,
      "Ġinequ": 8529,
      "ĠCub": 8530,
      "Ġvitamins": 8531,
      "ĠMexican": 8532,
      "Ġvirtually": 8533,
      "Ġfuels": 8534,
      "Ġstood": 8535,
      "ĠMond": 8536,
      "aints": 8537,
      "ĠLuc": 8538,
      "Ġcolony": 8539,
      "Ġinterventions": 8540,
      "Ġlabour": 8541,
      "Ġcollective": 8542,
      "Ġemotion": 8543,
      "DS": 8544,
      "ouds": 8545,
      "Ġmg": 8546,
      "Ġmanaging": 8547,
      "Ġplanted": 8548,
      "58": 8549,
      "Ġadverse": 8550,
      "ĠSenate": 8551,
      "Ġanger": 8552,
      "Ġadopt": 8553,
      "Ġcelebrated": 8554,
      "Ġgravity": 8555,
      "Ġwelfare": 8556,
      "ĠCH": 8557,
      "ĠLim": 8558,
      "Ġgods": 8559,
      "Ġconverted": 8560,
      "Ġchances": 8561,
      "Ġcustomer": 8562,
      "59": 8563,
      "Ġtab": 8564,
      "ĠFil": 8565,
      "Ġprivile": 8566,
      "Ġexhibit": 8567,
      "nut": 8568,
      "Ġreign": 8569,
      "Ġlosing": 8570,
      "Ġstyles": 8571,
      "ĠMove": 8572,
      "Ġchose": 8573,
      "Ġevident": 8574,
      "Ġfocusing": 8575,
      "Ġverb": 8576,
      "Ġtargeted": 8577,
      "ĠTurkey": 8578,
      "Ġhypothesis": 8579,
      "ĠSS": 8580,
      "ĠChief": 8581,
      "Ġtransmitted": 8582,
      "Ġconstra": 8583,
      "ĠEncyclopedia": 8584,
      "Ġsymbols": 8585,
      "operative": 8586,
      "TP": 8587,
      "ocial": 8588,
      "agan": 8589,
      "Ġrestoration": 8590,
      "Ġachievement": 8591,
      "Ġcoat": 8592,
      "Ġdescend": 8593,
      "Ã±": 8594,
      "Ġequality": 8595,
      "Ġseriously": 8596,
      "ĠGreece": 8597,
      "Ġapparently": 8598,
      "Ġstake": 8599,
      "Ġassets": 8600,
      "Ġconvert": 8601,
      "ifted": 8602,
      "ĠGiven": 8603,
      "Ġrequirement": 8604,
      "ĠRelig": 8605,
      "ett": 8606,
      "Ġaccord": 8607,
      "Ġclassical": 8608,
      "Ġelections": 8609,
      "Ġsummary": 8610,
      "Ġcardiovascular": 8611,
      "Ġwars": 8612,
      "ĠPoly": 8613,
      "Ġwheel": 8614,
      "Ġreferences": 8615,
      "borne": 8616,
      "Ġaccompanied": 8617,
      "hea": 8618,
      "oto": 8619,
      "ĠEPA": 8620,
      "Ġactively": 8621,
      "adelphia": 8622,
      "Ġopinions": 8623,
      "Ġhaven": 8624,
      "Ġcontinuing": 8625,
      "Ġteens": 8626,
      "ensed": 8627,
      "ĠBlood": 8628,
      "!âĢĿ": 8629,
      "foot": 8630,
      "Ġven": 8631,
      "ĠOs": 8632,
      "ĠBlue": 8633,
      "ĠJacob": 8634,
      "fast": 8635,
      "Ġsees": 8636,
      "Ġcow": 8637,
      "ashes": 8638,
      "text": 8639,
      "Ġuniversities": 8640,
      "Ġrac": 8641,
      "best": 8642,
      "lines": 8643,
      "Ġwider": 8644,
      "lymp": 8645,
      "Ġherb": 8646,
      "Ġengaging": 8647,
      "Ġempire": 8648,
      "agnetic": 8649,
      "Ġà¤": 8650,
      "Ġranging": 8651,
      "Ġclock": 8652,
      "eping": 8653,
      "Â®": 8654,
      "Ġnom": 8655,
      "ĠPlace": 8656,
      "07": 8657,
      "mond": 8658,
      "Ġtact": 8659,
      "Ġtraits": 8660,
      "Ġrepresentative": 8661,
      "iterranean": 8662,
      "world": 8663,
      "To": 8664,
      "ĠMid": 8665,
      "ĠPu": 8666,
      "ĠNorm": 8667,
      "Ġdropped": 8668,
      "Ġton": 8669,
      "esthetic": 8670,
      "ĠEll": 8671,
      "Ġpainful": 8672,
      "ĠInterest": 8673,
      "Ġvictory": 8674,
      "ĠWikipedia": 8675,
      "words": 8676,
      "asy": 8677,
      "Ġspinal": 8678,
      "Ġapplying": 8679,
      "ivest": 8680,
      "Ġsubsid": 8681,
      "idal": 8682,
      "Ġpromise": 8683,
      "Ġrh": 8684,
      "2012": 8685,
      "Ġaggressive": 8686,
      "ĠExamples": 8687,
      "Ġcord": 8688,
      "ĠCA": 8689,
      "Ġsentences": 8690,
      "Ġcouncil": 8691,
      "iblical": 8692,
      "Ġcraft": 8693,
      "Ġreverse": 8694,
      "Ġintention": 8695,
      "Ġvaccines": 8696,
      "ĠTown": 8697,
      "ĠMoses": 8698,
      "plo": 8699,
      "Ġanticip": 8700,
      "Ġliterally": 8701,
      "Ġtransferred": 8702,
      "ĠDaniel": 8703,
      ")||": 8704,
      "uum": 8705,
      "Ġpione": 8706,
      "asm": 8707,
      "Ġease": 8708,
      "ĠFair": 8709,
      "Ġbacterial": 8710,
      "Ġenterpr": 8711,
      "atter": 8712,
      "Ġfats": 8713,
      "ador": 8714,
      "ĠMuch": 8715,
      "ĠCentury": 8716,
      "Ġattribut": 8717,
      "Ġlock": 8718,
      "ĠBehav": 8719,
      "Ġreserved": 8720,
      "ĠPhilipp": 8721,
      "Ġpill": 8722,
      "pled": 8723,
      "Ġmanager": 8724,
      "ĠGener": 8725,
      "ĠPhysical": 8726,
      "Sh": 8727,
      "Ġwat": 8728,
      "Ġgent": 8729,
      "Ġtrace": 8730,
      "Ġirrig": 8731,
      "UL": 8732,
      "Ġsustainability": 8733,
      "Ġnutritional": 8734,
      "Ġremarkable": 8735,
      "erts": 8736,
      "ati": 8737,
      "ĠAff": 8738,
      "Ġscores": 8739,
      "Ġmovie": 8740,
      "Ġprivacy": 8741,
      "Ġ1940": 8742,
      "Ġtone": 8743,
      "Ġtob": 8744,
      "olk": 8745,
      "play": 8746,
      "Ġcompost": 8747,
      "endar": 8748,
      "Ġlinear": 8749,
      "onents": 8750,
      "olph": 8751,
      "ĠRail": 8752,
      "Ġspoke": 8753,
      "Ġdetermining": 8754,
      "ĠCOVID": 8755,
      "uity": 8756,
      "ĠMA": 8757,
      "ĠMur": 8758,
      "Ġchocolate": 8759,
      "ĠThird": 8760,
      "ĠHeritage": 8761,
      "mentation": 8762,
      "ĠFDA": 8763,
      "Ġremoving": 8764,
      "Ġcas": 8765,
      "ĠCreek": 8766,
      "Ġconvey": 8767,
      "Ġreflected": 8768,
      "Ġsacred": 8769,
      "Ġqualities": 8770,
      "ĠBuddh": 8771,
      "Ġborrow": 8772,
      "Ġbuff": 8773,
      "Ġfaculty": 8774,
      "ĠMarine": 8775,
      "Ġmembrane": 8776,
      "Ġoccas": 8777,
      "Ġhall": 8778,
      "Ġpermit": 8779,
      "Ġensuring": 8780,
      "Ġlogical": 8781,
      "Ġcertific": 8782,
      "62": 8783,
      "ĠMaterial": 8784,
      "ĠBureau": 8785,
      "Ġvibr": 8786,
      "Ġnoticed": 8787,
      "rue": 8788,
      "Ġwatching": 8789,
      "ĠAntar": 8790,
      "Ġcalculated": 8791,
      "Ġdominant": 8792,
      "ĠPope": 8793,
      "uscript": 8794,
      "Ġhappiness": 8795,
      "Ġloose": 8796,
      "eries": 8797,
      "Ġmature": 8798,
      "ĠSpirit": 8799,
      "Ġoxid": 8800,
      "Ġoccupied": 8801,
      "ĠWriting": 8802,
      "Ġvolunteers": 8803,
      "ĠPut": 8804,
      "Ġ2021": 8805,
      "Ġfolk": 8806,
      "2013": 8807,
      "claim": 8808,
      "But": 8809,
      "Ġposts": 8810,
      "ĠHawai": 8811,
      "cin": 8812,
      "ĠHence": 8813,
      "Ġindirect": 8814,
      "ĠSelf": 8815,
      "urrent": 8816,
      "Ġrecre": 8817,
      "Ġears": 8818,
      "amps": 8819,
      "Ġpassion": 8820,
      "Ġenjoyed": 8821,
      "ĠNutrition": 8822,
      "ĠAction": 8823,
      "Ġshorter": 8824,
      "Ġspan": 8825,
      "Ġherself": 8826,
      "Ġsafely": 8827,
      "Ġexpertise": 8828,
      "Ġbears": 8829,
      "Ġgast": 8830,
      "Ġalarm": 8831,
      "Ġintegration": 8832,
      "Ġweigh": 8833,
      "ĠLocal": 8834,
      "Ġcompos": 8835,
      "Ġdevelopments": 8836,
      "ups": 8837,
      "Ġmetals": 8838,
      "Ġrealized": 8839,
      "Ġrecycling": 8840,
      "Ġcub": 8841,
      "ĠCT": 8842,
      "ĠFarm": 8843,
      "ĠHistorical": 8844,
      "Ġsuicide": 8845,
      "rix": 8846,
      "Ġrefused": 8847,
      "ĠProcess": 8848,
      "QL": 8849,
      "ĠCost": 8850,
      "Ġ(\"": 8851,
      "unc": 8852,
      "Ġcapabilities": 8853,
      "ĠShould": 8854,
      "EG": 8855,
      "enh": 8856,
      "Ġdiffer": 8857,
      "ĠWeek": 8858,
      "Ġsensors": 8859,
      "erb": 8860,
      "ĠMess": 8861,
      "ĠOlymp": 8862,
      "Ġproductivity": 8863,
      "Ġmarketing": 8864,
      "Ġdefinitely": 8865,
      "Ġcul": 8866,
      "Ġunn": 8867,
      "iano": 8868,
      "Ġorigins": 8869,
      "Ġdiscussions": 8870,
      "Ġscope": 8871,
      "Ġtrauma": 8872,
      "mal": 8873,
      "ĠDoc": 8874,
      "ocated": 8875,
      "ourse": 8876,
      "Ġspecified": 8877,
      "flu": 8878,
      "53": 8879,
      "Ġfeels": 8880,
      "ĠConfed": 8881,
      "Ad": 8882,
      "ĠKids": 8883,
      "ĠMediterranean": 8884,
      "run": 8885,
      "Ġdating": 8886,
      "Ġsuit": 8887,
      "ĠNear": 8888,
      "Ġarmed": 8889,
      "Ġwebsites": 8890,
      "ĠFriday": 8891,
      "Ġtu": 8892,
      "Ġdeer": 8893,
      "BM": 8894,
      "ĠFer": 8895,
      "Ġ42": 8896,
      "ĠEmer": 8897,
      "ptic": 8898,
      "2010": 8899,
      "Ġcelebrate": 8900,
      "CA": 8901,
      "Ġsoph": 8902,
      "Ġreaches": 8903,
      "ologically": 8904,
      "regon": 8905,
      "ĠArea": 8906,
      "ĠPhiladelphia": 8907,
      "Ġsongs": 8908,
      "imp": 8909,
      "ĠAndrew": 8910,
      "Ġengagement": 8911,
      "bered": 8912,
      "Ġrestaur": 8913,
      "Ġtobacco": 8914,
      "arn": 8915,
      "ila": 8916,
      "Ġbeach": 8917,
      "Ġgate": 8918,
      "Ġspots": 8919,
      "enda": 8920,
      "Ġinvention": 8921,
      "Ġimagination": 8922,
      "Ġrestrictions": 8923,
      "eutic": 8924,
      "EO": 8925,
      "uther": 8926,
      "ĠIce": 8927,
      "ĠRather": 8928,
      "berry": 8929,
      "Ġtreaty": 8930,
      "hemistry": 8931,
      "Ġfunded": 8932,
      "Ġjoy": 8933,
      "Ġcooperation": 8934,
      "Ġmodule": 8935,
      "ĠProble": 8936,
      "Ġforecast": 8937,
      "Ġrobot": 8938,
      "Ġfacilitate": 8939,
      "ivestock": 8940,
      "ĠBang": 8941,
      "lights": 8942,
      "vation": 8943,
      "orters": 8944,
      "Ġpand": 8945,
      "ouses": 8946,
      "Ġownership": 8947,
      "Ġreadily": 8948,
      "Ġdipl": 8949,
      "Ġzones": 8950,
      "ĠGuard": 8951,
      "irable": 8952,
      "Ġunlikely": 8953,
      "child": 8954,
      "Ġcotton": 8955,
      "Ġduration": 8956,
      "Ġassemb": 8957,
      "awn": 8958,
      "Ġprescribed": 8959,
      "Ġcrown": 8960,
      "ĠFish": 8961,
      "aware": 8962,
      "Ġfrust": 8963,
      "Ġallergic": 8964,
      "RNA": 8965,
      "Ġgardens": 8966,
      "Ġjoints": 8967,
      "Ġresistant": 8968,
      "Ðµ": 8969,
      "Ġtip": 8970,
      "Ġrestore": 8971,
      "Ġdevast": 8972,
      "flamm": 8973,
      "Ġpenal": 8974,
      "Ġmammals": 8975,
      "Med": 8976,
      "disc": 8977,
      "zo": 8978,
      "Ġgathered": 8979,
      "ĠCode": 8980,
      "Ġprey": 8981,
      "Ġstrange": 8982,
      "ĠSimilarly": 8983,
      "Ġmunicip": 8984,
      "section": 8985,
      "thew": 8986,
      "Ġbreaking": 8987,
      "Ġsurprise": 8988,
      "Ġliberal": 8989,
      "Ġsuddenly": 8990,
      "Ġfet": 8991,
      "Ġdict": 8992,
      "Ġhat": 8993,
      "usive": 8994,
      "ĠDie": 8995,
      "ĠDictionary": 8996,
      "Ġdifferently": 8997,
      "Cl": 8998,
      "Ġcontents": 8999,
      "Ġpersonnel": 9000,
      "Ġassociate": 9001,
      "ĠAngeles": 9002,
      "Ġpel": 9003,
      "Ġdevelops": 9004,
      "inois": 9005,
      "Ġbleeding": 9006,
      "ĠSaint": 9007,
      "escope": 9008,
      "ĠObama": 9009,
      "ĠHelp": 9010,
      "dr": 9011,
      "Ġcolonial": 9012,
      "lu": 9013,
      "umer": 9014,
      "Ġdefault": 9015,
      "Ġclassic": 9016,
      "Ġruled": 9017,
      "Ġutility": 9018,
      "Ġpollut": 9019,
      "host": 9020,
      "requ": 9021,
      "ogens": 9022,
      "issipp": 9023,
      "Ġsons": 9024,
      "sem": 9025,
      "Ġresil": 9026,
      "Ġunderground": 9027,
      "shaped": 9028,
      "Ġrefugees": 9029,
      "CP": 9030,
      "ali": 9031,
      "Ġ(âĢľ": 9032,
      "illance": 9033,
      "Ġrecording": 9034,
      "Ġcheap": 9035,
      "Ġengines": 9036,
      "By": 9037,
      "á¹": 9038,
      "Ġvaried": 9039,
      "sex": 9040,
      "ĠGall": 9041,
      "ĠVar": 9042,
      "Ġrepresenting": 9043,
      "icts": 9044,
      "through": 9045,
      "Ġdrinks": 9046,
      "Ġfilms": 9047,
      "Ġdocumented": 9048,
      "Ġsessions": 9049,
      "ressing": 9050,
      "Ġuncle": 9051,
      "issance": 9052,
      "Ġfifth": 9053,
      "Ġpilot": 9054,
      "sor": 9055,
      "Ġtack": 9056,
      "ĠDam": 9057,
      "rip": 9058,
      "Ġbatteries": 9059,
      "Ġattempted": 9060,
      "Ġpowder": 9061,
      "ĠDifferent": 9062,
      "MA": 9063,
      "made": 9064,
      "Ġenz": 9065,
      "Ġeleph": 9066,
      "western": 9067,
      "Ġpets": 9068,
      "mented": 9069,
      "ĠHa": 9070,
      "fulness": 9071,
      "Ġdil": 9072,
      "Ġinfants": 9073,
      "Ġdisplayed": 9074,
      "Ġinvolvement": 9075,
      "ĠSupport": 9076,
      "Ġshr": 9077,
      "Ġfriendly": 9078,
      "Ġinvasion": 9079,
      "gien": 9080,
      "Ġcable": 9081,
      "Ġdies": 9082,
      "lected": 9083,
      "Ġburden": 9084,
      "Ġsleeping": 9085,
      "ĠKorean": 9086,
      "http": 9087,
      "Ġchurches": 9088,
      "Ġecosystems": 9089,
      "54": 9090,
      "ĠGDP": 9091,
      "Ġpeer": 9092,
      "ĠâĨĳ": 9093,
      "box": 9094,
      "inces": 9095,
      "advant": 9096,
      "Ġvaries": 9097,
      "Ġenthus": 9098,
      "Ġsodium": 9099,
      "Î±": 9100,
      "Ġpreserved": 9101,
      "Ġneurons": 9102,
      "ĠHit": 9103,
      "emies": 9104,
      "bris": 9105,
      "Ġannually": 9106,
      "CH": 9107,
      "Ġcited": 9108,
      "Ġreef": 9109,
      "Ġvig": 9110,
      "Ġperf": 9111,
      "nedy": 9112,
      "Ġwithdraw": 9113,
      "oca": 9114,
      "Ġidentical": 9115,
      "Ġsuspect": 9116,
      "Ġreplacement": 9117,
      "Ġrevenue": 9118,
      "Ġdistinction": 9119,
      "Ġcouldn": 9120,
      "ĠAncient": 9121,
      "ĠLevel": 9122,
      "Ġseparation": 9123,
      "Ġpurchased": 9124,
      "ĠAR": 9125,
      "ĠOregon": 9126,
      "ĠAssembly": 9127,
      "Ġelectrons": 9128,
      "No": 9129,
      "Ġpace": 9130,
      "Ġunem": 9131,
      "Ġlanding": 9132,
      "Ġadvances": 9133,
      "mega": 9134,
      "Ġlegit": 9135,
      "Ġemerged": 9136,
      "Ġconversion": 9137,
      "Ġbuying": 9138,
      "Ġeverywhere": 9139,
      "Ġhandling": 9140,
      "Ġencounter": 9141,
      "ĠMach": 9142,
      "apped": 9143,
      "Ġshed": 9144,
      "raham": 9145,
      "ĠReal": 9146,
      "Ġestablishing": 9147,
      "ĠClean": 9148,
      "Ġtag": 9149,
      "Ġatoms": 9150,
      "Ġclothes": 9151,
      "Ġ1989": 9152,
      "Ġbasically": 9153,
      "Ġvillages": 9154,
      "Ġstreams": 9155,
      "mia": 9156,
      "opl": 9157,
      "Ġreveals": 9158,
      "Ġabsorb": 9159,
      "56": 9160,
      "ifier": 9161,
      "Ġgrades": 9162,
      "Ġcream": 9163,
      "ĠMonday": 9164,
      "Ġassembly": 9165,
      "Ġpaying": 9166,
      "Ġsteam": 9167,
      "Ġinhabitants": 9168,
      "Ġthread": 9169,
      "ĠKansas": 9170,
      "Ġentitled": 9171,
      "rons": 9172,
      "ĠTit": 9173,
      "Ġorange": 9174,
      "Ġending": 9175,
      ".),": 9176,
      "Ġdeploy": 9177,
      "Ġclients": 9178,
      "Ġchoosing": 9179,
      "ĠTrust": 9180,
      "Ġwooden": 9181,
      "Ġsale": 9182,
      "Ġdairy": 9183,
      "ĠTurn": 9184,
      "ĠTrade": 9185,
      "Ġmaxim": 9186,
      "ĠMississipp": 9187,
      "Ġdeposits": 9188,
      "Ġacknowled": 9189,
      "bel": 9190,
      "Ġgift": 9191,
      "ĠHyd": 9192,
      "ĠRam": 9193,
      "ĠNeg": 9194,
      "ateral": 9195,
      "ĠUnivers": 9196,
      "2009": 9197,
      "ackson": 9198,
      "Ġmeaningful": 9199,
      "Ġlicense": 9200,
      "Ġimmigrants": 9201,
      "Ġjurisd": 9202,
      "Ġtension": 9203,
      "Ġworker": 9204,
      "Ġbottle": 9205,
      "bury": 9206,
      "ĠID": 9207,
      "izers": 9208,
      "Ġinvasive": 9209,
      "specific": 9210,
      "Ġsciences": 9211,
      "OW": 9212,
      "Ġlun": 9213,
      "Ġclay": 9214,
      "Ġdistant": 9215,
      "Ġgraduate": 9216,
      "Ġattractive": 9217,
      "ĠBern": 9218,
      "obile": 9219,
      "Ġprovision": 9220,
      "Ġmagnitude": 9221,
      "Ġmerch": 9222,
      "Ġminority": 9223,
      "vi": 9224,
      "Ġbonds": 9225,
      "ilst": 9226,
      "ĠSus": 9227,
      "ĠJr": 9228,
      "ĠColon": 9229,
      "Ġcontrolling": 9230,
      "ethe": 9231,
      "ayer": 9232,
      "Ġspacecraft": 9233,
      "Ġjuice": 9234,
      "86": 9235,
      "All": 9236,
      "Ġnoun": 9237,
      "ĠTemple": 9238,
      "Ġprevalence": 9239,
      "Ġol": 9240,
      "Ġsending": 9241,
      "ĠWed": 9242,
      "ĠNic": 9243,
[...]
