{
  "version": "1.0",
  "truncation": null,
  "padding": null,
  "added_tokens": [],
  "normalizer": null,
  "pre_tokenizer": {
    "type": "ByteLevel",
    "add_prefix_space": false,
    "trim_offsets": true,
    "use_regex": true
  },
  "post_processor": null,
  "decoder": {
    "type": "ByteLevel",
    "add_prefix_space": true,
    "trim_offsets": true,
    "use_regex": true
  },
  "model": {
    "type": "BPE",
    "dropout": null,
    "unk_token": null,
    "continuing_subword_prefix": null,
    "end_of_word_suffix": null,
    "fuse_unk": false,
    "byte_fallback": false,
    "ignore_merges": false,
    "vocab": {
      "!": 0,
      "\"": 1,
      "#": 2,
      "$": 3,
      "%": 4,
      "&": 5,
      "'": 6,
      "(": 7,
      ")": 8,
      "*": 9,
      "+": 10,
      ",": 11,
      "-": 12,
      ".": 13,
      "/": 14,
      "0": 15,
      "1": 16,
      "2": 17,
      "3": 18,
      "4": 19,
      "5": 20,
      "6": 21,
      "7": 22,
      "8": 23,
      "9": 24,
      ":": 25,
      ";": 26,
      "<": 27,
      "=": 28,
      ">": 29,
      "?": 30,
      "@": 31,
      "A": 32,
      "B": 33,
      "C": 34,
      "D": 35,
      "E": 36,
      "F": 37,
      "G": 38,
      "H": 39,
      "I": 40,
      "J": 41,
      "K": 42,
      "L": 43,
      "M": 44,
      "N": 45,
      "O": 46,
      "P": 47,
      "Q": 48,
      "R": 49,
      "S": 50,
      "T": 51,
      "U": 52,
      "V": 53,
      "W": 54,
      "X": 55,
      "Y": 56,
      "Z": 57,
      "[": 58,
      "\\": 59,
      "]": 60,
      "^": 61,
      "_": 62,
      "`": 63,
      "a": 64,
      "b": 65,
      "c": 66,
      "d": 67,
      "e": 68,
      "f": 69,
      "g": 70,
      "h": 71,
      "i": 72,
      "j": 73,
      "k": 74,
      "l": 75,
      "m": 76,
      "n": 77,
      "o": 78,
      "p": 79,
      "q": 80,
      "r": 81,
      "s": 82,
      "t": 83,
      "u": 84,
      "v": 85,
      "w": 86,
      "x": 87,
      "y": 88,
      "z": 89,
      "{": 90,
      "|": 91,
      "}": 92,
      "~": 93,
      "¡": 94,
      "¢": 95,
      "£": 96,
      "¤": 97,
      "¥": 98,
      "¦": 99,
      "§": 100,
      "¨": 101,
      "©": 102,
      "ª": 103,
      "«": 104,
      "¬": 105,
      "®": 106,
      "¯": 107,
      "°": 108,
      "±": 109,
      "²": 110,
      "³": 111,
      "´": 112,
      "µ": 113,
      "¶": 114,
      "·": 115,
      "¸": 116,
      "¹": 117,
      "º": 118,
      "»": 119,
      "¼": 120,
      "½": 121,
      "¾": 122,
      "¿": 123,
      "À": 124,
      "Á": 125,
      "Â": 126,
      "Ã": 127,
      "Ä": 128,
      "Å": 129,
      "Æ": 130,
      "Ç": 131,
      "È": 132,
      "É": 133,
      "Ê": 134,
      "Ë": 135,
      "Ì": 136,
      "Í": 137,
      "Î": 138,
      "Ï": 139,
      "Ð": 140,
      "Ñ": 141,
      "Ò": 142,
      "Ó": 143,
      "Ô": 144,
      "Õ": 145,
      "Ö": 146,
      "×": 147,
      "Ø": 148,
      "Ù": 149,
      "Ú": 150,
      "Û": 151,
      "Ü": 152,
      "Ý": 153,
      "Þ": 154,
      "ß": 155,
      "à": 156,
      "á": 157,
      "â": 158,
      "ã": 159,
      "ä": 160,
      "å": 161,
      "æ": 162,
      "ç": 163,
      "è": 164,
      "é": 165,
      "ê": 166,
      "ë": 167,
      "ì": 168,
      "í": 169,
      "î": 170,
      "ï": 171,
      "ð": 172,
      "ñ": 173,
      "ò": 174,
      "ó": 175,
      "ô": 176,
      "õ": 177,
      "ö": 178,
      "÷": 179,
      "ø": 180,
      "ù": 181,
      "ú": 182,
      "û": 183,
      "ü": 184,
      "ý": 185,
      "þ": 186,
      "ÿ": 187,
      "Ā": 188,
      "ā": 189,
      "Ă": 190,
      "ă": 191,
      "Ą": 192,
      "ą": 193,
      "Ć": 194,
      "ć": 195,
      "Ĉ": 196,
      "ĉ": 197,
      "Ċ": 198,
      "ċ": 199,
      "Č": 200,
      "č": 201,
      "Ď": 202,
      "ď": 203,
      "Đ": 204,
      "đ": 205,
      "Ē": 206,
      "ē": 207,
      "Ĕ": 208,
      "ĕ": 209,
      "Ė": 210,
      "ė": 211,
      "Ę": 212,
      "ę": 213,
      "Ě": 214,
      "ě": 215,
      "Ĝ": 216,
      "ĝ": 217,
      "Ğ": 218,
      "ğ": 219,
      "Ġ": 220,
      "ġ": 221,
      "Ģ": 222,
      "ģ": 223,
      "Ĥ": 224,
      "ĥ": 225,
      "Ħ": 226,
      "ħ": 227,
      "Ĩ": 228,
      "ĩ": 229,
      "Ī": 230,
      "ī": 231,
      "Ĭ": 232,
      "ĭ": 233,
      "Į": 234,
      "į": 235,
      "İ": 236,
      "ı": 237,
      "Ĳ": 238,
      "ĳ": 239,
      "Ĵ": 240,
      "ĵ": 241,
      "Ķ": 242,
      "ķ": 243,
      "ĸ": 244,
      "Ĺ": 245,
      "ĺ": 246,
      "Ļ": 247,
      "ļ": 248,
      "Ľ": 249,
      "ľ": 250,
      "Ŀ": 251,
      "ŀ": 252,
      "Ł": 253,
      "ł": 254,
      "Ń": 255,
      "Ġt": 256,
      "Ġa": 257,
      "in": 258,
      "he": 259,
      "re": 260,
      "on": 261,
      "Ġthe": 262,
      "er": 263,
      "at": 264,
      "Ġs": 265,
      "Ġo": 266,
      "Ġc": 267,
      "en": 268,
      "es": 269,
      "nd": 270,
      "it": 271,
      "Ġw": 272,
      "is": 273,
      "Ġp": 274,
      "or": 275,
      "al": 276,
      "ing": 277,
      "an": 278,
      "Ġf": 279,
      "Ġb": 280,
      "ed": 281,
      "ou": 282,
      "Ġin": 283,
      "Ġof": 284,
      "Ġand": 285,
      "Ġm": 286,
      "Ġto": 287,
      "ar": 288,
      "ic": 289,
      "ion": 290,
      "Ġd": 291,
      "le": 292,
      "ro": 293,
      "ent": 294,
      "as": 295,
      "Ġh": 296,
      "ct": 297,
      "Ġth": 298,
      "Ġe": 299,
      "Ġre": 300,
      "il": 301,
      "ve": 302,
      "om": 303,
      "st": 304,
      "Ġl": 305,
      "Ġn": 306,
      "âĢ": 307,
      "Ġis": 308,
      "ly": 309,
      "Ġbe": 310,
      "se": 311,
      "ation": 312,
      "Ġg": 313,
      "im": 314,
      "ĠT": 315,
      "ol": 316,
      "id": 317,
      "et": 318,
      "ce": 319,
      "Ġy": 320,
      "ur": 321,
      "ut": 322,
      "ow": 323,
      "ot": 324,
      "ch": 325,
      "ig": 326,
      "ra": 327,
      "Ġfor": 328,
      "Ġu": 329,
      "Ġst": 330,
      "Ġthat": 331,
      "Ġyou": 332,
      "ir": 333,
      "Ġon": 334,
      "ver": 335,
      "Ġpro": 336,
      "ul": 337,
      "ĠA": 338,
      "ith": 339,
      "ay": 340,
      "Ġcon": 341,
      "ĠI": 342,
      "Ġas": 343,
      "Ġare": 344,
      "ĠS": 345,
      "el": 346,
      "if": 347,
      "am": 348,
      "Ġwith": 349,
      "Ġor": 350,
      "ĠC": 351,
      "Ġit": 352,
      "Ġan": 353,
      "her": 354,
      "Ġal": 355,
      "ment": 356,
      "ad": 357,
      "ess": 358,
      "od": 359,
      "âĢĻ": 360,
      "ers": 361,
      "Ġwh": 362,
      "Ġcan": 363,
      "ge": 364,
      "ab": 365,
      "ate": 366,
      "Ġhe": 367,
      "ies": 368,
      "ĠThe": 369,
      "ect": 370,
      "ter": 371,
      "Ġex": 372,
      "th": 373,
      "Ġcom": 374,
      "Ġsu": 375,
      "Ġde": 376,
      "ity": 377,
      "op": 378,
      "ive": 379,
      "ts": 380,
      "ure": 381,
      "ore": 382,
      "ill": 383,
      "ke": 384,
      "Ġv": 385,
      "us": 386,
      "qu": 387,
      "Ġha": 388,
      "ain": 389,
      "iv": 390,
      "ac": 391,
      "ĠP": 392,
      "ĠM": 393,
      "ial": 394,
      "pp": 395,
      "Ġwe": 396,
      "ist": 397,
      "est": 398,
      "um": 399,
      "em": 400,
      "os": 401,
      "igh": 402,
      "Ġch": 403,
      "ĠB": 404,
      "rom": 405,
      "Ġen": 406,
      "ld": 407,
      "oc": 408,
      "ant": 409,
      "Ġne": 410,
      "Ġr": 411,
      "ud": 412,
      "Ġle": 413,
      "Ġby": 414,
      "ort": 415,
      "res": 416,
      "nt": 417,
      "and": 418,
      "Ġyour": 419,
      "Ġ(": 420,
      "ĠH": 421,
      "Ġat": 422,
      "ĠW": 423,
      "Ġfrom": 424,
      "ical": 425,
      "Ġse": 426,
      "un": 427,
      "Ġim": 428,
      "ĠD": 429,
      "ĠE": 430,
      "Ġhave": 431,
      "ĠâĢ": 432,
      "ions": 433,
      "Ġ1": 434,
      "Ġsp": 435,
      "og": 436,
      "du": 437,
      "Ġsh": 438,
      "Ġnot": 439,
      "ib": 440,
      "ĠF": 441,
      "Ġtheir": 442,
      "art": 443,
      "per": 444,
      "pt": 445,
      "ĠR": 446,
      "act": 447,
      "Ġwor": 448,
      "Ġpl": 449,
      "Ġus": 450,
      "all": 451,
      "Ġwas": 452,
      "rou": 453,
      "Ġthis": 454,
      "ff": 455,
      "Ġab": 456,
      "ome": 457,
      "ther": 458,
      "ere": 459,
      "iz": 460,
      "ost": 461,
      "The": 462,
      "our": 463,
      "Ġint": 464,
      "pl": 465,
      "ine": 466,
      "are": 467,
      "Ġad": 468,
      "gh": 469,
      "age": 470,
      "ight": 471,
      "ich": 472,
      "ru": 473,
      "ag": 474,
      "out": 475,
      "ard": 476,
      "Ġinc": 477,
      "ĠG": 478,
      "ide": 479,
      "ated": 480,
      "ĠL": 481,
      "ak": 482,
      "ould": 483,
      "ell": 484,
      "ĠN": 485,
      "Ġcomp": 486,
      "Ġcont": 487,
      "Ġimp": 488,
      "ations": 489,
      "ous": 490,
      "Ġthey": 491,
      "Ġwhe": 492,
      "ood": 493,
      "ans": 494,
      "cc": 495,
      "able": 496,
      "ip": 497,
      "so": 498,
      "Ġres": 499,
      "ec": 500,
      "Ġmore": 501,
      "Ġ2": 502,
      "vel": 503,
      "Ġwill": 504,
      "ance": 505,
      "end": 506,
      "Ġall": 507,
      "Ġdis": 508,
      "Ġk": 509,
      "orm": 510,
      "ast": 511,
      "ust": 512,
      "ĠTh": 513,
      "Ġwhich": 514,
      "Ġte": 515,
      "reat": 516,
      "ear": 517,
      "Ġalso": 518,
      "ĠO": 519,
      "ual": 520,
      "Ġhas": 521,
      "ign": 522,
      "Ġman": 523,
      "âĢĿ": 524,
      "ence": 525,
      "ap": 526,
      "ĠIn": 527,
      "ong": 528,
      "ult": 529,
      "ater": 530,
      "ep": 531,
      "ks": 532,
      "ire": 533,
      "ild": 534,
      "ake": 535,
      "ĠU": 536,
      "Ġother": 537,
      "ri": 538,
      "Ġdo": 539,
      "ents": 540,
      "ach": 541,
      "Ġcl": 542,
      "ry": 543,
      "ind": 544,
      "ress": 545,
      "ition": 546,
      "ary": 547,
      "Ġapp": 548,
      "Ġme": 549,
      "Ġpre": 550,
      "ie": 551,
      "Ġsy": 552,
      "ia": 553,
      "Ġbut": 554,
      "av": 555,
      "Ġper": 556,
      "ction": 557,
      "ĠâĢľ": 558,
      "ors": 559,
      "Ġso": 560,
      "Ġj": 561,
      "ase": 562,
      "Ġinf": 563,
      "ose": 564,
      "Ġun": 565,
      "ces": 566,
      "Ġcomm": 567,
      "ime": 568,
      "alth": 569,
      "00": 570,
      "Ġthem": 571,
      "Ġout": 572,
      "ice": 573,
      "ike": 574,
      "ens": 575,
      "ĠThis": 576,
      "one": 577,
      "ace": 578,
      "ass": 579,
      "Ġev": 580,
      "Ġar": 581,
      "Ġone": 582,
      "au": 583,
      "ĠIt": 584,
      "Ġmay": 585,
      "Ġhel": 586,
      "very": 587,
      "ack": 588,
      "Ġabout": 589,
      "ile": 590,
      "Ġpe": 591,
      "nder": 592,
      "ue": 593,
      "iff": 594,
      "Ġhelp": 595,
      "ific": 596,
      "Ġsc": 597,
      "Ġfe": 598,
      "now": 599,
      "ĠJ": 600,
      "Ġstud": 601,
      "ang": 602,
      "Ġtra": 603,
      "Ġqu": 604,
      "ric": 605,
      "ord": 606,
      "olog": 607,
      "ities": 608,
      "ory": 609,
      "ok": 610,
      "Ġpart": 611,
      "Ġthese": 612,
      "Ġcons": 613,
      "low": 614,
      "Ġits": 615,
      "Ġro": 616,
      "Ġrec": 617,
      "Ġem": 618,
      "Ġinto": 619,
      "lud": 620,
      "Ġbec": 621,
      "Ġdiff": 622,
      "Ġwork": 623,
      "Ġover": 624,
      "ail": 625,
      "Ġneed": 626,
      "Ġup": 627,
      "Ġwhen": 628,
      "Ġeff": 629,
      "Ġwho": 630,
      "ople": 631,
      "ments": 632,
      "ite": 633,
      "ings": 634,
      "ber": 635,
      "ish": 636,
      "cess": 637,
      "Ġsuch": 638,
      "ount": 639,
      "ays": 640,
      "Ġsome": 641,
      "Ġtr": 642,
      "ound": 643,
      "Ġwere": 644,
      "Ġuse": 645,
      "Ġour": 646,
      "Ġhealth": 647,
      "Ġlike": 648,
      "Ġtime": 649,
      "Ġacc": 650,
      "Ġhow": 651,
      "ame": 652,
      "stem": 653,
      "rough": 654,
      "ren": 655,
      "Ġprov": 656,
      "Ġunder": 657,
      "ree": 658,
      "ning": 659,
      "velop": 660,
      "Ġgo": 661,
      "ĠSt": 662,
      "ating": 663,
      "ious": 664,
      "ally": 665,
      "Ġinclud": 666,
      "ub": 667,
      "Ġact": 668,
      "Ġcol": 669,
      "Ġthan": 670,
      "Ġpeople": 671,
      "Ġbet": 672,
      "Ġthere": 673,
      "erv": 674,
      "ates": 675,
      "ility": 676,
      "ms": 677,
      "ons": 678,
      "lect": 679,
      "row": 680,
      "Ġbl": 681,
      "Ġknow": 682,
      "ause": 683,
      "les": 684,
      "ys": 685,
      "ular": 686,
      "yp": 687,
      "Ġag": 688,
      "rit": 689,
      "Ġprodu": 690,
      "Ġind": 691,
      "Ġdes": 692,
      "Ġdevelop": 693,
      "Ġco": 694,
      "Ġsa": 695,
      "ough": 696,
      "vers": 697,
      "tern": 698,
      "Ġmost": 699,
      "lic": 700,
      "ient": 701,
      "Ġbeen": 702,
      "we": 703,
      "Ġrel": 704,
      "Ġyear": 705,
      "uring": 706,
      "ject": 707,
      "Ġif": 708,
      "Ġsystem": 709,
      "ll": 710,
      "Ġused": 711,
      "Ġany": 712,
      "Ġra": 713,
      "ful": 714,
      "te": 715,
      "ĠK": 716,
      "ond": 717,
      "ĠCh": 718,
      "ative": 719,
      "iet": 720,
      "ĠY": 721,
      "ne": 722,
      "ced": 723,
      "ph": 724,
      "Ġnew": 725,
      "Ġspec": 726,
      "Ġadd": 727,
      "Ġthrough": 728,
      "Ġ20": 729,
      "Ġoff": 730,
      "Ġpr": 731,
      "Ġreg": 732,
      "ures": 733,
      "Ġdiffere": 734,
      "ove": 735,
      "Ġhis": 736,
      "Ġph": 737,
      "Ġchild": 738,
      "red": 739,
      "ract": 740,
      "chn": 741,
      "'s": 742,
      "ise": 743,
      "ian": 744,
      "ple": 745,
      "erg": 746,
      "ob": 747,
      "Ġgen": 748,
      "Ġsupp": 749,
      "ten": 750,
      "Ġimport": 751,
      "als": 752,
      "round": 753,
      "ĠV": 754,
      "ov": 755,
      "Ġrep": 756,
      "ics": 757,
      "hen": 758,
      "Ġinv": 759,
      "oss": 760,
      "oth": 761,
      "Ġac": 762,
      "its": 763,
      "ook": 764,
      "Ġwhat": 765,
      "ower": 766,
      "irst": 767,
      "eth": 768,
      "Ġwell": 769,
      "Ġexp": 770,
      "ark": 771,
      "ible": 772,
      "Ġmany": 773,
      "ential": 774,
      "ting": 775,
      "ata": 776,
      "tain": 777,
      "Ġam": 778,
      "Ġwater": 779,
      "ef": 780,
      "ational": 781,
      "Ġdec": 782,
      "ange": 783,
      "In": 784,
      "uc": 785,
      "ased": 786,
      "Ġshould": 787,
      "Ġ19": 788,
      "Ġexper": 789,
      "Ġonly": 790,
      ").": 791,
      "form": 792,
      "Ġmake": 793,
      "Ġlear": 794,
      "Ġass": 795,
      "Ġtw": 796,
      "Ġhigh": 797,
      "Ġtrans": 798,
      "Ġrem": 799,
      "Ġtechn": 800,
      "Ġpo": 801,
      "Ġsign": 802,
      "ĠâĢĵ": 803,
      "aking": 804,
      "ink": 805,
      "Ġpat": 806,
      "ife": 807,
      "Ġsur": 808,
      "ience": 809,
      "old": 810,
      "cy": 811,
      "hed": 812,
      "ness": 813,
      "Ġeffect": 814,
      "Ġvar": 815,
      "Ġwould": 816,
      "Ġpers": 817,
      "rib": 818,
      "Ġatt": 819,
      "Ġtyp": 820,
      "ural": 821,
      "Ġprocess": 822,
      "Ġsm": 823,
      "rop": 824,
      "Ġno": 825,
      "mer": 826,
      "ever": 827,
      "Ġfl": 828,
      "ween": 829,
      "gan": 830,
      "ble": 831,
      "Ġke": 832,
      "Ġdifferent": 833,
      "fter": 834,
      "Ġmed": 835,
      "int": 836,
      "Ġhad": 837,
      "iss": 838,
      "erm": 839,
      "Ġget": 840,
      "Ġimportant": 841,
      "Ġob": 842,
      "Ġbu": 843,
      "Ġfirst": 844,
      "ick": 845,
      "Ġinter": 846,
      "Ġ3": 847,
      "Ġinst": 848,
      "Ġwhere": 849,
      "Ġbetween": 850,
      "iron": 851,
      "hes": 852,
      "stand": 853,
      "Ġdi": 854,
      "ices": 855,
      "Ġdata": 856,
      "ants": 857,
      "arch": 858,
      "vent": 859,
      "ram": 860,
      "own": 861,
      "hat": 862,
      "ution": 863,
      "Ġ|": 864,
      "wn": 865,
      "ology": 866,
      "ool": 867,
      "Ġincre": 868,
      "fore": 869,
      "Ġmod": 870,
      "Ġrequ": 871,
      "sel": 872,
      "Ġexam": 873,
      "ily": 874,
      "Ġtwo": 875,
      "Ġsub": 876,
      "ize": 877,
      "Ġworld": 878,
      "Ġrese": 879,
      "Ġsk": 880,
      "Ġinform": 881,
      "ines": 882,
      "Ġpres": 883,
      "Ġdet": 884,
      "Ġdisc": 885,
      "Ġcommun": 886,
      "Ġresp": 887,
      "Ġway": 888,
      "oy": 889,
      "xt": 890,
      "Ġcar": 891,
      "ues": 892,
      "ade": 893,
      "ĠAs": 894,
      "ĠUn": 895,
      "viron": 896,
      "get": 897,
      "Ġsoc": 898,
      "Ġcould": 899,
      "Ġlead": 900,
      "ck": 901,
      "ives": 902,
      "ident": 903,
      "Ġeven": 904,
      "Ġlong": 905,
      "ature": 906,
      "ically": 907,
      "Ġform": 908,
      "Ġpol": 909,
      "ivid": 910,
      "Ġcre": 911,
      "ied": 912,
      "ft": 913,
      "arm": 914,
      "Ġsim": 915,
      "Ġhum": 916,
      "Ġfood": 917,
      "ng": 918,
      "cer": 919,
      "Ġgrow": 920,
      "Ġstr": 921,
      "Ġed": 922,
      "Ġyears": 923,
      "ered": 924,
      "Ġart": 925,
      "ruct": 926,
      "ĠThey": 927,
      "Ġmain": 928,
      "ases": 929,
      "ins": 930,
      "Ġredu": 931,
      "ody": 932,
      "ew": 933,
      "Ġca": 934,
      "Ġear": 935,
      "uch": 936,
      "Ġgener": 937,
      "eg": 938,
      "ality": 939,
      "ĠHe": 940,
      "ized": 941,
      "Ġjust": 942,
      "Ġsec": 943,
      "Ġfact": 944,
      "Ġref": 945,
      "chool": 946,
      "Ġevery": 947,
      "Ġprog": 948,
      "aw": 949,
      "ath": 950,
      "Ġsee": 951,
      "ection": 952,
      "ually": 953,
      "iqu": 954,
      "Ġnum": 955,
      "Ġins": 956,
      "vironment": 957,
      "ien": 958,
      "dition": 959,
      "Ġext": 960,
      "Ġperson": 961,
      "Ġlife": 962,
      "ron": 963,
      "Ġav": 964,
      "Ġlevel": 965,
      "Ġsol": 966,
      "Ġoften": 967,
      "Ġbecause": 968,
      "cial": 969,
      "Ġprovid": 970,
      "ists": 971,
      "Ġris": 972,
      "Ġher": 973,
      "ergy": 974,
      "Ġloc": 975,
      "Ġtreat": 976,
      "Ġdep": 977,
      "omm": 978,
      "led": 979,
      "other": 980,
      "Ġpartic": 981,
      "Ġunderstand": 982,
      "ages": 983,
      "Ġlar": 984,
      "ict": 985,
      "),": 986,
      "ĠHow": 987,
      "Ġprot": 988,
      "Ġduring": 989,
      "ited": 990,
      "Ġset": 991,
      "ros": 992,
      "ism": 993,
      "Ġusing": 994,
      "Ġfol": 995,
      "ork": 996,
      "Ġexpl": 997,
      "Ġinformation": 998,
      "con": 999,
      "Ġeach": 1000,
      "Ġfound": 1001,
      "Ġthose": 1002,
      "urn": 1003,
      "Ġmon": 1004,
      "Ġcount": 1005,
      "ividual": 1006,
      "Ġaut": 1007,
      "Ġthen": 1008,
      "Ġafter": 1009,
      "Ġwhile": 1010,
      "Ġdesign": 1011,
      "Ġbeing": 1012,
      "ps": 1013,
      "Ġchildren": 1014,
      "hip": 1015,
      "Ġche": 1016,
      "Ġent": 1017,
      "Ġcent": 1018,
      "Ġcomple": 1019,
      "Ġgl": 1020,
      "Ġown": 1021,
      "Ġval": 1022,
      "Ġmin": 1023,
      "Ġdist": 1024,
      "ward": 1025,
      "Ġstudents": 1026,
      ".âĢĿ": 1027,
      "Ġvery": 1028,
      "ĠIf": 1029,
      "ital": 1030,
      "ption": 1031,
      "Ġimpro": 1032,
      "Ġcare": 1033,
      "Ġallow": 1034,
      "Ġfind": 1035,
      "Ġpot": 1036,
      "Ġgra": 1037,
      "Th": 1038,
      "Ġproble": 1039,
      "Ġgood": 1040,
      "Ġindividual": 1041,
      "Ġsupport": 1042,
      "ĠThese": 1043,
      "Ġcur": 1044,
      "ds": 1045,
      "Ġadv": 1046,
      "Ġtake": 1047,
      "Ġenvironment": 1048,
      "Ġpower": 1049,
      "Ġserv": 1050,
      "Ġbody": 1051,
      "Ġfam": 1052,
      "Ġread": 1053,
      "Ġpub": 1054,
      "Ġpract": 1055,
      "ves": 1056,
      "Ġboth": 1057,
      "Ġactiv": 1058,
      "iety": 1059,
      "Ġorgan": 1060,
      "ĠPro": 1061,
      "ved": 1062,
      "Ġback": 1063,
      "iew": 1064,
      "Ġdoes": 1065,
      "Ġconsid": 1066,
      "Ġben": 1067,
      "Ġvis": 1068,
      "cing": 1069,
      "Ġfun": 1070,
      "gg": 1071,
      "Ġfollow": 1072,
      "Ġgreat": 1073,
      "any": 1074,
      "ĠFor": 1075,
      "ĠWe": 1076,
      "Ġcle": 1077,
      "ving": 1078,
      "ock": 1079,
      "Ġmuch": 1080,
      "eng": 1081,
      "Ġcommon": 1082,
      "Ġdef": 1083,
      "imate": 1084,
      "ather": 1085,
      "Ġincluding": 1086,
      "rain": 1087,
      "Ġcall": 1088,
      "ability": 1089,
      "rol": 1090,
      "imes": 1091,
      "ected": 1092,
      "Ġ4": 1093,
      "Ġpop": 1094,
      "Ġ5": 1095,
      "ering": 1096,
      "Ġens": 1097,
      "iness": 1098,
      "Ġhand": 1099,
      "Ġ\"": 1100,
      "meric": 1101,
      "Ġdise": 1102,
      "Ġrequire": 1103,
      "ional": 1104,
      "ivers": 1105,
      "read": 1106,
      "Ġ201": 1107,
      "Ġenergy": 1108,
      "akes": 1109,
      "ental": 1110,
      "Ġbr": 1111,
      "Ġbefore": 1112,
      "Ġcor": 1113,
      "Ġhist": 1114,
      "Ġsmall": 1115,
      "itions": 1116,
      "oun": 1117,
      "Ġaff": 1118,
      "Ġbo": 1119,
      "Ġelect": 1120,
      "Ġend": 1121,
      "itive": 1122,
      "Ġfin": 1123,
      "aterial": 1124,
      "Ġsaf": 1125,
      "Ġplay": 1126,
      "vern": 1127,
      "Ġmade": 1128,
      "Ġproduct": 1129,
      "Ġprovide": 1130,
      "Ġstudy": 1131,
      "ĠAl": 1132,
      "io": 1133,
      "ands": 1134,
      "Ġposs": 1135,
      "Ġaround": 1136,
      "Ġresearch": 1137,
      "ax": 1138,
      "oms": 1139,
      "Ġprof": 1140,
      "ĠYou": 1141,
      "Ġpar": 1142,
      "Ġshe": 1143,
      "ute": 1144,
      "ted": 1145,
      "iving": 1146,
      "tle": 1147,
      "Ġbenef": 1148,
      "Ġsame": 1149,
      "Ġsym": 1150,
      "Ġchar": 1151,
      "und": 1152,
      "Ġless": 1153,
      "iel": 1154,
      "Ġeduc": 1155,
      "Ġschool": 1156,
      "Ġsignific": 1157,
      "Ġgu": 1158,
      "Ġmy": 1159,
      "Ġshow": 1160,
      "Ġess": 1161,
      "Ġlook": 1162,
      "Ġbeh": 1163,
      "Ġeng": 1164,
      "Ġbuild": 1165,
      "ĠAmeric": 1166,
      "esp": 1167,
      "Ġeas": 1168,
      "Ġmaterial": 1169,
      "ources": 1170,
      "Ġhuman": 1171,
      "ty": 1172,
      "Ġiss": 1173,
      "Ġplan": 1174,
      "Ġday": 1175,
      "ware": 1176,
      "ale": 1177,
      "Ġimpact": 1178,
      "Ġmust": 1179,
      "ify": 1180,
      "ĠCon": 1181,
      "Ġcontin": 1182,
      "ĠInd": 1183,
      "Ġconf": 1184,
      "Ġdevelopment": 1185,
      "Ġdr": 1186,
      "ier": 1187,
      "Ġdown": 1188,
      "Ġexample": 1189,
      "ĠAn": 1190,
      "der": 1191,
      "Ġtest": 1192,
      "Ġstart": 1193,
      "Ġsaid": 1194,
      "Ġgrou": 1195,
      "cl": 1196,
      "Ġlearning": 1197,
      "Ġlearn": 1198,
      "ulation": 1199,
      "els": 1200,
      "Ġagain": 1201,
      "Ġinclude": 1202,
      "acter": 1203,
      "Ġappro": 1204,
      "Ġident": 1205,
      "ium": 1206,
      "cept": 1207,
      "cent": 1208,
      "omen": 1209,
      "Ġproper": 1210,
      "ral": 1211,
      "irect": 1212,
      "nce": 1213,
      "ills": 1214,
      "Ġve": 1215,
      "air": 1216,
      "Ġsocial": 1217,
      "ix": 1218,
      "Ġmem": 1219,
      "Ġequ": 1220,
      "Ġrisk": 1221,
      "Ġocc": 1222,
      "ization": 1223,
      "Ġphys": 1224,
      "Ġstate": 1225,
      "Ġser": 1226,
      "ross": 1227,
      "up": 1228,
      "ĠHowever": 1229,
      "ining": 1230,
      "Ġcult": 1231,
      "Ġpotential": 1232,
      "ights": 1233,
      "Ġpur": 1234,
      "ries": 1235,
      "Ġmus": 1236,
      "oid": 1237,
      "Ġbel": 1238,
      "ethod": 1239,
      "ven": 1240,
      "Ġbus": 1241,
      "Ġop": 1242,
      "Ġproject": 1243,
      "Ġpos": 1244,
      "This": 1245,
      "line": 1246,
      "Ġ-": 1247,
      "Ġbest": 1248,
      "ined": 1249,
      "Ġchang": 1250,
      ",âĢĿ": 1251,
      "Ġmet": 1252,
      "ars": 1253,
      "Ġcell": 1254,
      "Ġknown": 1255,
      "Ġcaus": 1256,
      "ince": 1257,
      "Ġclass": 1258,
      "Ġtem": 1259,
      "Ġprom": 1260,
      "ination": 1261,
      "Ġbre": 1262,
      "Ġmight": 1263,
      "Ġconst": 1264,
      "day": 1265,
      "reen": 1266,
      "Ġprevent": 1267,
      "Ġindu": 1268,
      "Ġkeep": 1269,
      "Ġlit": 1270,
      "Ġpain": 1271,
      "uss": 1272,
      "hers": 1273,
      "Ġsignificant": 1274,
      "Ġwithin": 1275,
      "Ġair": 1276,
      "ead": 1277,
      "Ġwithout": 1278,
      "What": 1279,
      "ense": 1280,
      "Ġinvol": 1281,
      "com": 1282,
      "Ġaccess": 1283,
      "orts": 1284,
      "Ġide": 1285,
      "Ġnumber": 1286,
      "Ġanal": 1287,
      "rent": 1288,
      "ration": 1289,
      "Ġperform": 1290,
      "Ġcreat": 1291,
      "pect": 1292,
      "ateg": 1293,
      "Ġright": 1294,
      "Ġest": 1295,
      "Ġimm": 1296,
      "Ġnat": 1297,
      "Ġchange": 1298,
      "self": 1299,
      "Ġnow": 1300,
      "Ġvarious": 1301,
      "rap": 1302,
      "ger": 1303,
      "Ġwant": 1304,
      "ets": 1305,
      "ĠAr": 1306,
      "Ġresult": 1307,
      "Ġmark": 1308,
      "Ġhome": 1309,
      "Ġdem": 1310,
      "Ġbetter": 1311,
      "Ġcer": 1312,
      "ĠThere": 1313,
      "ared": 1314,
      "Ġgovern": 1315,
      "agn": 1316,
      "ĠSp": 1317,
      "ior": 1318,
      "Ġmethod": 1319,
      "Ġcap": 1320,
      "conom": 1321,
      "Ġlarge": 1322,
      "land": 1323,
      "iven": 1324,
      "iod": 1325,
      "co": 1326,
      "ĠWh": 1327,
      "ash": 1328,
      "ished": 1329,
      "ults": 1330,
      "angu": 1331,
      "ex": 1332,
      "less": 1333,
      "ĠAd": 1334,
      "Ġcour": 1335,
      "ner": 1336,
      "Ġbecome": 1337,
      "ially": 1338,
      "Ġcause": 1339,
      "ains": 1340,
      "20": 1341,
      "Ġfeel": 1342,
      "000": 1343,
      "Ġplace": 1344,
      "ĠâĢĺ": 1345,
      "ave": 1346,
      "ĠBut": 1347,
      "the": 1348,
      "Ġcontrol": 1349,
      "Ġblood": 1350,
      "ee": 1351,
      "Ġdev": 1352,
      "Ġeffective": 1353,
      "Ġmaking": 1354,
      "Ġlight": 1355,
      "erest": 1356,
      "Ġstill": 1357,
      "Ġopp": 1358,
      "Ġmeas": 1359,
      "Ġquest": 1360,
      "Ġinfl": 1361,
      "ury": 1362,
      "ocus": 1363,
      "Ġsom": 1364,
      "Ġpublic": 1365,
      "âĢľ": 1366,
      "aj": 1367,
      "Ġmat": 1368,
      "Ġcost": 1369,
      "oci": 1370,
      "ccess": 1371,
      "Ġdon": 1372,
      "Ġconn": 1373,
      "Ġfew": 1374,
      "ull": 1375,
      "way": 1376,
      "Ġthink": 1377,
      "Ġindust": 1378,
      "It": 1379,
      "Ġplant": 1380,
      "Ġoper": 1381,
      "Ġwrit": 1382,
      "ouse": 1383,
      "ats": 1384,
      "Ġthree": 1385,
      "Ġ6": 1386,
      "Ġchall": 1387,
      "Ġmanage": 1388,
      "Ġaddition": 1389,
      "Ġdel": 1390,
      "ogn": 1391,
      "Ġsit": 1392,
      "Ġcreate": 1393,
      "ication": 1394,
      "Ġreal": 1395,
      "ĠAnd": 1396,
      "bs": 1397,
      "ditions": 1398,
      "Ġsystems": 1399,
      "Ġcho": 1400,
      "Ġtreatment": 1401,
      "Ġdisease": 1402,
      "âĢĶ": 1403,
      "inal": 1404,
      "Ġtechnology": 1405,
      "ids": 1406,
      "ances": 1407,
      "Ġessential": 1408,
      "Ġ18": 1409,
      "Ġleg": 1410,
      "Ġthough": 1411,
      "ording": 1412,
      "ĠSc": 1413,
      "iver": 1414,
      "Ġsever": 1415,
      "Ġspecific": 1416,
      "ients": 1417,
      "Ġbusiness": 1418,
      "Ġexperience": 1419,
      "ason": 1420,
      "Ġimprove": 1421,
      "Ġopt": 1422,
      "ling": 1423,
      "ank": 1424,
      "Ġstand": 1425,
      "Ġtool": 1426,
      "How": 1427,
      "ways": 1428,
      "Ġmove": 1429,
      "alk": 1430,
      "ention": 1431,
      "Ġant": 1432,
      "ource": 1433,
      "eed": 1434,
      "icle": 1435,
      "Ġrest": 1436,
      "Ġeconom": 1437,
      "ision": 1438,
      "Ġfocus": 1439,
      "ploy": 1440,
      "me": 1441,
      "ently": 1442,
      "Ġtre": 1443,
      "uture": 1444,
      "Ġdirect": 1445,
      "rodu": 1446,
      "iversity": 1447,
      "Ġlow": 1448,
      "Ġrole": 1449,
      "Ġtop": 1450,
      "ological": 1451,
      "lement": 1452,
      "Ġpass": 1453,
      "ortun": 1454,
      "Ġavail": 1455,
      "lish": 1456,
      "Ġneeds": 1457,
      "bers": 1458,
      "Ġpresent": 1459,
      "ards": 1460,
      "ield": 1461,
      "Ġfac": 1462,
      "Ġlangu": 1463,
      "ique": 1464,
      "ĠEx": 1465,
      "Ġinterest": 1466,
      "Ġcalled": 1467,
      "osed": 1468,
      "Ġnatural": 1469,
      "Ġarea": 1470,
      "Ġmeans": 1471,
      "Ġret": 1472,
      "ĠIs": 1473,
      "ency": 1474,
      "urther": 1475,
      "Ġapplic": 1476,
      "Ġlim": 1477,
      "ptoms": 1478,
      "Ġareas": 1479,
      "work": 1480,
      "Ġparticular": 1481,
      "ples": 1482,
      "Ġanother": 1483,
      "Ġinvest": 1484,
      "Ġprofess": 1485,
      "de": 1486,
      "ĠTo": 1487,
      "inc": 1488,
      "Ġdue": 1489,
      "Ġlevels": 1490,
      "elf": 1491,
      "Ġseveral": 1492,
      "outh": 1493,
      "ah": 1494,
      "ĠWhen": 1495,
      "Ġtype": 1496,
      "Ġbas": 1497,
      "Ġanim": 1498,
      "ilities": 1499,
      "ns": 1500,
      "Ġpossible": 1501,
      "Ġensure": 1502,
      "Ġhig": 1503,
      "ote": 1504,
      "ified": 1505,
      "tt": 1506,
      "Ġdig": 1507,
      "atic": 1508,
      "be": 1509,
      "Ġdid": 1510,
      "Ġconsum": 1511,
      "raph": 1512,
      "ert": 1513,
      "Ġstruct": 1514,
      "Ġtoo": 1515,
      "Ġprogram": 1516,
      "Ġconditions": 1517,
      "Ġbelie": 1518,
      "Ġhim": 1519,
      "If": 1520,
      "Ġcal": 1521,
      "Ġhistory": 1522,
      "Ġ10": 1523,
      "Ġable": 1524,
      "Ġbehav": 1525,
      "ĠBy": 1526,
      "Ġothers": 1527,
      "par": 1528,
      "ories": 1529,
      "ots": 1530,
      "ends": 1531,
      "Ġtru": 1532,
      "Ġkey": 1533,
      "cle": 1534,
      "ris": 1535,
      "Ġdam": 1536,
      "por": 1537,
      "hy": 1538,
      "Ġhapp": 1539,
      "Ġcontrib": 1540,
      "Ġwomen": 1541,
      "Ġpress": 1542,
      "Ġearly": 1543,
      "Ġfuture": 1544,
      "Ġsl": 1545,
      "Ġagainst": 1546,
      "Ġindividuals": 1547,
      "Ġmult": 1548,
      "Ġenc": 1549,
      "Ġsuccess": 1550,
      "Ġcertain": 1551,
      "Ġbased": 1552,
      "Ġreduce": 1553,
      "Ġmean": 1554,
      "Ġfamily": 1555,
      "Ġintern": 1556,
      "Ġopen": 1557,
      "As": 1558,
      "urity": 1559,
      "ledge": 1560,
      "ĠNew": 1561,
      "hor": 1562,
      "ajor": 1563,
      "icult": 1564,
      "Ġoccur": 1565,
      "Ġfore": 1566,
      "Ġter": 1567,
      "Ġfunction": 1568,
      "abor": 1569,
      "ĠEng": 1570,
      "utions": 1571,
      "Ġgr": 1572,
      "Ġperiod": 1573,
      "ending": 1574,
      "Ġskills": 1575,
      "Ġbeg": 1576,
      "erc": 1577,
      "Ġlaw": 1578,
      "Ġunderstanding": 1579,
      "ĠDe": 1580,
      "ern": 1581,
      "Ġavailable": 1582,
      "oring": 1583,
      "to": 1584,
      "Ġ7": 1585,
      "Ġflow": 1586,
      "ended": 1587,
      "Ġhy": 1588,
      "Ġthings": 1589,
      "Ġcru": 1590,
      "Ġsymptoms": 1591,
      "Ġorder": 1592,
      "here": 1593,
      "Ġcurrent": 1594,
      "asing": 1595,
      "Ġprotect": 1596,
      "Ġconsider": 1597,
      "Ġnut": 1598,
      "Ġproblems": 1599,
      "orn": 1600,
      "port": 1601,
      "Ġstep": 1602,
      "ression": 1603,
      "Ġreport": 1604,
      "19": 1605,
      "Ġel": 1606,
      "Ġfre": 1607,
      "aging": 1608,
      "Ġeducation": 1609,
      "Ġquality": 1610,
      "Ġnet": 1611,
      "Ġeffic": 1612,
      "arc": 1613,
      "Ġlo": 1614,
      "Ġphysical": 1615,
      "Ġnecess": 1616,
      "Ġcome": 1617,
      "Ġtypes": 1618,
      "illion": 1619,
      "Ġincrease": 1620,
      "Ġrespons": 1621,
      "Ġmaintain": 1622,
      "Ġ200": 1623,
      "Ġnon": 1624,
      "Ġrev": 1625,
      "Ġassoci": 1626,
      "ĠPl": 1627,
      "Ġtemper": 1628,
      "acy": 1629,
      "Ġplants": 1630,
      "ests": 1631,
      "Ġgovernment": 1632,
      "Ġhard": 1633,
      "Ġissues": 1634,
      "Ġold": 1635,
      "Ġcomb": 1636,
      "Ġ8": 1637,
      "ived": 1638,
      "Ġmajor": 1639,
      "Ġsw": 1640,
      "gen": 1641,
      "Ġcy": 1642,
      "Ġlocal": 1643,
      "Ġcommunity": 1644,
      "ĠSh": 1645,
      "ape": 1646,
      "Ġchalleng": 1647,
      "omp": 1648,
      "Ġhere": 1649,
      "Ġland": 1650,
      "Ġteam": 1651,
      "ilar": 1652,
      "chie": 1653,
      "use": 1654,
      "Ġcrit": 1655,
      "Ġey": 1656,
      "Ġspecies": 1657,
      "Ġbi": 1658,
      "ator": 1659,
      "ones": 1660,
      "Ġgrowth": 1661,
      "Ġfree": 1662,
      "izing": 1663,
      "Ġrece": 1664,
      "Ġproblem": 1665,
      "Ġrun": 1666,
      "ission": 1667,
      "ians": 1668,
      "Ġsens": 1669,
      "crib": 1670,
      "idence": 1671,
      "Ġfollowing": 1672,
      "Ġdifficult": 1673,
      "Ġlanguage": 1674,
      "az": 1675,
      "Ġchanges": 1676,
      "Ġdeterm": 1677,
      "Ġbenefits": 1678,
      "atory": 1679,
      "ecially": 1680,
      "Ġamong": 1681,
      "Ġpoint": 1682,
      "Ġcomput": 1683,
      "ety": 1684,
      "ug": 1685,
      "Ġmil": 1686,
      "Ġways": 1687,
      "Ġtimes": 1688,
      "ĠRe": 1689,
      "eral": 1690,
      "Ġbir": 1691,
      "Ġage": 1692,
      "Ġdiet": 1693,
      "ibility": 1694,
      "Ġmind": 1695,
      "Ġhealthy": 1696,
      "Ġgroup": 1697,
      "Ġwar": 1698,
      "Ġobject": 1699,
      "ires": 1700,
      "ators": 1701,
      "Ġstrateg": 1702,
      "Ġvir": 1703,
      "ately": 1704,
      "leep": 1705,
      "ĠâĢĶ": 1706,
      "..": 1707,
      "Ġactivities": 1708,
      "Ġacross": 1709,
      "Ġcase": 1710,
      "br": 1711,
      "irc": 1712,
      "olution": 1713,
      "Ġscient": 1714,
      "ised": 1715,
      "Ġfil": 1716,
      "Ġrange": 1717,
      "especially": 1718,
      "Ġrele": 1719,
      "lished": 1720,
      "Ġaddress": 1721,
      "Ġsecond": 1722,
      "Ġcountry": 1723,
      "Ġlast": 1724,
      "Ġlot": 1725,
      "Ġheart": 1726,
      "Ġspecial": 1727,
      "ĠWith": 1728,
      "ĠCan": 1729,
      "Ġstress": 1730,
      "ĠSo": 1731,
      "Ġdog": 1732,
      "Ġaffect": 1733,
      "Ġachie": 1734,
      "ret": 1735,
      "ĠRes": 1736,
      "Ġmar": 1737,
      "Ġexperien": 1738,
      "aring": 1739,
      "Ġspace": 1740,
      "ĠCl": 1741,
      "Ġresources": 1742,
      "Ġwhy": 1743,
      "ips": 1744,
      "atures": 1745,
      "Ġmonth": 1746,
      "We": 1747,
      "fact": 1748,
      "Ġglob": 1749,
      "Ġlist": 1750,
      "ik": 1751,
      "aper": 1752,
      "Ġhead": 1753,
      "osp": 1754,
      "ĠTe": 1755,
      "Ġknowledge": 1756,
      "Ġunt": 1757,
      "Ġalways": 1758,
      "Ġproducts": 1759,
      "over": 1760,
      "ograph": 1761,
      "Ġpost": 1762,
      "ivity": 1763,
      "Ġlikely": 1764,
      "Ġhigher": 1765,
      "aster": 1766,
      "ĠEn": 1767,
      "Ġhelps": 1768,
      "amp": 1769,
      "Ġsince": 1770,
      "ĠAmerican": 1771,
      "ina": 1772,
      "There": 1773,
      "Ġmedical": 1774,
      "ĠQ": 1775,
      "ething": 1776,
      "Ġstrong": 1777,
      "apt": 1778,
      "Ġfactors": 1779,
      "Ġmanagement": 1780,
      "aces": 1781,
      "Ġespecially": 1782,
      "sy": 1783,
      "Ġemploy": 1784,
      "ables": 1785,
      "Ġwee": 1786,
      "Ġshort": 1787,
      "oura": 1788,
      "Ġworking": 1789,
      "Ġrepres": 1790,
      "Ġmaterials": 1791,
      "Ġsust": 1792,
      "Ġcrucial": 1793,
      "ope": 1794,
      "Ġele": 1795,
      "Ġopportun": 1796,
      "Ġbrain": 1797,
      "urop": 1798,
      "ole": 1799,
      "Ġeffects": 1800,
      "ames": 1801,
      "Ġorig": 1802,
      "Ġput": 1803,
      "face": 1804,
      "orth": 1805,
      "ane": 1806,
      "Ġconcer": 1807,
      "Ġmot": 1808,
      "Ġcells": 1809,
      "etic": 1810,
      "Ġself": 1811,
      "When": 1812,
      "man": 1813,
      "Ġ9": 1814,
      "sp": 1815,
      "ox": 1816,
      "Ġbro": 1817,
      "Ġusually": 1818,
      "Ġresults": 1819,
      "ring": 1820,
      "ored": 1821,
      "Ġyoung": 1822,
      "Ġproduction": 1823,
      "Ġnear": 1824,
      "Ġdra": 1825,
      "Ġtoday": 1826,
      "of": 1827,
      "Ġpersonal": 1828,
      "Ġavoid": 1829,
      "Ġworks": 1830,
      "une": 1831,
      "ĠUnited": 1832,
      "iting": 1833,
      "Ġsustain": 1834,
      "Ġclear": 1835,
      "ĠPh": 1836,
      "oney": 1837,
      "ides": 1838,
      "ĠWhat": 1839,
      "Ġrelations": 1840,
      "ĠUniversity": 1841,
      "Ġdiscuss": 1842,
      "Ġsay": 1843,
      "Ġinflu": 1844,
      "Ġsure": 1845,
      "Ġapproach": 1846,
      "Ġloss": 1847,
      "Ġtoget": 1848,
      "Ġtogether": 1849,
      "Ġpare": 1850,
      "Ġturn": 1851,
      "Ġcomplex": 1852,
      "though": 1853,
      "anced": 1854,
      "omes": 1855,
      "Ġcat": 1856,
      "Ġcontain": 1857,
      "ton": 1858,
      "ruction": 1859,
      "istic": 1860,
      "Ġname": 1861,
      "ĠAI": 1862,
      "Ġcharacter": 1863,
      "Ġsoil": 1864,
      "ĠComm": 1865,
      "Ġvol": 1866,
      "Ġclean": 1867,
      "Ġmarket": 1868,
      "Ġ&": 1869,
      "Ġsomething": 1870,
      "Ġview": 1871,
      "Ġability": 1872,
      "ysis": 1873,
      "Ġtradition": 1874,
      "af": 1875,
      "Ġgive": 1876,
      "Ġmakes": 1877,
      "ĠBl": 1878,
      "rist": 1879,
      "Ġmen": 1880,
      "Ġtry": 1881,
      "ours": 1882,
      "ured": 1883,
      "Ġclimate": 1884,
      "aves": 1885,
      "amm": 1886,
      "Ġer": 1887,
      "ember": 1888,
      "Ġfurther": 1889,
      "iple": 1890,
      "Ġcourse": 1891,
      "ĠSome": 1892,
      "not": 1893,
      "ancial": 1894,
      "Ġalong": 1895,
      "ode": 1896,
      "ffic": 1897,
      "Ġrecomm": 1898,
      "bon": 1899,
      "ush": 1900,
      "Ġservices": 1901,
      "ably": 1902,
      "Ġskin": 1903,
      "Ġtoward": 1904,
      "Ġrecogn": 1905,
      "ĠCol": 1906,
      "oot": 1907,
      "Ġcirc": 1908,
      "St": 1909,
      "Ġill": 1910,
      "Ġfund": 1911,
      "urope": 1912,
      "Ġamount": 1913,
      "Ġcancer": 1914,
      "Ġchem": 1915,
      "Ġlower": 1916,
      "Ġobs": 1917,
      "duct": 1918,
      "Ġpast": 1919,
      "Ġpatients": 1920,
      "Ġlittle": 1921,
      "Ġbat": 1922,
      "Ġcountries": 1923,
      "Ġemot": 1924,
      "Ġcases": 1925,
      "selves": 1926,
      "ym": 1927,
      "ications": 1928,
      "Ġsoft": 1929,
      "Ġprim": 1930,
      "Ġsugg": 1931,
      "for": 1932,
      "Ġenh": 1933,
      "Ġprev": 1934,
      "Ġfar": 1935,
      "ĠAf": 1936,
      "Ġestab": 1937,
      "Ġtherap": 1938,
      "Ġpolic": 1939,
      "Ġprovides": 1940,
      "Ġsafe": 1941,
      "aken": 1942,
      "Ġteac": 1943,
      "Ġfour": 1944,
      "Ġexist": 1945,
      "Ġappear": 1946,
      "Ġcomplete": 1947,
      "Ġsays": 1948,
      ".,": 1949,
      "Ġexerc": 1950,
      "oks": 1951,
      "ired": 1952,
      "Ġmental": 1953,
      "Ġsing": 1954,
      "Ġsimilar": 1955,
      "Ġdays": 1956,
      "ĠBe": 1957,
      "Ġarticle": 1958,
      "Ġsleep": 1959,
      "Ġbegin": 1960,
      "Ġenough": 1961,
      "Ġet": 1962,
      "Ġpressure": 1963,
      "iation": 1964,
      "Ġsitu": 1965,
      "ĠIm": 1966,
      "Ġcomes": 1967,
      "Ġnecessary": 1968,
      "Ġpred": 1969,
      "Ġregular": 1970,
      "utes": 1971,
      "Ġindustry": 1972,
      "Ġpay": 1973,
      "Ġbal": 1974,
      "ems": 1975,
      "An": 1976,
      "Ġsal": 1977,
      "Ġlet": 1978,
      "Ġonline": 1979,
      "Ġmach": 1980,
      "ification": 1981,
      "aps": 1982,
      "ĠAt": 1983,
      "Ġrad": 1984,
      "ĠStates": 1985,
      "Ġunique": 1986,
      "ĠEurope": 1987,
      "ney": 1988,
      "usion": 1989,
      "Ġaway": 1990,
      "Ġ202": 1991,
      "ĠSe": 1992,
      "Ġwhether": 1993,
      "Ġquick": 1994,
      "Ġsafety": 1995,
      "Ġvalue": 1996,
      "reng": 1997,
      "Ġpopular": 1998,
      "Ġauthor": 1999,
      "Ġbook": 2000,
      "Ġside": 2001,
      "Ġlive": 2002,
      "Ġneg": 2003,
      "Ġmic": 2004,
      "aut": 2005,
      "Ġnext": 2006,
      "Ġpolit": 2007,
      "oint": 2008,
      "Ġwide": 2009,
      "Ġidentify": 2010,
      "Ġcoll": 2011,
      "ustom": 2012,
      "rug": 2013,
      "ĠOn": 2014,
      "ĠZ": 2015,
      "Ġpractice": 2016,
      "Ġcontent": 2017,
      "Ġrelationship": 2018,
      "Ġcondition": 2019,
      "Ġbuilding": 2020,
      "âĢĵ": 2021,
      "Ġuntil": 2022,
      "Ġpercent": 2023,
      "side": 2024,
      "For": 2025,
      "Ġactivity": 2026,
      "verse": 2027,
      "Ġtraining": 2028,
      "Ġfull": 2029,
      "Ġassociated": 2030,
      "ont": 2031,
      "Ġgiven": 2032,
      "Ġtext": 2033,
      "Ġhaving": 2034,
      "thing": 2035,
      "Ġinteract": 2036,
      "ither": 2037,
      "Ġresearc": 2038,
      "Ġkind": 2039,
      "aching": 2040,
      "pos": 2041,
      "hem": 2042,
      "Ġfeed": 2043,
      "ĠOr": 2044,
      "ream": 2045,
      "Wh": 2046,
      "app": 2047,
      "Ġoffer": 2048,
      "Ġnature": 2049,
      "Ġfield": 2050,
      "Ġparticip": 2051,
      "ned": 2052,
      "To": 2053,
      "rim": 2054,
      "Ġfinancial": 2055,
      "Ġallows": 2056,
      "'t": 2057,
      "Ġmodel": 2058,
      "ints": 2059,
      "ĠUS": 2060,
      "Ġengine": 2061,
      "Ġrecord": 2062,
      "Ġinit": 2063,
      "ges": 2064,
      "min": 2065,
      "Ġask": 2066,
      "Ġterm": 2067,
      "Ġsubst": 2068,
      "ening": 2069,
      "Ġenvironmental": 2070,
      "Ġinteg": 2071,
      "Ġglobal": 2072,
      "Ġsource": 2073,
      "ĠInst": 2074,
      "orld": 2075,
      "let": 2076,
      "Ġcolle": 2077,
      "emic": 2078,
      "Ġut": 2079,
      "Ġbig": 2080,
      "Ġground": 2081,
      "ules": 2082,
      "ĠWhile": 2083,
      "ites": 2084,
      "Ġmov": 2085,
      "ĠHealth": 2086,
      "Ġnorm": 2087,
      "oh": 2088,
      "ipp": 2089,
      "Ġ15": 2090,
      "ray": 2091,
      "Ġoverall": 2092,
      "Ġur": 2093,
      "Ġlif": 2094,
      "sw": 2095,
      "Ġlay": 2096,
      "amin": 2097,
      "Ġgoing": 2098,
      "ilt": 2099,
      "Ġcut": 2100,
      "Ġheat": 2101,
      "Ġdetail": 2102,
      "Ġfri": 2103,
      "based": 2104,
      "Ġoil": 2105,
      "Ġpositive": 2106,
      "bo": 2107,
      "ufact": 2108,
      "Ġwords": 2109,
      "ĠGod": 2110,
      "ler": 2111,
      "Ġlater": 2112,
      "Ġmeet": 2113,
      "10": 2114,
      "Ġline": 2115,
      "Ġsubject": 2116,
      "Ġtools": 2117,
      "osis": 2118,
      "idd": 2119,
      "Ġsound": 2120,
      "sych": 2121,
      "Ġsecurity": 2122,
      "Ġweight": 2123,
      "ĠAfric": 2124,
      "Ġwind": 2125,
      "Ġassess": 2126,
      "mit": 2127,
      "rams": 2128,
      "Ġcollect": 2129,
      "Ġleast": 2130,
      "edi": 2131,
      "Ġstreng": 2132,
      "rel": 2133,
      "Ġharm": 2134,
      "Ġgreen": 2135,
      "Ġtas": 2136,
      "Ġdeath": 2137,
      "Ġfrequ": 2138,
      "Ġrepresent": 2139,
      "verage": 2140,
      "Ġincreased": 2141,
      "Ġsize": 2142,
      "ulations": 2143,
      "ĠOne": 2144,
      "fer": 2145,
      "care": 2146,
      "Ġconnect": 2147,
      "ĠAll": 2148,
      "nts": 2149,
      "nov": 2150,
      "ready": 2151,
      "Ġabove": 2152,
      "ĠCent": 2153,
      "ument": 2154,
      "Ġcompany": 2155,
      "ĠNational": 2156,
      "lying": 2157,
      "Ġflu": 2158,
      "iency": 2159,
      "most": 2160,
      "ches": 2161,
      "ystem": 2162,
      "Ġgeneral": 2163,
      "Ġperformance": 2164,
      "Ġscience": 2165,
      "Ġcheck": 2166,
      "yle": 2167,
      "Ġdamage": 2168,
      "Ġz": 2169,
      "acc": 2170,
      "Ġbehavior": 2171,
      "Ġhab": 2172,
      "Ġreason": 2173,
      "Ġclose": 2174,
      "pr": 2175,
      "Ġsum": 2176,
      "Ġstudies": 2177,
      "Ġcompon": 2178,
      "Ġhouse": 2179,
      "Ġquestions": 2180,
      "Ġincreasing": 2181,
      "iques": 2182,
      "ried": 2183,
      "Ġindic": 2184,
      "Ġchallenges": 2185,
      "Ġpopulation": 2186,
      "Ġfall": 2187,
      "Ġmillion": 2188,
      "Ġpaper": 2189,
      "Ġsimple": 2190,
      "Ġrequired": 2191,
      "Ġfru": 2192,
      "ged": 2193,
      "Ġabs": 2194,
      "Ġpattern": 2195,
      "Ġjour": 2196,
      "Ġhold": 2197,
      "ery": 2198,
      "Ġfish": 2199,
      "Ġcompan": 2200,
      "Ġmethods": 2201,
      "Ġleft": 2202,
      "Ġintrodu": 2203,
      "rect": 2204,
      "ching": 2205,
      "Ġdone": 2206,
      "Ġneeded": 2207,
      "Ġdigital": 2208,
      "alu": 2209,
      "Ġconsidered": 2210,
      "Ġsurface": 2211,
      "by": 2212,
      "Ġalready": 2213,
      "aling": 2214,
      "Ġrepl": 2215,
      "ensive": 2216,
      "Ġaccount": 2217,
      "chan": 2218,
      "icial": 2219,
      "roll": 2220,
      "light": 2221,
      "Ġcustom": 2222,
      "ĠMed": 2223,
      "Ġstory": 2224,
      "Ġcentury": 2225,
      "Ġimplement": 2226,
      "ising": 2227,
      "ĠGo": 2228,
      "Ġmoney": 2229,
      "Ġvariety": 2230,
      "Ġeconomic": 2231,
      "ĠEar": 2232,
      "Ġdescrib": 2233,
      "omet": 2234,
      "Ġtar": 2235,
      "You": 2236,
      "ĠChrist": 2237,
      "acks": 2238,
      "ĠCO": 2239,
      "Ġpriv": 2240,
      "Ġsense": 2241,
      "Ġdoct": 2242,
      "Ġred": 2243,
      "Ġtaking": 2244,
      "Ġ$": 2245,
      "Ġanalysis": 2246,
      "Ġexce": 2247,
      "Ġwr": 2248,
      "Ġcontinu": 2249,
      "Ġtemperature": 2250,
      "Ġelectric": 2251,
      "Ġstat": 2252,
      "Ġfat": 2253,
      "Ġdeg": 2254,
      "Ġnever": 2255,
      "Ġseen": 2256,
      "ĠThat": 2257,
      "Ġbreak": 2258,
      "aily": 2259,
      "erous": 2260,
      "Ġsun": 2261,
      "Ġhowever": 2262,
      "Ġencoura": 2263,
      "Ġparts": 2264,
      "Ġquestion": 2265,
      "ung": 2266,
      "vere": 2267,
      "Ġmanufact": 2268,
      "Ġevent": 2269,
      "yn": 2270,
      "Ġjob": 2271,
      "str": 2272,
      "lt": 2273,
      "Ġgroups": 2274,
      "Ġeasy": 2275,
      "Ġdisord": 2276,
      "Ġinj": 2277,
      "Ġ12": 2278,
      "pro": 2279,
      "Ġcolor": 2280,
      "Ġdesigned": 2281,
      "Ġremain": 2282,
      "put": 2283,
      "sequ": 2284,
      "Ġlives": 2285,
      "Ġthemselves": 2286,
      "Ġthroughout": 2287,
      "ming": 2288,
      "Ġliving": 2289,
      "Ġgas": 2290,
      "Ġrate": 2291,
      "hold": 2292,
      "Ġdiagn": 2293,
      "Ġdeep": 2294,
      "unt": 2295,
      "Ġdeveloped": 2296,
      "astic": 2297,
      "erve": 2298,
      "Ġmonit": 2299,
      "Ġanimals": 2300,
      "lo": 2301,
      "reme": 2302,
      "Ġmodern": 2303,
      "oes": 2304,
      "Ġmusic": 2305,
      "Ġaccording": 2306,
      "Ġnetwork": 2307,
      "Ġtraditional": 2308,
      "ores": 2309,
      "ropri": 2310,
      "Ġprec": 2311,
      "elling": 2312,
      "Ġaware": 2313,
      "Ġbelow": 2314,
      "Ġsingle": 2315,
      "ump": 2316,
      "fort": 2317,
      "Ġonce": 2318,
      "Ġdrug": 2319,
      "ences": 2320,
      "aged": 2321,
      "Ġproviding": 2322,
      "ĠMan": 2323,
      "Ġrelated": 2324,
      "Ġincludes": 2325,
      "lex": 2326,
      "Ġemerg": 2327,
      "Ġchemical": 2328,
      "eds": 2329,
      "Ġdom": 2330,
      "Ġresearchers": 2331,
      "Ġfail": 2332,
      "Ġaccur": 2333,
      "nces": 2334,
      "Ġrather": 2335,
      "ĠYour": 2336,
      "Ġpractices": 2337,
      "rict": 2338,
      "Ġproduce": 2339,
      "Ġcity": 2340,
      "rior": 2341,
      "Ġwaste": 2342,
      "ging": 2343,
      "Ġminim": 2344,
      "Ġprote": 2345,
      "Ġpath": 2346,
      "Ġansw": 2347,
      "Ġfoods": 2348,
      "Ġcreated": 2349,
      "Ġcannot": 2350,
      "Ġfamil": 2351,
      "Ġaspect": 2352,
      "isions": 2353,
      "ival": 2354,
      "Ġmass": 2355,
      "ronic": 2356,
      "ott": 2357,
      "hing": 2358,
      "Ġphot": 2359,
      "ibr": 2360,
      "Ġanaly": 2361,
      "Ġtechniques": 2362,
      "Ġhistor": 2363,
      "rast": 2364,
      "Ġemb": 2365,
      "Ġcarbon": 2366,
      "Ġattention": 2367,
      "Ġapplications": 2368,
      "aim": 2369,
      "Ġvers": 2370,
      "Ġcommunication": 2371,
      "Ġconduct": 2372,
      "istance": 2373,
      "Ġcauses": 2374,
      "asc": 2375,
      "like": 2376,
      "ID": 2377,
      "Ġ.": 2378,
      "ird": 2379,
      "Ġgain": 2380,
      "alf": 2381,
      "Ġcritical": 2382,
      "Ġreally": 2383,
      "ĠEm": 2384,
      "Ġwhite": 2385,
      "Ġarch": 2386,
      "Ġmembers": 2387,
      "Ġwin": 2388,
      "Ġentire": 2389,
      "Ġwhole": 2390,
      "tery": 2391,
      "ises": 2392,
      "Ġstudent": 2393,
      "Ġce": 2394,
      "ulate": 2395,
      "Ġwriting": 2396,
      "fully": 2397,
      "Ġstructure": 2398,
      "Ġsociety": 2399,
      "Ġdoc": 2400,
      "Ġcompl": 2401,
      "aches": 2402,
      "Ġtarget": 2403,
      "Ġaction": 2404,
      "Ġport": 2405,
      "oor": 2406,
      "Ġsources": 2407,
      "ners": 2408,
      "Ġreact": 2409,
      "Ġguid": 2410,
      "aving": 2411,
      "itation": 2412,
      "go": 2413,
      "Ġfarm": 2414,
      "ĠCont": 2415,
      "ww": 2416,
      "Ġspe": 2417,
      "Ġcreating": 2418,
      "ervation": 2419,
      "Ġwebs": 2420,
      "Ġactive": 2421,
      "iol": 2422,
      "Ġtypically": 2423,
      "epend": 2424,
      "Ġcontact": 2425,
      "Ġachieve": 2426,
      "Ġeither": 2427,
      "Ġdevices": 2428,
      "Ġparents": 2429,
      "Ġpatient": 2430,
      "Ġdeb": 2431,
      "Ġthreat": 2432,
      "ule": 2433,
      "cies": 2434,
      "Ġsoftware": 2435,
      "Ġmeasure": 2436,
      "Ġparticularly": 2437,
      "Ġmeaning": 2438,
      "Ġbra": 2439,
      "Ġdaily": 2440,
      "Ġpoll": 2441,
      "Ġste": 2442,
      "onse": 2443,
      "oles": 2444,
      "Ġtaken": 2445,
      "Ġgard": 2446,
      "ĠDr": 2447,
      "het": 2448,
      "Ġcalc": 2449,
      "Ġbring": 2450,
      "Ġbar": 2451,
      "Ġbecame": 2452,
      "Ġleading": 2453,
      "oman": 2454,
      "Ġbacter": 2455,
      "illed": 2456,
      "Ch": 2457,
      "Ġspread": 2458,
      "Ġface": 2459,
      "erence": 2460,
      "Ġ199": 2461,
      "Ġlab": 2462,
      "urs": 2463,
      "Ġlonger": 2464,
      "bol": 2465,
      "Ġservice": 2466,
      "cient": 2467,
      "gar": 2468,
      "Ġidea": 2469,
      "osing": 2470,
      "Ġsolar": 2471,
      "aced": 2472,
      "Ġmechan": 2473,
      "Ġprofessional": 2474,
      "joy": 2475,
      "NA": 2476,
      "istics": 2477,
      "Ġrout": 2478,
      "Ġevidence": 2479,
      "50": 2480,
      "Ġcaused": 2481,
      "ĠFr": 2482,
      "Ġdest": 2483,
      "Ġcompet": 2484,
      "Ġmonths": 2485,
      "Ġcomputer": 2486,
      "Ġcompanies": 2487,
      "Ġculture": 2488,
      "atives": 2489,
      "Ġstay": 2490,
      "Ġaim": 2491,
      "Ġrights": 2492,
      "pose": 2493,
      "ĠBrit": 2494,
      "Ġnational": 2495,
      "ext": 2496,
      "ĠWorld": 2497,
      "ĠShe": 2498,
      "Ġec": 2499,
      "ologies": 2500,
      "ront": 2501,
      "ĠEnglish": 2502,
      "Ġblack": 2503,
      "Ġprinc": 2504,
      "Ġcommunities": 2505,
      "Ġcr": 2506,
      "Ġlink": 2507,
      "ĠComp": 2508,
      "iable": 2509,
      "ae": 2510,
      "Ġdeveloping": 2511,
      "ccording": 2512,
      "issions": 2513,
      "Ġshare": 2514,
      "Ġconsist": 2515,
      "Ġoptim": 2516,
      "Al": 2517,
      "Ġexplore": 2518,
      "Ġann": 2519,
      "hens": 2520,
      "Ġsuggest": 2521,
      "Ġhyd": 2522,
      "Ġregard": 2523,
      "uel": 2524,
      "Ġvide": 2525,
      "Ġfire": 2526,
      "Ġprograms": 2527,
      "icles": 2528,
      "One": 2529,
      "ĠLe": 2530,
      "Ġsuff": 2531,
      "Ġstop": 2532,
      "Ġimportance": 2533,
      "Ġver": 2534,
      "Ġactually": 2535,
      "Ġterms": 2536,
      "izations": 2537,
      "Ġtowards": 2538,
      "king": 2539,
      "ply": 2540,
      "Ġmultiple": 2541,
      "cri": 2542,
      "Ġeat": 2543,
      "Ġsuper": 2544,
      "gest": 2545,
      "Ġfive": 2546,
      "ĠStud": 2547,
      "hib": 2548,
      "inary": 2549,
      "ender": 2550,
      "Ġreading": 2551,
      "augh": 2552,
      "Ġadapt": 2553,
      "Ġ17": 2554,
      "Ġgrowing": 2555,
      "earch": 2556,
      "Ġprob": 2557,
      "Ġrequires": 2558,
      "Ġweek": 2559,
      "ĠAm": 2560,
      "Ġpolitical": 2561,
      "Ġever": 2562,
      "ties": 2563,
      "Ġtalk": 2564,
      "ĠIntern": 2565,
      "Ġword": 2566,
      "Ġstates": 2567,
      "Ġsent": 2568,
      "ann": 2569,
      ".\"": 2570,
      "itud": 2571,
      "Ġlove": 2572,
      "ales": 2573,
      "ounts": 2574,
      "reg": 2575,
      "ivil": 2576,
      "Ġwild": 2577,
      "Ġ30": 2578,
      "Ġinnov": 2579,
      "Ġcra": 2580,
      "ricult": 2581,
      "ĠIndia": 2582,
      "Ġevents": 2583,
      "Ġcontinue": 2584,
      "Ġpsych": 2585,
      "Ġautom": 2586,
      "Ġpan": 2587,
      "yl": 2588,
      "Ġ[": 2589,
      "Ġappropri": 2590,
      "Ġuses": 2591,
      "Ġreturn": 2592,
      "abet": 2593,
      "ĠGen": 2594,
      "Ġeye": 2595,
      "Ġhours": 2596,
      "Ġtravel": 2597,
      "Ġeasily": 2598,
      "ĠTr": 2599,
      "Ġsite": 2600,
      "Ġtot": 2601,
      "ison": 2602,
      "Ġla": 2603,
      "Ġmedia": 2604,
      "nal": 2605,
      "aries": 2606,
      "view": 2607,
      "ĠAct": 2608,
      "Ġdiseases": 2609,
      "Ġwat": 2610,
      "Ġprocesses": 2611,
      "Ġenjoy": 2612,
      "ĠGerm": 2613,
      "Ġsat": 2614,
      "Ġsect": 2615,
      "pid": 2616,
      "oph": 2617,
      "ding": 2618,
      "term": 2619,
      "Ġposition": 2620,
      "izes": 2621,
      "Ġremov": 2622,
      "Ġquickly": 2623,
      "Ġfeatures": 2624,
      "Ġcultural": 2625,
      "Ġspeed": 2626,
      "Ġteeth": 2627,
      "Ġefficient": 2628,
      "Ġitself": 2629,
      "Ġblock": 2630,
      "ellig": 2631,
      "Ġmicro": 2632,
      "Ġaud": 2633,
      "ĠAss": 2634,
      "Ġlooking": 2635,
      "ĠHere": 2636,
      "Ġrecent": 2637,
      "Ġge": 2638,
      "Ġcapt": 2639,
      "fect": 2640,
      "set": 2641,
      "ĠCar": 2642,
      "Ġslow": 2643,
      "Ġprogress": 2644,
      "ipment": 2645,
      "Ġvisit": 2646,
      "Ġgetting": 2647,
      "Ġresponse": 2648,
      "vant": 2649,
      "Ġexercise": 2650,
      "Ġlack": 2651,
      "orks": 2652,
      "hood": 2653,
      "Ġveget": 2654,
      "Ġvit": 2655,
      "Ġhealthcare": 2656,
      "Ġinvolves": 2657,
      "ĠCons": 2658,
      "Ġregion": 2659,
      "ctions": 2660,
      "Ġprior": 2661,
      "Ġissue": 2662,
      "ley": 2663,
      "Ġbur": 2664,
      "Ġrelig": 2665,
      "orpor": 2666,
      "ĠPr": 2667,
      "iber": 2668,
      "Ġusers": 2669,
      "Ġcop": 2670,
      "ened": 2671,
      "iction": 2672,
      "Ġvacc": 2673,
      "Ġmatter": 2674,
      "Ġful": 2675,
      "Ġcommit": 2676,
      "ĠWar": 2677,
      "Ġselect": 2678,
      "Ġprop": 2679,
      "imately": 2680,
      "Ġveh": 2681,
      "aff": 2682,
      "Ġthought": 2683,
      "Ġsomeone": 2684,
      "Ġheav": 2685,
      "Ġmovement": 2686,
      "Ġtax": 2687,
      "Ġexc": 2688,
      "room": 2689,
      "ĠSu": 2690,
      "ider": 2691,
      "isc": 2692,
      "Ġsustainable": 2693,
      "ditionally": 2694,
      "pts": 2695,
      "Ġadvant": 2696,
      "itable": 2697,
      "uted": 2698,
      "sh": 2699,
      "asons": 2700,
      "Ġlands": 2701,
      "Ġinvolved": 2702,
      "being": 2703,
      "Ġsepar": 2704,
      "Ġir": 2705,
      "Ġcorrect": 2706,
      "Ġliter": 2707,
      "Ġsurv": 2708,
      "ĠSouth": 2709,
      "Ġ16": 2710,
      "Ġdry": 2711,
      "Ġstrategies": 2712,
      "Ġmo": 2713,
      "Ġnegative": 2714,
      "Ġyourself": 2715,
      "ai": 2716,
      "ters": 2717,
      "Ġdetermine": 2718,
      "Ġarg": 2719,
      "Ġoffers": 2720,
      "ma": 2721,
      "Ġprovided": 2722,
      "new": 2723,
      "ĠAb": 2724,
      "Ġcosts": 2725,
      "Ġdraw": 2726,
      "Ġappl": 2727,
      "Ġshows": 2728,
      "Ġinstall": 2729,
      "yond": 2730,
      "Ġprotection": 2731,
      "Ġaltern": 2732,
      "atform": 2733,
      "ils": 2734,
      "Ġanx": 2735,
      "While": 2736,
      "Ġstandard": 2737,
      "Ġsupply": 2738,
      "osure": 2739,
      "Ġextreme": 2740,
      "Ġoptions": 2741,
      "Ġox": 2742,
      "Ġdoing": 2743,
      "Ġdoesn": 2744,
      "Ġled": 2745,
      "Ġprevious": 2746,
      "Ġforms": 2747,
      "Ġetc": 2748,
      "arily": 2749,
      "Ġevalu": 2750,
      "ows": 2751,
      "âĢ¦": 2752,
      "Ġtherapy": 2753,
      "Ġalmost": 2754,
      "Ġproced": 2755,
      "ĠGu": 2756,
      "Ġnutri": 2757,
      "know": 2758,
      "ĠAmerica": 2759,
      "Ġtransport": 2760,
      "Ġyet": 2761,
      "Ġopportunities": 2762,
      "Ġarr": 2763,
      "ze": 2764,
      "Ġpromot": 2765,
      "Ġdecision": 2766,
      "Ġsam": 2767,
      "ĠCal": 2768,
      "ades": 2769,
      "Ġgreater": 2770,
      "ĠAust": 2771,
      "rown": 2772,
      "ER": 2773,
      "12": 2774,
      "Ġwood": 2775,
      "itary": 2776,
      "Ġprojects": 2777,
      "Ġbreat": 2778,
      "Ġpublished": 2779,
      "Ġreflect": 2780,
      "Ġbuilt": 2781,
      "Ġupon": 2782,
      "mon": 2783,
      "Ġ0": 2784,
      "just": 2785,
      "Ġlog": 2786,
      "Ġserious": 2787,
      "Ġthing": 2788,
      "Ġadditional": 2789,
      "Ġgame": 2790,
      "Ġsevere": 2791,
      "ese": 2792,
      "ĠAfter": 2793,
      "Ġschools": 2794,
      "duc": 2795,
      "//": 2796,
      "Ġmor": 2797,
      "Ġtransform": 2798,
      "Ġeth": 2799,
      "Ġconc": 2800,
      "Ġrespect": 2801,
      "Ġideas": 2802,
      "Ġprep": 2803,
      "Ġuser": 2804,
      "Ġdistrib": 2805,
      "Ġbab": 2806,
      "Ġprimary": 2807,
      "ĠPe": 2808,
      "ĠAg": 2809,
      "Ġsteps": 2810,
      "Ġequipment": 2811,
      "ĠMar": 2812,
      "rition": 2813,
      "rad": 2814,
      "Ġreducing": 2815,
      "minist": 2816,
      "Ġtakes": 2817,
      "oll": 2818,
      "AS": 2819,
      "Ġoutside": 2820,
      "ĠApp": 2821,
      "Ġsomet": 2822,
      "irm": 2823,
      "Ġobserv": 2824,
      "Ġshown": 2825,
      "Ġapplication": 2826,
      "uries": 2827,
      "Ġsimply": 2828,
      "ĠNorth": 2829,
      "Ġtell": 2830,
      "Ġhighly": 2831,
      "Ġstrength": 2832,
      "Ġchoose": 2833,
      "ĠEarth": 2834,
      "ĠReg": 2835,
      "Ġmeasures": 2836,
      "Ġextra": 2837,
      "Ġexperiences": 2838,
      "ĠDo": 2839,
      "Ġmess": 2840,
      "avor": 2841,
      "Ġrisks": 2842,
      "ĠSoc": 2843,
      "vey": 2844,
      "Ġfram": 2845,
      "Ġdispl": 2846,
      "hol": 2847,
      "overy": 2848,
      "://": 2849,
      "Ġsex": 2850,
      "Ġtesting": 2851,
      "30": 2852,
      "Ġsymbol": 2853,
      "Ġtur": 2854,
      "Ġdang": 2855,
      "icine": 2856,
      "ĠJoh": 2857,
      "Ġcontribute": 2858,
      "Ġrefer": 2859,
      "mb": 2860,
      "Ġbeaut": 2861,
      "uck": 2862,
      "Ġbasic": 2863,
      "Ġdemon": 2864,
      "Ġcard": 2865,
      "Ġtrue": 2866,
      "ĠDep": 2867,
      "Ġexpress": 2868,
      "Ġelements": 2869,
      "urch": 2870,
      "Ġcame": 2871,
      "Ġ100": 2872,
      "Ġexplain": 2873,
      "eration": 2874,
      "irit": 2875,
      "ume": 2876,
      "ĠInt": 2877,
      "Ġcoun": 2878,
      "Ġtree": 2879,
      "Ġreview": 2880,
      "Ġappropriate": 2881,
      "Ġcompre": 2882,
      "Ġbalance": 2883,
      "Ġgenerally": 2884,
      "Ġdemand": 2885,
      "Ġcover": 2886,
      "ban": 2887,
      "Ġnormal": 2888,
      "ublic": 2889,
      "Ġsometimes": 2890,
      "iot": 2891,
      "Ġjo": 2892,
      "Ġfoot": 2893,
      "apan": 2894,
      "ched": 2895,
      "Ġviol": 2896,
      "Ġmagn": 2897,
      "Ġdifference": 2898,
      "ĠMany": 2899,
      "artment": 2900,
      "Ġhar": 2901,
      "Ġsolutions": 2902,
      "Ġhumans": 2903,
      "Ġexperim": 2904,
      "abilities": 2905,
      "Ġinfection": 2906,
      "Ġvirus": 2907,
      "abetes": 2908,
      "ift": 2909,
      "ĠRep": 2910,
      "iddle": 2911,
      "Ġfig": 2912,
      "Ġcollabor": 2913,
      "eter": 2914,
      "Ġpack": 2915,
      "Ġplatform": 2916,
      "Ġstra": 2917,
      "Ġclaim": 2918,
      "Ġlat": 2919,
      "Ġvisual": 2920,
      "Ġkids": 2921,
      "Ġsolution": 2922,
      "ground": 2923,
      "Ġbehind": 2924,
      "ĠUs": 2925,
      "Ġaverage": 2926,
      "Ġwarm": 2927,
      "Ġinternational": 2928,
      "Ġlegal": 2929,
      "dom": 2930,
      "ĠX": 2931,
      "Ġimage": 2932,
      "itution": 2933,
      "Ġtend": 2934,
      "oming": 2935,
      "Ġenter": 2936,
      "Ġhalf": 2937,
      "Ġleaders": 2938,
      "18": 2939,
      "rate": 2940,
      "Ġtrees": 2941,
      "Ġeffectively": 2942,
      "Ġfem": 2943,
      "Ġmachine": 2944,
      "Ġleaves": 2945,
      "Ġdirectly": 2946,
      "Ġgoals": 2947,
      "Ġseem": 2948,
      "Ġcompared": 2949,
      "Ġdecre": 2950,
      "Ġones": 2951,
      "Ġutil": 2952,
      "ension": 2953,
      "hel": 2954,
      "Ġenhance": 2955,
      "Ġtotal": 2956,
      "Ġcred": 2957,
      "Ġaccept": 2958,
      "Ġbegan": 2959,
      "Ġresponsible": 2960,
      "itute": 2961,
      "standing": 2962,
      "ĠCo": 2963,
      "ĠPre": 2964,
      "Ġemp": 2965,
      "Ġvalu": 2966,
      "ulated": 2967,
      "rated": 2968,
      "Ġconcept": 2969,
      "icate": 2970,
      "Ġcomponents": 2971,
      "Ġbelieve": 2972,
      "Ġtechnologies": 2973,
      "Ġpoor": 2974,
      "ĠFl": 2975,
      "icated": 2976,
      "ads": 2977,
      "Ġanimal": 2978,
      "ively": 2979,
      "Ġinside": 2980,
      "Ġimmedi": 2981,
      "Ġreach": 2982,
      "Ġdoctor": 2983,
      "Ġtiss": 2984,
      "Ġbehavi": 2985,
      "Ġdecisions": 2986,
      "Ġinfluence": 2987,
      "Ġtrack": 2988,
      "time": 2989,
      "Ġsn": 2990,
      "oud": 2991,
      "Ġnight": 2992,
      "Ġtook": 2993,
      "Ġrelative": 2994,
      "ĠMore": 2995,
      "Ġple": 2996,
      "Ġbacteria": 2997,
      "come": 2998,
      "Ġteachers": 2999,
      "Ġsigns": 3000,
      "Ġpurpose": 3001,
      "Ġpolicy": 3002,
      "fl": 3003,
      "Ġefficiency": 3004,
      "Ġconstruction": 3005,
      "Ġengage": 3006,
      "ene": 3007,
      "These": 3008,
      "ancy": 3009,
      "Ġadop": 3010,
      "Ġpoints": 3011,
      "water": 3012,
      "Ġhabit": 3013,
      "Ġforest": 3014,
      "Ġindepend": 3015,
      "Ġlimited": 3016,
      "equ": 3017,
      "Ġrob": 3018,
      "uge": 3019,
      "Ġattack": 3020,
      "Ġinsp": 3021,
      "Ġ50": 3022,
      "Ġsugar": 3023,
      "AR": 3024,
      "Ġimpl": 3025,
      "rial": 3026,
      "Ġlarger": 3027,
      "By": 3028,
      "ĠSec": 3029,
      "Ġsix": 3030,
      "Ġfast": 3031,
      "Ġexpect": 3032,
      "Ġwebsite": 3033,
      "ength": 3034,
      "rought": 3035,
      "Ġ14": 3036,
      "Ġefforts": 3037,
      "mber": 3038,
      "Ġinstead": 3039,
      "Ġpatterns": 3040,
      "Ġstru": 3041,
      "Ġcapac": 3042,
      "cape": 3043,
      "ying": 3044,
      "Ġdevice": 3045,
      "But": 3046,
      "Ġanxiety": 3047,
      "ĠMe": 3048,
      "itect": 3049,
      "iam": 3050,
      "rew": 3051,
      "Ġsignificantly": 3052,
      "Ġbroad": 3053,
      "Ġcool": 3054,
      "Ġgoal": 3055,
      "Ġrequirements": 3056,
      "ancing": 3057,
      "Ġstarted": 3058,
      "Ġthinking": 3059,
      "Ġfit": 3060,
      "ster": 3061,
      "ĠCanad": 3062,
      "Ġvalues": 3063,
      "Ġcele": 3064,
      "ĠMay": 3065,
      "ĠJapan": 3066,
      "arr": 3067,
      "Ġdrink": 3068,
      "Ġwall": 3069,
      "Ġforce": 3070,
      "Ġcamp": 3071,
      "Ġbenefit": 3072,
      "ĠFrom": 3073,
      "Ġscientists": 3074,
      "Ġinfect": 3075,
      "ĠChina": 3076,
      "Ġsituation": 3077,
      "Ġbecomes": 3078,
      "ĠGe": 3079,
      "ĠSchool": 3080,
      "Ġsurround": 3081,
      "cles": 3082,
      "Ġsil": 3083,
      "Ġorigin": 3084,
      "ĠResearch": 3085,
      "AT": 3086,
      "Ġacid": 3087,
      "Ġhot": 3088,
      "ES": 3089,
      "Ġeating": 3090,
      "Ġmom": 3091,
      "isms": 3092,
      "cohol": 3093,
      "Ġproduced": 3094,
      "vention": 3095,
      "ĠHis": 3096,
      "Ġagricult": 3097,
      "inct": 3098,
      "Ġemotional": 3099,
      "igation": 3100,
      "Ġintellig": 3101,
      "Ġconcent": 3102,
      "Ġ'": 3103,
      "Ġmodels": 3104,
      "odies": 3105,
      "Ġensuring": 3106,
      "Ġrecommend": 3107,
      "Ġestablish": 3108,
      "Ġclin": 3109,
      "ĠPar": 3110,
      "idents": 3111,
      "Ġprotein": 3112,
      "Ġrich": 3113,
      "org": 3114,
      "Ġscientific": 3115,
      "ĠState": 3116,
      "So": 3117,
      "Ġbeyond": 3118,
      "Ġwalk": 3119,
      "Ġstar": 3120,
      "olic": 3121,
      "rs": 3122,
      "Ġhtt": 3123,
      "Ġweb": 3124,
      "Ġorganizations": 3125,
      "Ġvideo": 3126,
      "Ġpowerful": 3127,
      "ĠOf": 3128,
      "Ġcry": 3129,
      "rogen": 3130,
      "ĠQu": 3131,
      "Ġuseful": 3132,
      "Ġquant": 3133,
      "vest": 3134,
      "ister": 3135,
      "Ġdemonstr": 3136,
      "ops": 3137,
      "fficient": 3138,
      "illing": 3139,
      "Ġult": 3140,
      "Ġfeet": 3141,
      "Ad": 3142,
      "Ġdocument": 3143,
      "Ġworkers": 3144,
      "ounds": 3145,
      "Ġreasons": 3146,
      "ha": 3147,
      "ellow": 3148,
      "Ġchoice": 3149,
      "lear": 3150,
      "ĠLear": 3151,
      "Ġreve": 3152,
      "Ġap": 3153,
      "Ġcode": 3154,
      "resh": 3155,
      "ĠKe": 3156,
      "Ġnumbers": 3157,
      "Ġadded": 3158,
      "Ġcomprehens": 3159,
      "Ġ11": 3160,
      "ief": 3161,
      "Ġcommonly": 3162,
      "Ġvital": 3163,
      "Ġeyes": 3164,
      "back": 3165,
      "Ġproperties": 3166,
      "Ġbusinesses": 3167,
      "aly": 3168,
      "Ġarm": 3169,
      "ecause": 3170,
      "Ġteaching": 3171,
      "Ġguide": 3172,
      "Ġhands": 3173,
      "Ġeveryone": 3174,
      "Ġelectr": 3175,
      "itis": 3176,
      "Ġimmune": 3177,
      "wh": 3178,
      "ees": 3179,
      "Ġopportunity": 3180,
      "Ġpet": 3181,
      "Ġshape": 3182,
      "su": 3183,
      ",\"": 3184,
      "Ġseason": 3185,
      "Ġwritten": 3186,
      "Ġallowing": 3187,
      "Ġdefin": 3188,
      "ĠPer": 3189,
      "Ġmis": 3190,
      "ederal": 3191,
      "Ġanswer": 3192,
      "gn": 3193,
      "Ġbit": 3194,
      "Ġgarden": 3195,
      "Ġfamilies": 3196,
      "estern": 3197,
      "Ġcross": 3198,
      "Ġcook": 3199,
      "Ġcit": 3200,
      "igate": 3201,
      "Ġmix": 3202,
      "inks": 3203,
      "Ġsqu": 3204,
      "Ġconce": 3205,
      "Ġspeak": 3206,
      "anks": 3207,
      "Ġtooth": 3208,
      "ls": 3209,
      "ĠBritish": 3210,
      "umb": 3211,
      "ana": 3212,
      "erson": 3213,
      "Ġpict": 3214,
      "oration": 3215,
      "Ġmob": 3216,
      "Ġegg": 3217,
      "Ġemissions": 3218,
      "Ġreceive": 3219,
      "Ġfa": 3220,
      "Ġrespond": 3221,
      "ields": 3222,
      "Ġtests": 3223,
      "ĠAustral": 3224,
      "Ġproperty": 3225,
      "Ġing": 3226,
      "Ġprofession": 3227,
      "Ġorganization": 3228,
      "Ġpromote": 3229,
      "ography": 3230,
      "Ġalg": 3231,
      "With": 3232,
      "Ġpurch": 3233,
      "Ġancient": 3234,
      "ĠEduc": 3235,
      "amed": 3236,
      "Ġexposure": 3237,
      "Ġtherefore": 3238,
      "iance": 3239,
      "Ġearth": 3240,
      "Ġquite": 3241,
      "Ġaffected": 3242,
      "ĠTra": 3243,
      "Ġbad": 3244,
      "Ġfriends": 3245,
      "Ġdou": 3246,
      "Ġexamples": 3247,
      "amic": 3248,
      "itude": 3249,
      "imin": 3250,
      "ĠRec": 3251,
      "where": 3252,
      "Ġvirt": 3253,
      "enge": 3254,
      "Ġstandards": 3255,
      "Ġstage": 3256,
      "Ġcold": 3257,
      "Ġrapid": 3258,
      "cks": 3259,
      "Ġcentral": 3260,
      "ĠPres": 3261,
      "Ġcomfort": 3262,
      "ĠDis": 3263,
      "ffect": 3264,
      "Ġattem": 3265,
      "Ġlate": 3266,
      "iate": 3267,
      "life": 3268,
      "ĠNo": 3269,
      "Ex": 3270,
      "Ġweather": 3271,
      "Ġtasks": 3272,
      "Ġoption": 3273,
      "Ġhor": 3274,
      "Ġadults": 3275,
      "ĠArt": 3276,
      "Ġfight": 3277,
      "Ġsearch": 3278,
      "Ġlimit": 3279,
      "Ġnote": 3280,
      "ached": 3281,
      "On": 3282,
      "axim": 3283,
      "Ġconsequ": 3284,
      "Ġinterp": 3285,
      "Ġcivil": 3286,
      "sect": 3287,
      "Ġremains": 3288,
      "ĠMin": 3289,
      "Ġcrop": 3290,
      "Ġtrust": 3291,
      "VID": 3292,
      "Ġlocation": 3293,
      "à¤": 3294,
      "Ġrates": 3295,
      "Ġdogs": 3296,
      "Ġseries": 3297,
      "orage": 3298,
      "Ġnews": 3299,
      "Ġexcess": 3300,
      "ĠTechn": 3301,
      "phas": 3302,
      "Ġfuel": 3303,
      "enn": 3304,
      "Ġsection": 3305,
      "Ġvary": 3306,
      "ipl": 3307,
      "Ġdiabetes": 3308,
      "Ġbooks": 3309,
      "ror": 3310,
      "Ġconsumption": 3311,
      "âĢĿ.": 3312,
      "Ġstrugg": 3313,
      "Ġadjust": 3314,
      "den": 3315,
      "Ġroot": 3316,
      "aste": 3317,
      "Ġaspects": 3318,
      "Ġcarry": 3319,
      "clusion": 3320,
      "Ġspirit": 3321,
      "iring": 3322,
      "Ġcolon": 3323,
      "Ġsuccessful": 3324,
      "15": 3325,
      "ructure": 3326,
      "Ġ198": 3327,
      "Ġoriginal": 3328,
      "Ġincorpor": 3329,
      "Ġprivate": 3330,
      "eding": 3331,
      "idge": 3332,
      "IS": 3333,
      "Ġminutes": 3334,
      "ĠUse": 3335,
      "iers": 3336,
      "Ġincluded": 3337,
      "Ġcontext": 3338,
      "more": 3339,
      "Ġinstru": 3340,
      "Ġdark": 3341,
      "lection": 3342,
      "Ġperfect": 3343,
      "Ġcontains": 3344,
      "ĠMost": 3345,
      "ĠScience": 3346,
      "sec": 3347,
      "Ġestablished": 3348,
      "Ġeasier": 3349,
      "Ġmother": 3350,
      "Ġmemory": 3351,
      "Ġfront": 3352,
      "ĠAdditionally": 3353,
      "Ġdepend": 3354,
      "rench": 3355,
      "sc": 3356,
      "bor": 3357,
      "Ġacad": 3358,
      "overed": 3359,
      "Ġexact": 3360,
      "Ġjourney": 3361,
      "Ġeducational": 3362,
      "force": 3363,
      "Ġsea": 3364,
      "ĠEuropean": 3365,
      "ously": 3366,
      "Ġthus": 3367,
      "Ġ13": 3368,
      "ober": 3369,
      "tenance": 3370,
      "Ġplanning": 3371,
      "val": 3372,
      "lands": 3373,
      "Ġhost": 3374,
      "Ġplastic": 3375,
      "Ġimages": 3376,
      "iece": 3377,
      "ios": 3378,
      "ĠGl": 3379,
      "Ġtable": 3380,
      "Ġshap": 3381,
      "Ġeverything": 3382,
      "ĠFe": 3383,
      "ĠNot": 3384,
      "iples": 3385,
      "Ġagree": 3386,
      "mar": 3387,
      "Ġcontroll": 3388,
      "Ġlabor": 3389,
      "Ġast": 3390,
      "Ġund": 3391,
      "Ġasse": 3392,
      "ĠDay": 3393,
      "Ġsoon": 3394,
      "ĠOther": 3395,
      "ĠHist": 3396,
      "osition": 3397,
      "Ġisn": 3398,
      "Ġfra": 3399,
      "Ġthird": 3400,
      "Ġassist": 3401,
      "11": 3402,
      "Ġactions": 3403,
      "iar": 3404,
      "Ġsmo": 3405,
      "ĠOur": 3406,
      "Ġobtain": 3407,
      "Ġvaluable": 3408,
      "Ġpage": 3409,
      "rec": 3410,
      "Ġeconomy": 3411,
      "ĠKing": 3412,
      "Ġconstant": 3413,
      "Ġarchitect": 3414,
      "Ġscreen": 3415,
      "Ġdiv": 3416,
      "Ġweeks": 3417,
      "Ġwa": 3418,
      "ĠMon": 3419,
      "Ġ197": 3420,
      "Ġreported": 3421,
      "iles": 3422,
      "Ġbirds": 3423,
      "uth": 3424,
      "Ġconflic": 3425,
      "Ġearl": 3426,
      "Ã©": 3427,
      "Ġswe": 3428,
      "Ġthous": 3429,
      "Ġsett": 3430,
      "Ġcapital": 3431,
      "Ġconvers": 3432,
      "Pro": 3433,
      "Ġ25": 3434,
      "Ġpregn": 3435,
      "mission": 3436,
      "Ġdepending": 3437,
      "ĠNe": 3438,
      "Ġcapacity": 3439,
      "Ġinflamm": 3440,
      "Ġdetect": 3441,
      "Ġnav": 3442,
      "Ġcontract": 3443,
      "...": 3444,
      "Ġadminist": 3445,
      "olec": 3446,
      "Ġwrite": 3447,
      "Ġconcerns": 3448,
      "Ġnation": 3449,
      "Ġadvance": 3450,
      "Ġplaces": 3451,
      "Ġestim": 3452,
      "Ġbirth": 3453,
      "Ġbase": 3454,
      "Ġcelebr": 3455,
      "Ġrecommended": 3456,
      "Ġremember": 3457,
      "oon": 3458,
      "Ġfear": 3459,
      "Ġrelationships": 3460,
      "Ġpredict": 3461,
      "Ġalcohol": 3462,
      "Ġmuscle": 3463,
      "Ġreduced": 3464,
      "Ġsmaller": 3465,
      "Ġcommer": 3466,
      "osystem": 3467,
      "Ġgradu": 3468,
      "Ġnutrition": 3469,
      "Ġillness": 3470,
      "ino": 3471,
      "elt": 3472,
      "ĠJew": 3473,
      "Ġfert": 3474,
      "ĠIndian": 3475,
      "olar": 3476,
      "Ġvision": 3477,
      "Ġroom": 3478,
      "cean": 3479,
      "vert": 3480,
      "ĠCOVID": 3481,
      "Ġexpert": 3482,
      "nderstanding": 3483,
      "istry": 3484,
      "Ġpresence": 3485,
      "Ġdat": 3486,
      "Ġremove": 3487,
      "ĠJohn": 3488,
      "Ġdiverse": 3489,
      "Ġconnection": 3490,
      "na": 3491,
      "Ġmention": 3492,
      "Ġimag": 3493,
      "Ġmaintaining": 3494,
      "Ġ196": 3495,
      "head": 3496,
      "Ġmouth": 3497,
      "Ġdyn": 3498,
      "Ġattract": 3499,
      "estic": 3500,
      "Ġhistorical": 3501,
      "Ġperspect": 3502,
      "ĠAfrica": 3503,
      "Ġrules": 3504,
      "ĠSm": 3505,
      "However": 3506,
      "ĠAfrican": 3507,
      "ĠDes": 3508,
      "Ġmilitary": 3509,
      "ilit": 3510,
      "Ġcam": 3511,
      "Ġbaby": 3512,
      "iveness": 3513,
      "Ġlocated": 3514,
      "Ġobjects": 3515,
      "Ġemphas": 3516,
      "ĠYork": 3517,
      "ognitive": 3518,
      "encies": 3519,
      "Ġrise": 3520,
      "Ġmaxim": 3521,
      "Ġfully": 3522,
      "ocol": 3523,
      "ĠChild": 3524,
      "urance": 3525,
      "At": 3526,
      "Ġgives": 3527,
      "Ġfresh": 3528,
      "Ġgenetic": 3529,
      "Ġtou": 3530,
      "Ġinstance": 3531,
      "Ġhair": 3532,
      "Ġhope": 3533,
      "Ġadvanced": 3534,
      "ĠAc": 3535,
      "Ġtrade": 3536,
      "Ġsold": 3537,
      "hest": 3538,
      "Ġeffort": 3539,
      "oly": 3540,
      "Ġrare": 3541,
      "ĠTheir": 3542,
      "Ġstim": 3543,
      "wide": 3544,
      "nds": 3545,
      "Ġprobably": 3546,
      "PA": 3547,
      "bal": 3548,
      "related": 3549,
      "arian": 3550,
      "useum": 3551,
      "Ġexisting": 3552,
      "Ġstorage": 3553,
      "rupt": 3554,
      "Ġtheory": 3555,
      "Some": 3556,
      "Ġlength": 3557,
      "ĠDevelop": 3558,
      "Ġflex": 3559,
      "Ġabsor": 3560,
      "gery": 3561,
      "ĠPart": 3562,
      "Ġanti": 3563,
      "ulner": 3564,
      "endly": 3565,
      "Ġconsult": 3566,
      "Ġoccurs": 3567,
      "16": 3568,
      "ĠAre": 3569,
      "He": 3570,
      "ificial": 3571,
      "Ġproperly": 3572,
      "cil": 3573,
      "ĠInc": 3574,
      "Ġhous": 3575,
      "Ġnutrients": 3576,
      "cription": 3577,
      "Ġheld": 3578,
      "Ġfunctions": 3579,
      "Ġmill": 3580,
      "Ġbul": 3581,
      "Ġchallenge": 3582,
      "Ġwond": 3583,
      "load": 3584,
      "Ġolder": 3585,
      "iding": 3586,
      "Ġbeginning": 3587,
      "Ġelectricity": 3588,
      "ĠII": 3589,
      "bit": 3590,
      "ĠRed": 3591,
      "ĠBlack": 3592,
      "ED": 3593,
      "Ġdeal": 3594,
      "ĠCom": 3595,
      "Ġqual": 3596,
      "Ġscale": 3597,
      "Ġprice": 3598,
      "Ġfinal": 3599,
      "IN": 3600,
      "wise": 3601,
      "ensity": 3602,
      "itch": 3603,
      "Ġoperations": 3604,
      "'re": 3605,
      "Ġlines": 3606,
      "Ġtips": 3607,
      "Ġgames": 3608,
      "ĠBo": 3609,
      "Is": 3610,
      "Ġexpected": 3611,
      "Ġbott": 3612,
      "att": 3613,
      "Ġang": 3614,
      "Ġpen": 3615,
      "Ġball": 3616,
      "Ġ40": 3617,
      "ĠRuss": 3618,
      "Ġago": 3619,
      "ĠFirst": 3620,
      "Ġwinter": 3621,
      "ĠSw": 3622,
      "ocks": 3623,
      "Ġdifferences": 3624,
      "Ġthr": 3625,
      "Ġlaws": 3626,
      "orith": 3627,
      "ĠMus": 3628,
      "Ġmal": 3629,
      "ĠAlthough": 3630,
      "amb": 3631,
      "Ġnumerous": 3632,
      "Ġstructures": 3633,
      "Ġdepression": 3634,
      "Ġgoes": 3635,
      "Ġiniti": 3636,
      "Ġcomprehensive": 3637,
      "Ġmetal": 3638,
      "Ġtox": 3639,
      "Ġcateg": 3640,
      "Ġcompletely": 3641,
      "Ġlost": 3642,
      "uments": 3643,
      "Ġincreases": 3644,
      "right": 3645,
      "Ġsou": 3646,
      "haps": 3647,
      "inese": 3648,
      "Ġawareness": 3649,
      "Ġdental": 3650,
      "works": 3651,
      "Ġded": 3652,
      "Ġep": 3653,
      ".)": 3654,
      "elines": 3655,
      "rastructure": 3656,
      "Ġsummer": 3657,
      "Ġresistance": 3658,
      "teries": 3659,
      "onom": 3660,
      "Ġroad": 3661,
      "Ġitems": 3662,
      "Ġtask": 3663,
      "Ġsecure": 3664,
      "Ġcitiz": 3665,
      "Ġserve": 3666,
      "ternal": 3667,
      "ĠSystem": 3668,
      "Ġjud": 3669,
      "Ġdisorder": 3670,
      "Ġelse": 3671,
      "Ġexcell": 3672,
      "Ġdisorders": 3673,
      "Ġvari": 3674,
      "Ġecosystem": 3675,
      "ĠHar": 3676,
      "Ġrain": 3677,
      "raft": 3678,
      "Ġpow": 3679,
      "comes": 3680,
      "ifically": 3681,
      "ran": 3682,
      "Ġexec": 3683,
      "Ġdigest": 3684,
      "Ġappe": 3685,
      "Ġevol": 3686,
      "Ġtrying": 3687,
      "Ġbasis": 3688,
      "Ġtrig": 3689,
      "Ġhosp": 3690,
      "pper": 3691,
      "asts": 3692,
      "Ġmount": 3693,
      "Ġcausing": 3694,
      "Ġi": 3695,
      "Ġhelping": 3696,
      "Ġsetting": 3697,
      "ygen": 3698,
      "ĠFrench": 3699,
      "Ġofficial": 3700,
      "Ġlargest": 3701,
      "Ġtransl": 3702,
      "Ġtopic": 3703,
      "Ġexpand": 3704,
      "Ġcommercial": 3705,
      "oses": 3706,
      "Ġworth": 3707,
      "Ġprofessionals": 3708,
      "Ġcenter": 3709,
      "Ġseek": 3710,
      "aid": 3711,
      "iful": 3712,
      "Ġintelligence": 3713,
      "Ġfost": 3714,
      "Ġmaintenance": 3715,
      "Ġapply": 3716,
      "Ġfruit": 3717,
      "Ġanything": 3718,
      "Ġupd": 3719,
      "Ġforward": 3720,
      "used": 3721,
      "Ġleave": 3722,
      "Ġalone": 3723,
      "Ġvulner": 3724,
      "ĠFin": 3725,
      "Ġrot": 3726,
      "Ġwon": 3727,
      "ĠHer": 3728,
      "Ġmoment": 3729,
      "Ġvict": 3730,
      "Ġdead": 3731,
      "Ġfeature": 3732,
      "uman": 3733,
      "Ġtemperatures": 3734,
      "mosp": 3735,
      "Ġvia": 3736,
      "ĠAccording": 3737,
      "leg": 3738,
      "Ġcollection": 3739,
      "ĠCommun": 3740,
      "odes": 3741,
      "Ġdetails": 3742,
      "Ġplanet": 3743,
      "14": 3744,
      "Ġsmart": 3745,
      "ula": 3746,
      "Ġdivers": 3747,
      "uild": 3748,
      "ask": 3749,
      "Ġencourage": 3750,
      "Ġcou": 3751,
      "Ġbelief": 3752,
      "Ġimproved": 3753,
      "Ġstories": 3754,
      "cious": 3755,
      "Ġmonitoring": 3756,
      "17": 3757,
      "Ġpolicies": 3758,
      "undred": 3759,
      "oday": 3760,
      "Ġplays": 3761,
      "ĠEven": 3762,
      "AC": 3763,
      "Ġcurrently": 3764,
      "ĠWater": 3765,
      "Ġinstruct": 3766,
      "Ġdegree": 3767,
      "ses": 3768,
      "Ġbrought": 3769,
      "Ġalthough": 3770,
      "Ġalternative": 3771,
      "Ġtransfer": 3772,
      "Ġnuc": 3773,
      "Ġinvolve": 3774,
      "ament": 3775,
      "Ġ194": 3776,
      "Ġplans": 3777,
      "ĠLet": 3778,
      "ĠCenter": 3779,
      "Ġbecoming": 3780,
      "Ġsave": 3781,
      "pe": 3782,
      "Ġtown": 3783,
      "Ġstyle": 3784,
      "Ġapplied": 3785,
      "ibly": 3786,
      "Ġprocessing": 3787,
      "ĠInstitute": 3788,
      "Ġ2020": 3789,
      "Ġ24": 3790,
      "Ġmoist": 3791,
      "ĠOver": 3792,
      "Ġfactor": 3793,
      "Ġrecy": 3794,
      "Ġindustrial": 3795,
      "ided": 3796,
      "Ġteach": 3797,
      "ĠSim": 3798,
      "rig": 3799,
      "Ġmolec": 3800,
      "ĠServ": 3801,
      "Ġhorm": 3802,
      "Ġchronic": 3803,
      "icip": 3804,
      "lim": 3805,
      "Ġgiving": 3806,
      "Ġprint": 3807,
      "Ġalgorith": 3808,
      "Ġdrugs": 3809,
      "erences": 3810,
      "Ġlayer": 3811,
      "Ġord": 3812,
      "Ġglass": 3813,
      "Ġincome": 3814,
      "ĠMy": 3815,
      "Ġinfections": 3816,
      "airs": 3817,
      "Ġsites": 3818,
      "Ġinsect": 3819,
      "Ġowners": 3820,
      "Ġcycle": 3821,
      "Ġbed": 3822,
      "ĠTherefore": 3823,
      "Ġteacher": 3824,
      "isation": 3825,
      "ĠUK": 3826,
      "Ġpoly": 3827,
      "Ġreligious": 3828,
      "ony": 3829,
      "gy": 3830,
      "iforn": 3831,
      "ĠEducation": 3832,
      "Ġdecl": 3833,
      "ĠProg": 3834,
      "ĠInternational": 3835,
      "Ġgot": 3836,
      "Ġcombination": 3837,
      "Ġreceived": 3838,
      "house": 3839,
      "Ġrenew": 3840,
      "Ġrunning": 3841,
      "uting": 3842,
      "Ġaccurate": 3843,
      "ĠChinese": 3844,
      "anc": 3845,
      "Ġdisplay": 3846,
      "aught": 3847,
      "Ġgold": 3848,
      "Ġbound": 3849,
      "Ġstaff": 3850,
      "Ġresource": 3851,
      "ĠHigh": 3852,
      "Ġchance": 3853,
      "Ġscen": 3854,
      "ĠEd": 3855,
      "Ġmiss": 3856,
      "Ġfix": 3857,
      "Ġideal": 3858,
      "eech": 3859,
      "ishing": 3860,
      "Ġreality": 3861,
      "Ġhyp": 3862,
      "Ġcharacteristics": 3863,
      "ashing": 3864,
      "igen": 3865,
      "Ġtechnique": 3866,
      "):": 3867,
      "oice": 3868,
      "Ġweak": 3869,
      "Ġsituations": 3870,
      "ius": 3871,
      "irection": 3872,
      "Ġassign": 3873,
      "Ġbodies": 3874,
      "estyle": 3875,
      "bre": 3876,
      "Ġseeds": 3877,
      "ev": 3878,
      "Ġrelevant": 3879,
      "Ġblue": 3880,
      "Ġdate": 3881,
      "Ġtreatments": 3882,
      "Ġsuppl": 3883,
      "Ġtissue": 3884,
      "Ġbox": 3885,
      "AN": 3886,
      "Ġexperienced": 3887,
      "rees": 3888,
      "Ġregions": 3889,
      "Ġfeeling": 3890,
      "Ġhol": 3891,
      "And": 3892,
      "ĠMod": 3893,
      "Ġhomes": 3894,
      "Ġconnected": 3895,
      "Ġprefer": 3896,
      "ilos": 3897,
      "Ġinfrastructure": 3898,
      "Ġhon": 3899,
      "ĠTrans": 3900,
      "Ġchanging": 3901,
      "ĠDuring": 3902,
      "Ġfair": 3903,
      "Ġmanufacture": 3904,
      "ords": 3905,
      "ĠEl": 3906,
      "Ġseems": 3907,
      "Ġpartners": 3908,
      "Im": 3909,
      "place": 3910,
      "Ġes": 3911,
      "Ġmig": 3912,
      "Ġregularly": 3913,
      "Ġinvestment": 3914,
      "Ġmoving": 3915,
      "ĠÂ": 3916,
      "Ġacademic": 3917,
      "ifornia": 3918,
      "Ġmanufacturing": 3919,
      "Ġresulting": 3920,
      "Ġbud": 3921,
      "ĠAnt": 3922,
      "Ġpeace": 3923,
      "Ġimproving": 3924,
      "Ġtrial": 3925,
      "Ġacqu": 3926,
      "Ġelectrical": 3927,
      "Ġexch": 3928,
      "Ġimpacts": 3929,
      "Ġstore": 3930,
      "ulating": 3931,
      "Ġstrategy": 3932,
      "Ġoutcomes": 3933,
      "ĠJes": 3934,
      "hetic": 3935,
      "ĠWill": 3936,
      "urt": 3937,
      "Why": 3938,
      "Ġrevolution": 3939,
      "zing": 3940,
      "Ġneu": 3941,
      "Ġorganic": 3942,
      "Ġstatus": 3943,
      "ĠRead": 3944,
      "ifying": 3945,
      "Ġfile": 3946,
      "arent": 3947,
      "Ġmedicine": 3948,
      "Ġliqu": 3949,
      "que": 3950,
      "ĠThen": 3951,
      "Ġgeneration": 3952,
      "ressive": 3953,
      "IC": 3954,
      "uary": 3955,
      "thern": 3956,
      "Ġexperts": 3957,
      "Ġprinciples": 3958,
      "Ġurban": 3959,
      "Ġpiece": 3960,
      "Ġnearly": 3961,
      "Ġemail": 3962,
      "Ġperce": 3963,
      "Ġcris": 3964,
      "Ġantib": 3965,
      "ĠAut": 3966,
      "13": 3967,
      "Ġcontinues": 3968,
      "Ġemotions": 3969,
      "Ġsaw": 3970,
      "aled": 3971,
      "ĠCanada": 3972,
      "ira": 3973,
      "Ġhundred": 3974,
      "Ġagg": 3975,
      "Ġmilk": 3976,
      "Ġboost": 3977,
      "urally": 3978,
      "ĠDepartment": 3979,
      "Ġvitamin": 3980,
      "Ġfrequently": 3981,
      "Ġoxygen": 3982,
      "Ġwent": 3983,
      "Ġhttps": 3984,
      "Ġreplace": 3985,
      "Ġdistinct": 3986,
      "ĠGree": 3987,
      "poses": 3988,
      "ĠCount": 3989,
      "Ġincl": 3990,
      "Ġallowed": 3991,
      "Ġatmosp": 3992,
      "Ġbattery": 3993,
      "ĠRem": 3994,
      "Ġelimin": 3995,
      "Ġcoming": 3996,
      "Ġrock": 3997,
      "Ġwhose": 3998,
      "Ġwidely": 3999,
      "ĠProf": 4000,
      "Ġmiddle": 4001,
      "Ġbuy": 4002,
      "Ġready": 4003,
      "Ġmotiv": 4004,
      "ype": 4005,
      "Ġvegetables": 4006,
      "Ġbone": 4007,
      "hether": 4008,
      "Ġshall": 4009,
      "eces": 4010,
      "iter": 4011,
      "âĢ¢": 4012,
      "Ġstream": 4013,
      "ued": 4014,
      "Ġbank": 4015,
      "Ġinternet": 4016,
      "Ġchallenging": 4017,
      "rick": 4018,
      "ĠEach": 4019,
      "Ġsuitable": 4020,
      "Ġplaced": 4021,
      "Ġinjury": 4022,
      "Ġpick": 4023,
      "Ġattempt": 4024,
      "ĠChar": 4025,
      "Ġdrive": 4026,
      "Ġcognitive": 4027,
      "Ġcities": 4028,
      "Ġcore": 4029,
      "ulum": 4030,
      "efore": 4031,
      "ĠAlso": 4032,
      "heck": 4033,
      "Ġbeneficial": 4034,
      "Ġtail": 4035,
      "Ġinstit": 4036,
      "anging": 4037,
      "year": 4038,
      "ĠIts": 4039,
      "Ġtim": 4040,
      "known": 4041,
      "oe": 4042,
      "unch": 4043,
      "hemat": 4044,
      "hab": 4045,
      "Ġinsights": 4046,
      "Ġinflammation": 4047,
      "Ġidentified": 4048,
      "itor": 4049,
      "Ġstarting": 4050,
      "Ġkid": 4051,
      "ĠWest": 4052,
      "Ġemployees": 4053,
      "enses": 4054,
      "atch": 4055,
      "Ġrelease": 4056,
      "Ġrelatively": 4057,
      "Ġpractical": 4058,
      "ĠGerman": 4059,
      "Ġhappen": 4060,
      "Ġrecently": 4061,
      "Ġpollution": 4062,
      "Ġgender": 4063,
      "Ġparent": 4064,
      "iny": 4065,
      "Here": 4066,
      "amental": 4067,
      "Ġwid": 4068,
      "Another": 4069,
      "ĠPeople": 4070,
      "Ġrefers": 4071,
      "Ġtour": 4072,
      "Ġfields": 4073,
      "Ġpotentially": 4074,
      "ĠCalifornia": 4075,
      "ĠJan": 4076,
      "Ġsector": 4077,
      "Ġoral": 4078,
      "Ġhear": 4079,
      "Ġharmful": 4080,
      "vironments": 4081,
      "Ġexcellent": 4082,
      "Ġlandscape": 4083,
      "Ġconcepts": 4084,
      "Ġcert": 4085,
      "ux": 4086,
      "ĠData": 4087,
      "Ġice": 4088,
      "ĠPark": 4089,
      "onds": 4090,
      "Ġ/": 4091,
      "Ġsurgery": 4092,
      "Ġconsequences": 4093,
      "Ġmit": 4094,
      "Ġrat": 4095,
      "ĠAmericans": 4096,
      "Ġmember": 4097,
      "Ġheavy": 4098,
      "ĠProt": 4099,
      "enty": 4100,
      "Ġconclusion": 4101,
      "going": 4102,
      "Ġforces": 4103,
      "Ġneigh": 4104,
      "Ġclinical": 4105,
      "Ġdescribed": 4106,
      "Ġrule": 4107,
      "Ġroutine": 4108,
      "Ġprepar": 4109,
      "usive": 4110,
      "ought": 4111,
      "CO": 4112,
      "uff": 4113,
      "Ġfollowed": 4114,
      "Ġmuscles": 4115,
      "hern": 4116,
      "Ġadvantage": 4117,
      "Ġelement": 4118,
      "Ġclassroom": 4119,
      "ping": 4120,
      "hyd": 4121,
      "Ġdur": 4122,
      "Ġfavor": 4123,
      "Ġexhib": 4124,
      "ession": 4125,
      "Ġbillion": 4126,
      "Ġborn": 4127,
      "Ġfacilit": 4128,
      "Ġinteresting": 4129,
      "edom": 4130,
      "Ġamounts": 4131,
      "Ġhuge": 4132,
      "ĠAv": 4133,
      "Ġfederal": 4134,
      "Ġinternal": 4135,
      "ĠOnce": 4136,
      "Ġmid": 4137,
      "Ġfeelings": 4138,
      "Ġengineering": 4139,
      "inated": 4140,
      "They": 4141,
      "Ġbuildings": 4142,
      "Ġmajority": 4143,
      "Ġrepe": 4144,
      "Ġder": 4145,
      "Ġpip": 4146,
      "ĠGreat": 4147,
      "ĠJesus": 4148,
      "Ġkeeping": 4149,
      "ero": 4150,
      "lev": 4151,
      "Ġnotice": 4152,
      "Ġdirection": 4153,
      "Ġsav": 4154,
      "Ġasked": 4155,
      "Ġmedications": 4156,
      "Ġextremely": 4157,
      "Ġsequ": 4158,
      "Ġingred": 4159,
      "ĠSur": 4160,
      "ĠGra": 4161,
      "vious": 4162,
      "Ġassessment": 4163,
      "ĠJu": 4164,
      "Ġfemale": 4165,
      "Ġcareer": 4166,
      "Ġconstruct": 4167,
      "ingu": 4168,
      "Ġcyber": 4169,
      "Ġenvironments": 4170,
      "Ġleads": 4171,
      "Ġlifestyle": 4172,
      "char": 4173,
      "unction": 4174,
      "Ġ,": 4175,
      "Ġoccup": 4176,
      "book": 4177,
      "agement": 4178,
      "Ġallerg": 4179,
      "cling": 4180,
      "med": 4181,
      "Ġfindings": 4182,
      "inting": 4183,
      "ĠAssoci": 4184,
      "ieties": 4185,
      "isl": 4186,
      "formation": 4187,
      "Ġcoast": 4188,
      "Ġpric": 4189,
      "ĠTw": 4190,
      "ĠBecause": 4191,
      "Ġnothing": 4192,
      "espite": 4193,
      "Ġsolid": 4194,
      "Ġtold": 4195,
      "Ġframew": 4196,
      "reet": 4197,
      "porary": 4198,
      "rete": 4199,
      "Ġdistance": 4200,
      "Ġten": 4201,
      "Ġmotor": 4202,
      "iest": 4203,
      "Ġimmediately": 4204,
      "ĠWork": 4205,
      "Ġapprox": 4206,
      "Ġiron": 4207,
      "Ġnative": 4208,
      "rome": 4209,
      "Ġtit": 4210,
      "Ġvehicle": 4211,
      "Ġshared": 4212,
      "Ġrecovery": 4213,
      "Ġearlier": 4214,
      "Ġbelieved": 4215,
      "Ġidentity": 4216,
      "Ġdiscover": 4217,
      "Ġdangerous": 4218,
      "Ġhearing": 4219,
      "Ġfaster": 4220,
      "rapy": 4221,
      "Ġdecades": 4222,
      "Ġconservation": 4223,
      "Ġbeautiful": 4224,
      "EM": 4225,
      "uk": 4226,
      "acing": 4227,
      "Ġaffects": 4228,
      "Ġunit": 4229,
      "Ġsch": 4230,
      "Ġ=": 4231,
      "craft": 4232,
      "Ġessay": 4233,
      "ĠAug": 4234,
      "ĠEnvironment": 4235,
      "rep": 4236,
      "Ġhaz": 4237,
      "Ġbackground": 4238,
      "Ġdiscovered": 4239,
      "ĠGovern": 4240,
      "Ġmist": 4241,
      "abric": 4242,
      "IT": 4243,
      "Ġboard": 4244,
      "After": 4245,
      "orthern": 4246,
      "riculum": 4247,
      "Ġcredit": 4248,
      "Ġtreated": 4249,
      "Ġload": 4250,
      "Ġdisp": 4251,
      "rael": 4252,
      "Ġhousehold": 4253,
      "Ġcourt": 4254,
      "Ġchemicals": 4255,
      "Ġdri": 4256,
      "Ġpurposes": 4257,
      "ĠPat": 4258,
      "Ġsuggests": 4259,
      "Ġwear": 4260,
      "rief": 4261,
      "OR": 4262,
      "Ġregulations": 4263,
      "Ġwoman": 4264,
      "ĠVal": 4265,
      "aign": 4266,
      "Ġburn": 4267,
      "urthermore": 4268,
      "ĠRiver": 4269,
      "ibrary": 4270,
      "Ġparticipants": 4271,
      "Ġjoint": 4272,
      "Ġinitial": 4273,
      "ĠNow": 4274,
      "ares": 4275,
      "ieces": 4276,
      "ĠJust": 4277,
      "ocr": 4278,
      "Ġaid": 4279,
      "ĠSince": 4280,
      "Ġcommand": 4281,
      "era": 4282,
      "Ġthoughts": 4283,
      "Ġillust": 4284,
      "Ġdiagnosis": 4285,
      "Ġcompar": 4286,
      "Ġhappens": 4287,
      "Ġeggs": 4288,
      "âĢĿ,": 4289,
      "Ġlinked": 4290,
      "Ġwel": 4291,
      "Ġindustries": 4292,
      "Ġ60": 4293,
      "Ġchanged": 4294,
      "Ġcontinued": 4295,
      "Ġincreasingly": 4296,
      "Ġking": 4297,
      "Ġcitizens": 4298,
      "Ġinfluen": 4299,
      "Ġmut": 4300,
      "Ġfather": 4301,
      "Ġattacks": 4302,
      "Ġther": 4303,
      "Ġthousands": 4304,
      "Ġspring": 4305,
      "Ġevolution": 4306,
      "onic": 4307,
      "omb": 4308,
      "Ġspect": 4309,
      "iences": 4310,
      "Ġdeliver": 4311,
      "uses": 4312,
      "Ġgraph": 4313,
      "rote": 4314,
      "Un": 4315,
      "athy": 4316,
      "Ġfinding": 4317,
      "ibilities": 4318,
      "ĠBar": 4319,
      "mal": 4320,
      "ĠFood": 4321,
      "Ġresil": 4322,
      "Ġwrong": 4323,
      "Ġemergency": 4324,
      "pris": 4325,
      "Ġsche": 4326,
      "Ġfruits": 4327,
      "ocal": 4328,
      "anish": 4329,
      "According": 4330,
      "Ġspot": 4331,
      "ogle": 4332,
      "Ġpref": 4333,
      "Ġprocedure": 4334,
      "www": 4335,
      "Ġphen": 4336,
      "Ġinstitutions": 4337,
      "ĠDNA": 4338,
      "Ġadvice": 4339,
      "off": 4340,
      "Ġcats": 4341,
      "Ġregarding": 4342,
      "Ġpand": 4343,
      "ĠBra": 4344,
      "Ġcreation": 4345,
      "tical": 4346,
      "Ġcand": 4347,
      "Ġvehicles": 4348,
      "aur": 4349,
      "Ġinput": 4350,
      "Ġhelpful": 4351,
      "Ġgets": 4352,
      "Ġoutput": 4353,
      "Ġcolors": 4354,
      "apter": 4355,
      "Ġbird": 4356,
      "ogen": 4357,
      "bl": 4358,
      "Ġversion": 4359,
      "Ġalign": 4360,
      "Ġdistribution": 4361,
      "EN": 4362,
      "iant": 4363,
      "Ġanyone": 4364,
      "ightly": 4365,
      "ĠMarch": 4366,
      "ON": 4367,
      "Ġspeech": 4368,
      "ĠChristian": 4369,
      "Ġfailure": 4370,
      "rows": 4371,
      "Ġcounter": 4372,
      "Ġlov": 4373,
      "ken": 4374,
      "Ġtechnical": 4375,
      "atically": 4376,
      "Ġconducted": 4377,
      "raw": 4378,
      "Ġdrop": 4379,
      "ĠAustralia": 4380,
      "PS": 4381,
      "Ġhighest": 4382,
      "ĠLearning": 4383,
      "ager": 4384,
      "Ġinformed": 4385,
      "board": 4386,
      "Ġrein": 4387,
      "Ġthick": 4388,
      "Ġfocused": 4389,
      "Ġcomponent": 4390,
      "Ġgir": 4391,
      "ube": 4392,
      "Ġsynt": 4393,
      "Ġdriving": 4394,
      "Ġoutd": 4395,
      "Ġstri": 4396,
      "ara": 4397,
      "idity": 4398,
      "200": 4399,
      "Ġsensitive": 4400,
      "Ġmaster": 4401,
      "Ġoffice": 4402,
      "Ġves": 4403,
      "mitted": 4404,
      "SA": 4405,
      "ĠNet": 4406,
      "Ġoperation": 4407,
      "Ġspecifically": 4408,
      "zz": 4409,
      "Ġvirtual": 4410,
      "Ġsexual": 4411,
      "my": 4412,
      "Ġnamed": 4413,
      "Ġphilos": 4414,
      "Ġreports": 4415,
      "Ġsignificance": 4416,
      "Ġbarri": 4417,
      "ste": 4418,
      "inating": 4419,
      "wards": 4420,
      "ĠOct": 4421,
      "Ġequal": 4422,
      "Ġdepends": 4423,
      "ĠCour": 4424,
      "Ġseparate": 4425,
      "Our": 4426,
      "Ġdestro": 4427,
      "Ġdefined": 4428,
      "Ġopin": 4429,
      "Ġmeat": 4430,
      "Ġfarmers": 4431,
      "Ġeventually": 4432,
      "Ġexternal": 4433,
      "Ġgenerate": 4434,
      "Ġpul": 4435,
      "Ġnetworks": 4436,
      "Ġgum": 4437,
      "cop": 4438,
      "Ġplaying": 4439,
      "chain": 4440,
      "Ġworked": 4441,
      "Ġgoods": 4442,
      "Ġintroduced": 4443,
      "Ġpicture": 4444,
      "lor": 4445,
      "ĠEngland": 4446,
      "Ġmonitor": 4447,
      "Ġdivid": 4448,
      "Ġoffering": 4449,
      "ĠSocial": 4450,
      "Ġcircum": 4451,
      "Ġsurrounding": 4452,
      "ĠIsrael": 4453,
      "Ġformed": 4454,
      "ama": 4455,
      "orial": 4456,
      "Ġexposed": 4457,
      "Ġinterpret": 4458,
      "Ġmission": 4459,
      "roid": 4460,
      "IV": 4461,
      "Ġdesp": 4462,
      "uit": 4463,
      "Ġpal": 4464,
      "ica": 4465,
      "imens": 4466,
      "ortunately": 4467,
      "Ġflood": 4468,
      "pril": 4469,
      "ico": 4470,
      "can": 4471,
      "Ġmedication": 4472,
      "Con": 4473,
      "gment": 4474,
      "ĠHistory": 4475,
      "Ġdent": 4476,
      "ĠSk": 4477,
      "vered": 4478,
      "Ġadvantages": 4479,
      "ĠCoun": 4480,
      "Ġrelax": 4481,
      "Ġforeign": 4482,
      "ĠDon": 4483,
      "eper": 4484,
      "bed": 4485,
      "see": 4486,
      "Ġunf": 4487,
      "Ġdidn": 4488,
      "Ġpopulations": 4489,
      "ĠCity": 4490,
      "Ġlung": 4491,
      "Ġbran": 4492,
      "Ġchoices": 4493,
      "Many": 4494,
      "ĠVir": 4495,
      "ĠConst": 4496,
      "Ġden": 4497,
      "Ġsports": 4498,
      "Ġmap": 4499,
      "met": 4500,
      "Ġoperating": 4501,
      "Ġvast": 4502,
      "Ġfamous": 4503,
      "25": 4504,
      "ffee": 4505,
      "Ġign": 4506,
      "ented": 4507,
      "ias": 4508,
      "DA": 4509,
      "Ġ21": 4510,
      "Ġlearned": 4511,
      "Ġmentioned": 4512,
      "Ġguidance": 4513,
      "Ġreduction": 4514,
      "Ġcreative": 4515,
      "mat": 4516,
      "Ġroots": 4517,
      "Ġphase": 4518,
      "asion": 4519,
      "erate": 4520,
      "asting": 4521,
      "Ġsurvey": 4522,
      "Ġcoord": 4523,
      "Ġjournal": 4524,
      "igenous": 4525,
      "ĠPlan": 4526,
      "Ġinterested": 4527,
      "ĠInter": 4528,
      "Ġprimarily": 4529,
      "Ġtransact": 4530,
      "Ġ2021": 4531,
      "Ġ2019": 4532,
      "Ġperformed": 4533,
      "ball": 4534,
      "Ġfine": 4535,
      "Ġfertil": 4536,
      "Ġresponsibility": 4537,
      "Ġhighlight": 4538,
      "Ġpromoting": 4539,
      "ĠSept": 4540,
      "Ġgrass": 4541,
      "Ġfib": 4542,
      "icro": 4543,
      "Ġviolence": 4544,
      "All": 4545,
      "Ġhabits": 4546,
      "Ġinjuries": 4547,
      "Ġcarried": 4548,
      "Ġshowed": 4549,
      "Ġflowers": 4550,
      "ĠDevelopment": 4551,
      "Ġconcern": 4552,
      "Ġartificial": 4553,
      "Ġguidelines": 4554,
      "active": 4555,
      "Ġclick": 4556,
      "ss": 4557,
      "Ġfundamental": 4558,
      "Ġmel": 4559,
      "Ġbreast": 4560,
      "Ġdatab": 4561,
      "Ġmanaging": 4562,
      "Ġnotes": 4563,
      "Ġhimself": 4564,
      "ĠUN": 4565,
      "ded": 4566,
      "Ġenable": 4567,
      "Ġsteel": 4568,
      "Ġblog": 4569,
      "rum": 4570,
      "alt": 4571,
      "ĠThrough": 4572,
      "Ġcleaning": 4573,
      "Ġreferred": 4574,
      "Ġcontrast": 4575,
      "Ġstatement": 4576,
      "Ġfigure": 4577,
      "cers": 4578,
      "Ġrecords": 4579,
      "ologist": 4580,
      "oma": 4581,
      "Ġprocedures": 4582,
      "Ġvessel": 4583,
      "Ġvill": 4584,
      "pass": 4585,
      "Ġobserved": 4586,
      "Ġreprodu": 4587,
      "tion": 4588,
      "Ġconflict": 4589,
      "Ġunivers": 4590,
      "Ġcustomers": 4591,
      "Ġmale": 4592,
      "Ġdied": 4593,
      "Ġsac": 4594,
      "Ġeight": 4595,
      "Ġfabric": 4596,
      "Ġnorth": 4597,
      "Ġappearance": 4598,
      "Ġtopics": 4599,
      "Ġpassed": 4600,
      "Ġsand": 4601,
      "Ġmessage": 4602,
      "ĠOrgan": 4603,
      "Ġapprec": 4604,
      "Ġfasc": 4605,
      "Ġpieces": 4606,
      "ĠMake": 4607,
      "Ġnovel": 4608,
      "Ġskill": 4609,
      "Ġinnovation": 4610,
      "Ġadding": 4611,
      "umin": 4612,
      "Ġtrou": 4613,
      "Ġnames": 4614,
      "ĠJune": 4615,
      "free": 4616,
      "Ġfilm": 4617,
      "Ġapproaches": 4618,
      "Ġenab": 4619,
      "othing": 4620,
      "Ġrecognize": 4621,
      "Ġdiversity": 4622,
      "Ġprepared": 4623,
      "ups": 4624,
      "gin": 4625,
      "Ġintegr": 4626,
      "oking": 4627,
      "rich": 4628,
      "Ġclasses": 4629,
      "men": 4630,
      "Ġensures": 4631,
      "Ġchain": 4632,
      "Ġwealth": 4633,
      "Ġstraight": 4634,
      "Ġseed": 4635,
      "Ġperiods": 4636,
      "down": 4637,
      "Ġx": 4638,
      "ĠRoman": 4639,
      "Ġformer": 4640,
      "ĠLaw": 4641,
      "order": 4642,
      "Ġdefic": 4643,
      "Ġactual": 4644,
      "Ġvaccine": 4645,
      "ĠTest": 4646,
      "Ġoffic": 4647,
      "ĠAugust": 4648,
      "Ġsouth": 4649,
      "ĠEast": 4650,
      "Ġadult": 4651,
      "Ġreliable": 4652,
      "Ġcampaign": 4653,
      "Ġcloud": 4654,
      "Ġtransition": 4655,
      "Ġcrisis": 4656,
      "Ġspiritual": 4657,
      "Ġexperiment": 4658,
      "Ar": 4659,
      "Ġsounds": 4660,
      "Ġyellow": 4661,
      "lin": 4662,
      "Ġcardi": 4663,
      "ĠCor": 4664,
      "Ġcovered": 4665,
      "Ġisol": 4666,
      "Ġheight": 4667,
      "making": 4668,
      "urg": 4669,
      "Ġextensive": 4670,
      "ĠRo": 4671,
      "cont": 4672,
      "EC": 4673,
      "Ġplayers": 4674,
      "Ġspend": 4675,
      "Ġindependent": 4676,
      "ĠSpec": 4677,
      "Ġmiles": 4678,
      "Ġbottom": 4679,
      "ĠSupp": 4680,
      "Ġmobile": 4681,
      "Ġlanguages": 4682,
      "ĠPol": 4683,
      "akers": 4684,
      "Ġpandemic": 4685,
      "Sh": 4686,
      "Ġconver": 4687,
      "resp": 4688,
      "Ġtruth": 4689,
      "Ġmovements": 4690,
      "pped": 4691,
      "Ġexactly": 4692,
      "ams": 4693,
      "part": 4694,
      "Ġperspective": 4695,
      "pen": 4696,
      "Ġgar": 4697,
      "sol": 4698,
      "Ġclos": 4699,
      "ceed": 4700,
      "anges": 4701,
      "omy": 4702,
      "itage": 4703,
      "ĠGreen": 4704,
      "eline": 4705,
      "ĠChildren": 4706,
      "Ġbelong": 4707,
      "Ġprecise": 4708,
      "Ġhandle": 4709,
      "Ġconsistent": 4710,
      "Ġtraum": 4711,
      "ĠPresident": 4712,
      "iment": 4713,
      "ĠHel": 4714,
      "Ġvent": 4715,
      "udd": 4716,
      "Ġsatis": 4717,
      "ĠProgram": 4718,
      "Ġocean": 4719,
      "ypes": 4720,
      "Ġhelped": 4721,
      "cript": 4722,
      "Ġfoundation": 4723,
      "Ġwrote": 4724,
      "Res": 4725,
      "flow": 4726,
      "gra": 4727,
      "Ġfreedom": 4728,
      "Ġsample": 4729,
      "Ġapproximately": 4730,
      "Ġlatest": 4731,
      "iling": 4732,
      "Ðµ": 4733,
      "Ġengaging": 4734,
      "Ġreleased": 4735,
      "ĠMex": 4736,
      "hips": 4737,
      "ipped": 4738,
      "Ġdetailed": 4739,
      "Ġdrinking": 4740,
      "Ġcutting": 4741,
      "Ġminor": 4742,
      "Ġliterature": 4743,
      "Ġassum": 4744,
      "Ġtum": 4745,
      "Ph": 4746,
      "othes": 4747,
      "Ġalt": 4748,
      "Ġperhaps": 4749,
      "ĠCong": 4750,
      "ĠDec": 4751,
      "Ġfacilities": 4752,
      "Ġpros": 4753,
      "Ġmathemat": 4754,
      "gypt": 4755,
      "hors": 4756,
      "faces": 4757,
      "Ġshar": 4758,
      "atural": 4759,
      "Ġterrit": 4760,
      "Ġpump": 4761,
      "Ġ2018": 4762,
      "Ġsimpl": 4763,
      "Ġvolume": 4764,
      "Now": 4765,
      "Ġlegisl": 4766,
      "ĠSaf": 4767,
      "Ġmetab": 4768,
      "Ġsignal": 4769,
      "Ġplayed": 4770,
      "icious": 4771,
      "Ġtraffic": 4772,
      "Ġtoxic": 4773,
      "Ġseeking": 4774,
      "Over": 4775,
      "Ġriver": 4776,
      "Ġtrib": 4777,
      "Ġthor": 4778,
      "idential": 4779,
      "Ġfaith": 4780,
      "Ġatmosphere": 4781,
      "ascular": 4782,
      "Ġcollege": 4783,
      "ĠJapanese": 4784,
      "Ġappears": 4785,
      "Ġparticles": 4786,
      "ographic": 4787,
      "Sp": 4788,
      "ĠBen": 4789,
      "Ġcommunicate": 4790,
      "Ġaren": 4791,
      "essor": 4792,
      "Ġaccessible": 4793,
      "Ġcustomer": 4794,
      "ĠApril": 4795,
      "ĠEnergy": 4796,
      "Ġvictim": 4797,
      "ushing": 4798,
      "Ġpresented": 4799,
      "rab": 4800,
      "Ġworldwide": 4801,
      "anted": 4802,
      "Ġmeeting": 4803,
      "Do": 4804,
      "Ġtouch": 4805,
      "ndrome": 4806,
      "Ġclearly": 4807,
      "ologists": 4808,
      "ST": 4809,
      "inding": 4810,
      "ĠChurch": 4811,
      "ĠUsing": 4812,
      "Ġnerv": 4813,
      "Ġdegrees": 4814,
      "Ġparam": 4815,
      "atin": 4816,
      "fri": 4817,
      "Ġlic": 4818,
      "Ġexercises": 4819,
      "60": 4820,
      "Ġsupporting": 4821,
      "Ġclim": 4822,
      "Ġtransportation": 4823,
      "ĠJuly": 4824,
      "Ġjobs": 4825,
      "Ġsettings": 4826,
      "Ġhom": 4827,
      "ĠGoogle": 4828,
      "Ġcurriculum": 4829,
      "Ġson": 4830,
      "Ġcollaboration": 4831,
      "ĠCur": 4832,
      "Ġbudget": 4833,
      "ĠDav": 4834,
      "Ġbehaviors": 4835,
      "Ġreaction": 4836,
      "Ġsus": 4837,
      "inter": 4838,
      "Ġcharge": 4839,
      "ĠRel": 4840,
      "Ġfrequency": 4841,
      "Ġroll": 4842,
      "cember": 4843,
      "Ġmoisture": 4844,
      "Ġpreventing": 4845,
      "Ġunderlying": 4846,
      "emy": 4847,
      "22": 4848,
      "lements": 4849,
      "ashington": 4850,
      "Ġmanner": 4851,
      "Ġmag": 4852,
      "aul": 4853,
      "Ġscenar": 4854,
      "Ġremote": 4855,
      "rency": 4856,
      "Ġcenturies": 4857,
      "Ġagricultural": 4858,
      "Ġfeedback": 4859,
      "Ġphone": 4860,
      "cap": 4861,
      "ĠST": 4862,
      "Ġmostly": 4863,
      "Ġgovernments": 4864,
      "ollow": 4865,
      "Ġmainly": 4866,
      "Ġvoice": 4867,
      "Ġgave": 4868,
      "Ġradiation": 4869,
      "ingly": 4870,
      "Ġadequ": 4871,
      "Ġattrib": 4872,
      "Be": 4873,
      "eria": 4874,
      "Ġnuclear": 4875,
      "erals": 4876,
      "aint": 4877,
      "ET": 4878,
      "ormal": 4879,
      "ĠJour": 4880,
      "Ġbreathing": 4881,
      "Ġintake": 4882,
      "Ġpregnancy": 4883,
      "Ġcrypt": 4884,
      "ĠFeb": 4885,
      "ĠUnion": 4886,
      "Ġgene": 4887,
      "Ġsustainability": 4888,
      "yth": 4889,
      "Ġfiber": 4890,
      "Ġindicate": 4891,
      "ĠSy": 4892,
      "Ġcoffee": 4893,
      "Ġpu": 4894,
      "des": 4895,
      "Ġhunt": 4896,
      "Ġremoved": 4897,
      "Ġcreates": 4898,
      "Ġmath": 4899,
      "bing": 4900,
      "ĠEgypt": 4901,
      "Ġinstrument": 4902,
      "ĠTechnology": 4903,
      "ĠInternet": 4904,
      "inder": 4905,
      "Ġspaces": 4906,
      "Ġfluid": 4907,
      "Ġsalt": 4908,
      "Ġconsumers": 4909,
      "Ġrenewable": 4910,
      "Ġliquid": 4911,
      "ĠGermany": 4912,
      "Ġliver": 4913,
      "Ġfamiliar": 4914,
      "ĠSeptember": 4915,
      "che": 4916,
      "arant": 4917,
      "Although": 4918,
      "Ġreduces": 4919,
      "Can": 4920,
      "Ġcultiv": 4921,
      "Ġsong": 4922,
      "Ġexchange": 4923,
      "Ġdepth": 4924,
      "roph": 4925,
      "ovember": 4926,
      "ĠJanuary": 4927,
      "AM": 4928,
      "ĠThus": 4929,
      "Ġplatforms": 4930,
      "Ġformation": 4931,
      "ĠEvery": 4932,
      "ĠEv": 4933,
      "Ġmachines": 4934,
      "Ġnaturally": 4935,
      "Ġexpensive": 4936,
      "ĠInstead": 4937,
      "Ġintended": 4938,
      "40": 4939,
      "Ġinterests": 4940,
      "Ġinvestig": 4941,
      "Ġexpression": 4942,
      "Ġframework": 4943,
      "ĠMat": 4944,
      "itness": 4945,
      "eters": 4946,
      "Ġban": 4947,
      "ondon": 4948,
      "AL": 4949,
      "acters": 4950,
      "icians": 4951,
      "Ġfing": 4952,
      "Ġ2017": 4953,
      "Ġphenomen": 4954,
      "key": 4955,
      "Ġ80": 4956,
      "Ġkit": 4957,
      "Ġlose": 4958,
      "ĠAir": 4959,
      "Ġstages": 4960,
      "Ġparty": 4961,
      "celer": 4962,
      "inations": 4963,
      "Ġafford": 4964,
      "Ġchurch": 4965,
      "tage": 4966,
      "Ġwet": 4967,
      "ĠOctober": 4968,
      "ĠTreat": 4969,
      "rates": 4970,
      "Ġplease": 4971,
      "ĠManagement": 4972,
      "ĠStudents": 4973,
      "ĠWestern": 4974,
      "Ġpreviously": 4975,
      "ĠBr": 4976,
      "Ġseven": 4977,
      "ĠWhy": 4978,
      "Ġpark": 4979,
      "Ġfoss": 4980,
      "ham": 4981,
      "bi": 4982,
      "ags": 4983,
      "Ġagriculture": 4984,
      "Ġ2015": 4985,
      "ĠSan": 4986,
      "mark": 4987,
      "Ġ2022": 4988,
      "ruary": 4989,
      "ĠPal": 4990,
      "Ġconnections": 4991,
      "Ġnarr": 4992,
      "ĠMc": 4993,
      "Ġaqu": 4994,
      "Ġdeeper": 4995,
      "hent": 4996,
      "Ġcrops": 4997,
      "Ġabuse": 4998,
      "Ġprepare": 4999,
      "ĠConf": 5000,
      "Ġdescribe": 5001,
      "Ġbright": 5002,
      "rog": 5003,
      "ifications": 5004,
      "Ġdiscussion": 5005,
      "Ġprevention": 5006,
      "Ġhyper": 5007,
      "Ġembra": 5008,
      "More": 5009,
      "Ġconfidence": 5010,
      "Ġhabitat": 5011,
      "ĠAD": 5012,
      "Ġcourses": 5013,
      "dule": 5014,
      "Ġcultures": 5015,
      "igure": 5016,
      "ĠBi": 5017,
      "Ġongoing": 5018,
      "rors": 5019,
      "ĠOff": 5020,
      "Us": 5021,
      "ĠFrance": 5022,
      "Ġhospital": 5023,
      "Ġ2016": 5024,
      "Ġinnovative": 5025,
      "Ġprotected": 5026,
      "Ġaccuracy": 5027,
      "Ġdecrease": 5028,
      "Ġoptimal": 5029,
      "Te": 5030,
      "Ġannual": 5031,
      "Ġupper": 5032,
      "Ġestimated": 5033,
      "Ġformat": 5034,
      "Ġunits": 5035,
      "oughly": 5036,
      "ashion": 5037,
      "Ġpaint": 5038,
      "Ġbow": 5039,
      "Ġinteractions": 5040,
      "Ġcopy": 5041,
      "Ġaudience": 5042,
      "uilding": 5043,
      "Ġletter": 5044,
      "Ġrepresents": 5045,
      "AI": 5046,
      "AD": 5047,
      "Ġreference": 5048,
      "Ġcarefully": 5049,
      "Ġraise": 5050,
      "Ġthreats": 5051,
      "ĠFound": 5052,
      "Ġlessons": 5053,
      "Ġdiam": 5054,
      "Ġdoub": 5055,
      "Ġresist": 5056,
      "Ġdetermined": 5057,
      "23": 5058,
      "Ġadvoc": 5059,
      "Ġtrain": 5060,
      "Ġlooks": 5061,
      "ĠHouse": 5062,
      "oxide": 5063,
      "ĠHy": 5064,
      "ĠAssociation": 5065,
      "rant": 5066,
      "Ġwanted": 5067,
      "Ġsem": 5068,
      "Ġcere": 5069,
      "Ġconfirm": 5070,
      "Ġbegins": 5071,
      "ĠWashington": 5072,
      "Ġsharing": 5073,
      "Pl": 5074,
      "Ġgather": 5075,
      "ĠSch": 5076,
      "aks": 5077,
      "aming": 5078,
      "Ġprices": 5079,
      "Ġbeauty": 5080,
      "Â°": 5081,
      "ĠWhether": 5082,
      "Ġtank": 5083,
      "ĠRef": 5084,
      "Ġsubstance": 5085,
      "Ġbreath": 5086,
      "ky": 5087,
      "Ġwonder": 5088,
      "Ġproteins": 5089,
      "ford": 5090,
      "ressed": 5091,
      "ĠDi": 5092,
      "ishes": 5093,
      "Ġcharacters": 5094,
      "Ġdespite": 5095,
      "Ġextract": 5096,
      "Ġ:": 5097,
      "Ġcircumst": 5098,
      "asive": 5099,
      "apers": 5100,
      "Ġelectronic": 5101,
      "Ġnurs": 5102,
      "rest": 5103,
      "SD": 5104,
      "antic": 5105,
      "Ġwildlife": 5106,
      "umn": 5107,
      "rust": 5108,
      "Ġsmooth": 5109,
      "Ġhit": 5110,
      "ĠKeep": 5111,
      "Ġcomfortable": 5112,
      "Ġharvest": 5113,
      "Ġappoint": 5114,
      "Ġclosely": 5115,
      "Ġpun": 5116,
      "rence": 5117,
      "Ġthin": 5118,
      "Ġonto": 5119,
      "Ġsufficient": 5120,
      "ventional": 5121,
      "ixt": 5122,
      "80": 5123,
      "Ġassistance": 5124,
      "roke": 5125,
      "Ġpanels": 5126,
      "ĠDecember": 5127,
      "Ġreaders": 5128,
      "ĠProject": 5129,
      "Ġperman": 5130,
      "Ġregul": 5131,
      "Ġalgorithms": 5132,
      "Ġcombined": 5133,
      "PT": 5134,
      "Ġveter": 5135,
      "ĠSpanish": 5136,
      "iability": 5137,
      "cons": 5138,
      "ample": 5139,
      "Ġserves": 5140,
      "Ġoffered": 5141,
      "Ġgut": 5142,
      "Ġsort": 5143,
      "Ġrace": 5144,
      "Ġarticles": 5145,
      "Ġusage": 5146,
      "Ġcompleted": 5147,
      "Most": 5148,
      "agers": 5149,
      "Ġwalls": 5150,
      "ivery": 5151,
      "Ġmood": 5152,
      "Ġprogramming": 5153,
      "Ġelev": 5154,
      "Ġnit": 5155,
      "Ġdestroy": 5156,
      "otic": 5157,
      "ĠStr": 5158,
      "nel": 5159,
      "Ġfiles": 5160,
      "Ġenables": 5161,
      "Ġrapidly": 5162,
      "Ġcontrolled": 5163,
      "Ġrecip": 5164,
      "ta": 5165,
      "oors": 5166,
      "Ġlik": 5167,
      "ulf": 5168,
      "Ġdie": 5169,
      "Ġsubs": 5170,
      "Ġfacts": 5171,
      "ĠHuman": 5172,
      "ĠCare": 5173,
      "ĠMark": 5174,
      "Ġsusp": 5175,
      "obal": 5176,
      "lege": 5177,
      "Ġmaximum": 5178,
      "En": 5179,
      "Ġtransp": 5180,
      "Ġera": 5181,
      "iotics": 5182,
      "Ġmold": 5183,
      "Ġmedium": 5184,
      "ye": 5185,
      "ompl": 5186,
      "ĠWilliam": 5187,
      "Ġstret": 5188,
      "Ġbalanced": 5189,
      "ĠGeneral": 5190,
      "Ġmeant": 5191,
      "Ġkept": 5192,
      "Ġrespir": 5193,
      "oke": 5194,
      "Ġkinds": 5195,
      "quality": 5196,
      "Ġcapabilities": 5197,
      "Ġheard": 5198,
      "ĠPublic": 5199,
      "alle": 5200,
      "lease": 5201,
      "osen": 5202,
      "Ġod": 5203,
      "Ġsets": 5204,
      "Ġvolunt": 5205,
      "Ġleadership": 5206,
      "rans": 5207,
      "erative": 5208,
      "lick": 5209,
      "ails": 5210,
      "Ġexcessive": 5211,
      "Ġsyn": 5212,
      "ĠClass": 5213,
      "Ġingredients": 5214,
      "ĠLondon": 5215,
      "Ġreb": 5216,
      "ustain": 5217,
      "ĠDiff": 5218,
      "Ġsan": 5219,
      "raining": 5220,
      "Ġsweet": 5221,
      "Ġcorpor": 5222,
      "Ġaims": 5223,
      "Ġparties": 5224,
      "ĠLord": 5225,
      "ĠNovember": 5226,
      "Ġsupported": 5227,
      "ĠElect": 5228,
      "Ġsupports": 5229,
      "ĠAng": 5230,
      "pping": 5231,
      "Ġdram": 5232,
      "Ġyouth": 5233,
      "uls": 5234,
      "Ġhour": 5235,
      "ulin": 5236,
      "ometimes": 5237,
      "Ġshift": 5238,
      "Ġcoop": 5239,
      "ij": 5240,
      "Ġmotion": 5241,
      "inate": 5242,
      "Ġstored": 5243,
      "ophy": 5244,
      "Ġcars": 5245,
      "OS": 5246,
      "Ġ2023": 5247,
      "ĠCouncil": 5248,
      "oyal": 5249,
      "iverse": 5250,
      "ĠTur": 5251,
      "Ġwire": 5252,
      "Ġinsurance": 5253,
      "Ġradio": 5254,
      "Ġconsists": 5255,
      "Ġisland": 5256,
      "Ġkill": 5257,
      "Ġdedicated": 5258,
      "ffective": 5259,
      "erent": 5260,
      "ĠPhys": 5261,
      "ifies": 5262,
      "Ġkn": 5263,
      "Ġtea": 5264,
      "Ġbiod": 5265,
      "Ġsupplement": 5266,
      "Ġethical": 5267,
      "ida": 5268,
      "inent": 5269,
      "Ġchann": 5270,
      "Ġturned": 5271,
      "Ġconsidering": 5272,
      "Ġtaste": 5273,
      "Ġstorm": 5274,
      "Ġneut": 5275,
      "Ġcontem": 5276,
      "Ġconcrete": 5277,
      "Ġhop": 5278,
      "ĠExpl": 5279,
      "omach": 5280,
      "ĠTH": 5281,
      "ĠJewish": 5282,
      "Ġimplementation": 5283,
      "Ġdro": 5284,
      "amins": 5285,
      "Ġslightly": 5286,
      "Ġpurchase": 5287,
      "Ġrub": 5288,
      "Ġsuffering": 5289,
      "Ġdefinition": 5290,
      "Ġpreserv": 5291,
      "vis": 5292,
      "cel": 5293,
      "Ġstability": 5294,
      "Ġgrown": 5295,
      "Ġconscious": 5296,
      "Ġlett": 5297,
      "Ġstruggle": 5298,
      "Ġround": 5299,
      "Ġfunding": 5300,
      "MS": 5301,
      "Ġraw": 5302,
      "Ġauthors": 5303,
      "Ġpig": 5304,
      "Ġinsects": 5305,
      "ĠAsia": 5306,
      "Ġfort": 5307,
      "friendly": 5308,
      "Ġsubstant": 5309,
      "ĠArch": 5310,
      "24": 5311,
      "Ġimprovement": 5312,
      "Ġdial": 5313,
      "ĠCounty": 5314,
      "izer": 5315,
      "tes": 5316,
      "ossible": 5317,
      "RE": 5318,
      "Ġjustice": 5319,
      "Ġrestrict": 5320,
      "organ": 5321,
      "Ġlived": 5322,
      "Ġrequest": 5323,
      "Ġconv": 5324,
      "Ġspent": 5325,
      "atric": 5326,
      "ault": 5327,
      "roc": 5328,
      "ĠSociety": 5329,
      "Ġinstructions": 5330,
      "Ġnoise": 5331,
      "Ġeffectiveness": 5332,
      "Ġcollected": 5333,
      "Ġresidents": 5334,
      "Ġserved": 5335,
      "dent": 5336,
      "ĠFore": 5337,
      "That": 5338,
      "ĠDesign": 5339,
      "ĠPower": 5340,
      "ventions": 5341,
      "roup": 5342,
      "Ġstick": 5343,
      "ĠIsl": 5344,
      "Cl": 5345,
      "Ġtrends": 5346,
      "Ġimmun": 5347,
      "II": 5348,
      "21": 5349,
      "ĠToday": 5350,
      "Ġprotocol": 5351,
      "Ġdouble": 5352,
      "yles": 5353,
      "Ġsen": 5354,
      "Ġfriend": 5355,
      "Ġ#": 5356,
      "Ġvulnerable": 5357,
      "Ġassets": 5358,
      "olester": 5359,
      "Ġabilities": 5360,
      "Ġnoted": 5361,
      "Ġcapable": 5362,
      "essions": 5363,
      "Ġsaying": 5364,
      "ĠFebruary": 5365,
      "ĠOut": 5366,
      "Ġproductivity": 5367,
      "Ġfilter": 5368,
      "Ġtypical": 5369,
      "Ġbehaviour": 5370,
      "Ġmoved": 5371,
      "Ġhealing": 5372,
      "ĠSub": 5373,
      "Ġstone": 5374,
      "Ġstock": 5375,
      "Ġchick": 5376,
      "rie": 5377,
      "Ġmort": 5378,
      "CC": 5379,
      "ĠDise": 5380,
      "Ġstarts": 5381,
      "Ġvisible": 5382,
      "Ġoutl": 5383,
      "istan": 5384,
      "requ": 5385,
      "Ġ90": 5386,
      "ille": 5387,
      "ĠIP": 5388,
      "Ġwatch": 5389,
      "Ġmorning": 5390,
      "Ġultimately": 5391,
      "Ġrecognized": 5392,
      "Ġsend": 5393,
      "ĠPhil": 5394,
      "ĠGet": 5395,
      "Ġreserv": 5396,
      "Ġauthority": 5397,
      "Ġleaving": 5398,
      "Ġobvious": 5399,
      "Ġconven": 5400,
      "ĠBoth": 5401,
      "nes": 5402,
      "Ġ70": 5403,
      "Ġfill": 5404,
      "Ġconcentration": 5405,
      "Ġdiscrim": 5406,
      "onal": 5407,
      "aser": 5408,
      "osite": 5409,
      "Ġble": 5410,
      "Ġpret": 5411,
      "level": 5412,
      "Ġsolve": 5413,
      "Ġfeeding": 5414,
      "ĠBel": 5415,
      "Ġsurvival": 5416,
      "olesterol": 5417,
      "gien": 5418,
      "orge": 5419,
      "Ġgod": 5420,
      "Ġgrade": 5421,
      "Ġrecognition": 5422,
      "Ġju": 5423,
      "Ġlesson": 5424,
      "Ġcommitment": 5425,
      "Ġgenerated": 5426,
      "Ġminerals": 5427,
      "icks": 5428,
      "iced": 5429,
      "ĠMal": 5430,
      "Ġhappy": 5431,
      "Ġbiological": 5432,
      "Ġsubstances": 5433,
      "Ġpsychological": 5434,
      "rolog": 5435,
      "Ġdesigns": 5436,
      "ya": 5437,
      "ician": 5438,
      "Ġintervention": 5439,
      "Ġaccompl": 5440,
      "Ġresol": 5441,
      "Ġarchitecture": 5442,
      "Ġfirm": 5443,
      "âĢĻ.": 5444,
      "Ġmild": 5445,
      "ĠSun": 5446,
      "vity": 5447,
      "idden": 5448,
      "Ġstands": 5449,
      "Ġshowing": 5450,
      "Ġrul": 5451,
      "ĠEngine": 5452,
      "then": 5453,
      "arrow": 5454,
      "Ġvalid": 5455,
      "ĠPract": 5456,
      "Ġtruly": 5457,
      "ĠCollege": 5458,
      "During": 5459,
      "Ġroof": 5460,
      "ped": 5461,
      "Ġcircumstances": 5462,
      "wood": 5463,
      "Ġsignals": 5464,
      "fall": 5465,
      "Ġprovider": 5466,
      "Ġraised": 5467,
      "Ġflat": 5468,
      "Ġaccounts": 5469,
      "ĠProv": 5470,
      "Ġroles": 5471,
      "usiness": 5472,
      "Ġbattle": 5473,
      "long": 5474,
      "Ġprivacy": 5475,
      "ĠMain": 5476,
      "Ġsubjects": 5477,
      "ĠJournal": 5478,
      "Ġ2014": 5479,
      "ĠKnow": 5480,
      "irus": 5481,
      "Ġachieved": 5482,
      "Ġdesired": 5483,
      "ĠControl": 5484,
      "Ġdream": 5485,
      "Ġobst": 5486,
      "Ġrely": 5487,
      "Ġproducing": 5488,
      "Ġinject": 5489,
      "ĠGreek": 5490,
      "Ġdifficulty": 5491,
      "Ġserver": 5492,
      "Ġrural": 5493,
      "Ġbatteries": 5494,
      "stream": 5495,
      "Ġacceler": 5496,
      "ĠGovernment": 5497,
      "Ġvibr": 5498,
      "riage": 5499,
      "Ġimmediate": 5500,
      "Ġsunlight": 5501,
      "ĠAnother": 5502,
      "Ġstem": 5503,
      "Ġtransmission": 5504,
      "olars": 5505,
      "Ġsud": 5506,
      "ĠMet": 5507,
      "Ġextent": 5508,
      "Ġaer": 5509,
      "Ġath": 5510,
      "och": 5511,
      "Ġtaught": 5512,
      "From": 5513,
      "Ġmillions": 5514,
      "Ġsnow": 5515,
      "Ġexplains": 5516,
      "Ġcoal": 5517,
      "?âĢĿ": 5518,
      "Ġbill": 5519,
      "Ġgenerations": 5520,
      "ĠBas": 5521,
      "Ġspl": 5522,
      "Ġexperiencing": 5523,
      "Ġpriorit": 5524,
      "tee": 5525,
      "Ġanalyze": 5526,
      "PR": 5527,
      "arsh": 5528,
      "--": 5529,
      "Ġsuffer": 5530,
      "Ġdelivery": 5531,
      "ĠMuseum": 5532,
      "Ġtoler": 5533,
      "ĠDef": 5534,
      "Ġvot": 5535,
      "Ġremark": 5536,
      "xid": 5537,
      "Ġdisrupt": 5538,
      "Ind": 5539,
      "Ġ193": 5540,
      "ĠWeb": 5541,
      "Ġconclud": 5542,
      "Ġwors": 5543,
      "ĠSee": 5544,
      "Ġspeaking": 5545,
      "Ġlinks": 5546,
      "ellect": 5547,
      "Ġinteraction": 5548,
      "Ġsecret": 5549,
      "ĠLike": 5550,
      "Ġtal": 5551,
      "Ġmechanisms": 5552,
      "Ġmyth": 5553,
      "Ġsamples": 5554,
      "Ġdocuments": 5555,
      "Ġpersist": 5556,
      "Ġbrown": 5557,
      "Ġnations": 5558,
      "Ġ22": 5559,
      "Ġstomach": 5560,
      "Ġprem": 5561,
      "Ġgenes": 5562,
      "wing": 5563,
      "ĠRev": 5564,
      "Ġdecided": 5565,
      "Ġeveryday": 5566,
      "Ġmer": 5567,
      "Ġminimum": 5568,
      "Ġproviders": 5569,
      "taining": 5570,
      "holders": 5571,
      "Ġcomputers": 5572,
      "Ġrecorded": 5573,
      "Ġinfected": 5574,
      "Ġdust": 5575,
      "Ġauthent": 5576,
      "stood": 5577,
      "othe": 5578,
      "Ġrepair": 5579,
      "itors": 5580,
      "ĠBet": 5581,
      "Ġ195": 5582,
      "kes": 5583,
      "Ġsuccessfully": 5584,
      "ĠSol": 5585,
      "ipping": 5586,
      "pat": 5587,
      "ĠLife": 5588,
      "eal": 5589,
      "Ġotherwise": 5590,
      "iday": 5591,
      "Ġacknow": 5592,
      "Ġ23": 5593,
      "Ġintroduction": 5594,
      "Ġdrain": 5595,
      "enth": 5596,
      "ĠPC": 5597,
      "ras": 5598,
      "ĠTem": 5599,
      "alysis": 5600,
      "unk": 5601,
      "ĠMary": 5602,
      "Ġprompt": 5603,
      "ĠDirect": 5604,
      "Ġoperate": 5605,
      "bra": 5606,
      "Ġacts": 5607,
      "Ġinterview": 5608,
      "Ġbond": 5609,
      "fulness": 5610,
      "Ġdiscipl": 5611,
      "Ġtested": 5612,
      "alled": 5613,
      "Ġinstruction": 5614,
      "Ġbones": 5615,
      "Ġidentifying": 5616,
      "verty": 5617,
      "Ġleaf": 5618,
      "Ġincred": 5619,
      "Ġfung": 5620,
      "oding": 5621,
      "Ġreached": 5622,
      "exp": 5623,
      "Ġpoverty": 5624,
      "ĠPort": 5625,
      "Ġcreativity": 5626,
      "Ġdiscussed": 5627,
      "Ġdoll": 5628,
      "Ġaddressing": 5629,
      "Ġprofessor": 5630,
      "inant": 5631,
      "ĠCourt": 5632,
      "Ġcorresp": 5633,
      "chers": 5634,
      "Ġhydrogen": 5635,
      "Ġmarine": 5636,
      "Ġreligion": 5637,
      "Ġleader": 5638,
      "Ġconsumer": 5639,
      "Ġages": 5640,
      "Ġacids": 5641,
      "Ġsick": 5642,
      "Ġtalking": 5643,
      "mp": 5644,
      "ek": 5645,
      "Ġbrief": 5646,
      "ĠMount": 5647,
      "Ġdynamic": 5648,
      "Ġlocations": 5649,
      "Ġfelt": 5650,
      "ĠWell": 5651,
      "Ġcontinuous": 5652,
      "Ġstudying": 5653,
      "Ġlargely": 5654,
      "Ġfloor": 5655,
      "Ġswim": 5656,
      "Ġwalking": 5657,
      "Ġteams": 5658,
      "mary": 5659,
      "Ġexception": 5660,
      "Ġresilience": 5661,
      "Ġdetection": 5662,
      "Ġloved": 5663,
      "Ġpup": 5664,
      "Ġfulf": 5665,
      "ĠSpace": 5666,
      "ander": 5667,
      "Ġstable": 5668,
      "Ġresponses": 5669,
      "Ġfollows": 5670,
      "Ġschedule": 5671,
      "Ġstake": 5672,
      "Ġcertainly": 5673,
      "Ġdomestic": 5674,
      "amics": 5675,
      "Once": 5676,
      "imal": 5677,
      "Ġcapture": 5678,
      "Ġsudden": 5679,
      "ĠUp": 5680,
      "ĠWhite": 5681,
      "Ġexpertise": 5682,
      "Ġfossil": 5683,
      "Ġartists": 5684,
      "Ġmere": 5685,
      "ĠPress": 5686,
      "Ġexistence": 5687,
      "De": 5688,
      "mic": 5689,
      "ĠExper": 5690,
      "lers": 5691,
      "Ġfashion": 5692,
      "indu": 5693,
      "Ġexploring": 5694,
      "Ġship": 5695,
      "Ġsell": 5696,
      "Ġtrained": 5697,
      "Ġsatell": 5698,
      "Ġtun": 5699,
      "oga": 5700,
      "Ġuns": 5701,
      "hi": 5702,
      "Ġfunds": 5703,
      "iated": 5704,
      "Ġapart": 5705,
      "Ġportion": 5706,
      "pact": 5707,
      "Ġlabel": 5708,
      "Ġimper": 5709,
      "Ġheating": 5710,
      "Ġholds": 5711,
      "Ġparticipate": 5712,
      "No": 5713,
      "Ġconcerned": 5714,
      "Ġfocuses": 5715,
      "70": 5716,
      "Ġreven": 5717,
      "Ġirrit": 5718,
      "Ġprinciple": 5719,
      "Ġguarant": 5720,
      "Ġsurfaces": 5721,
      "Ġsettle": 5722,
      "nic": 5723,
      "Ġ2010": 5724,
      "Ġagreement": 5725,
      "Ġdecline": 5726,
      "col": 5727,
      "omas": 5728,
      "Ġhorse": 5729,
      "ourage": 5730,
      "Ġwindow": 5731,
      "Ġgreenhouse": 5732,
      "Let": 5733,
      "'ll": 5734,
      "Ġlaun": 5735,
      "Ġproposed": 5736,
      "Ġhousing": 5737,
      "Ġintegration": 5738,
      "Ġselection": 5739,
      "Ġlearners": 5740,
      "Ġwitness": 5741,
      "ĠWind": 5742,
      "Ġdatabase": 5743,
      "Ġpaid": 5744,
      "road": 5745,
      "Ġment": 5746,
      "Ġdecide": 5747,
      "Ġsubsequ": 5748,
      "Ġsurpris": 5749,
      "DC": 5750,
      "Ġgreatly": 5751,
      "Ġbeliefs": 5752,
      "Ġgirls": 5753,
      "Ġtiny": 5754,
      "ĠHol": 5755,
      "Ġwaters": 5756,
      "itivity": 5757,
      "Ġminimize": 5758,
      "Ġcalcium": 5759,
      "Ġnavigate": 5760,
      "icing": 5761,
      "ounter": 5762,
      "Ġmassive": 5763,
      "Ġdoctors": 5764,
      "Ġforced": 5765,
      "Ġpil": 5766,
      "anes": 5767,
      "Ġnerve": 5768,
      "aker": 5769,
      "ĠUnderstanding": 5770,
      "Ġmining": 5771,
      "son": 5772,
      "Understanding": 5773,
      "oral": 5774,
      "ĠUnder": 5775,
      "ĠService": 5776,
      "Ġcomposition": 5777,
      "asp": 5778,
      "Ġsyndrome": 5779,
      "Ġnor": 5780,
      "Ġsquare": 5781,
      "ounced": 5782,
      "apping": 5783,
      "ĠCongress": 5784,
      "Your": 5785,
      "certain": 5786,
      "asure": 5787,
      "Ġfu": 5788,
      "inn": 5789,
      "Ġlies": 5790,
      "Ġpool": 5791,
      "ĠTake": 5792,
      "Ġbrand": 5793,
      "Ġdiscovery": 5794,
      "Ġinstruments": 5795,
      "ioxid": 5796,
      "Ġblockchain": 5797,
      "ĠMoreover": 5798,
      "ĠOb": 5799,
      "rot": 5800,
      "Ġcrim": 5801,
      "Ġintric": 5802,
      "Ġvitamins": 5803,
      "Ġinches": 5804,
      "ĠKore": 5805,
      "Ġaddiction": 5806,
      "normal": 5807,
      "Ġfinally": 5808,
      "Ġmeasured": 5809,
      "90": 5810,
      "Ġviews": 5811,
      "forcement": 5812,
      "ĠDig": 5813,
      "Ġcholesterol": 5814,
      "cover": 5815,
      "Ġcontamin": 5816,
      "Ġfunctional": 5817,
      "ĠLa": 5818,
      "Ġreactions": 5819,
      "Ġimplementing": 5820,
      "Ġkilled": 5821,
      "Ġphr": 5822,
      "Ġadequate": 5823,
      "ĠYear": 5824,
      "ĠCommon": 5825,
      "Ġamb": 5826,
      "Ġrespiratory": 5827,
      "Ġregist": 5828,
      "AP": 5829,
      "esity": 5830,
      "Ġourselves": 5831,
      "Ġcircuit": 5832,
      "gers": 5833,
      "Ġdu": 5834,
      "Ġdut": 5835,
      "Ġlisten": 5836,
      "Ġstation": 5837,
      "Ġtechnological": 5838,
      "Ġrecommendations": 5839,
      "Ġconsume": 5840,
      "Ġunp": 5841,
      "lig": 5842,
      "comm": 5843,
      "Ġlayers": 5844,
      "Ġextended": 5845,
      "Ġsurvive": 5846,
      "utive": 5847,
      "Ke": 5848,
      "ĠDist": 5849,
      "Ġdivided": 5850,
      "Ġfle": 5851,
      "Ġprotecting": 5852,
      "otal": 5853,
      "ĠCheck": 5854,
      "kin": 5855,
      "Ġcash": 5856,
      "Ġnutrient": 5857,
      "Ġsecondary": 5858,
      "Ġrelief": 5859,
      "Ġengagement": 5860,
      "zy": 5861,
      "EL": 5862,
      "anguage": 5863,
      "sts": 5864,
      "Ġassemb": 5865,
      "Ġhundreds": 5866,
      "ĠAC": 5867,
      "Ġforests": 5868,
      "Ġtow": 5869,
      "Ġdrawing": 5870,
      "Ġpossess": 5871,
      "Ġgre": 5872,
      "word": 5873,
      "Ġselected": 5874,
      "Ġpages": 5875,
      "Ġcomplications": 5876,
      "OT": 5877,
      "ĠStand": 5878,
      "Ġimplications": 5879,
      "Ġmanaged": 5880,
      "ĠCentral": 5881,
      "Ġfarming": 5882,
      "ĠMich": 5883,
      "ndom": 5884,
      "ĠRepublic": 5885,
      "rowing": 5886,
      "ĠArab": 5887,
      "ovascular": 5888,
      "Ġexplained": 5889,
      "mas": 5890,
      "Ġchoosing": 5891,
      "Ġprescrib": 5892,
      "ĠSecond": 5893,
      "cope": 5894,
      "olute": 5895,
      "Ġinvent": 5896,
      "Ġmeal": 5897,
      "ĠIsland": 5898,
      "ĠâĢ¦": 5899,
      "Ġband": 5900,
      "ĠMac": 5901,
      "rations": 5902,
      "Ġcloser": 5903,
      "urd": 5904,
      "raction": 5905,
      "cast": 5906,
      "Ġkil": 5907,
      "Ġevaluate": 5908,
      "ado": 5909,
      "Ġauthorities": 5910,
      "SS": 5911,
      "ĠMedical": 5912,
      "riting": 5913,
      "Ġaccum": 5914,
      "Ġconstantly": 5915,
      "Ġworse": 5916,
      "Bl": 5917,
      "lets": 5918,
      "Int": 5919,
      "security": 5920,
      "Dr": 5921,
      "eles": 5922,
      "ĠRussia": 5923,
      "Ġflexibility": 5924,
      "rene": 5925,
      "ĠBre": 5926,
      "RI": 5927,
      "rooms": 5928,
      "Ġinner": 5929,
      "ĠDem": 5930,
      "Ġahead": 5931,
      "ari": 5932,
      "Ġmechanism": 5933,
      "ĠAdd": 5934,
      "state": 5935,
      "Ġevaluation": 5936,
      "Ġlottery": 5937,
      "Ġ2013": 5938,
      "Ġaccomp": 5939,
      "atever": 5940,
      "efits": 5941,
      "umes": 5942,
      "Ġcooking": 5943,
      "Ġlimits": 5944,
      "Ġhygien": 5945,
      "oids": 5946,
      "igue": 5947,
      "gans": 5948,
      "Ġweap": 5949,
      "ĠWomen": 5950,
      "Ġcompounds": 5951,
      "Ġrhy": 5952,
      "Ġmulti": 5953,
      "Ġovercome": 5954,
      "Ġcompost": 5955,
      "Ġmeals": 5956,
      "Ġdeploy": 5957,
      "umps": 5958,
      "Ġscan": 5959,
      "Ġworry": 5960,
      "Ġwaves": 5961,
      "nect": 5962,
      "Ġfilled": 5963,
      "icit": 5964,
      "Ġ26": 5965,
      "Ġclar": 5966,
      "Ġbreed": 5967,
      "Ġcouple": 5968,
      "aughter": 5969,
      "Ġproduces": 5970,
      "edia": 5971,
      "Ġ+": 5972,
      "Ġformal": 5973,
      "Ġedge": 5974,
      "Ġpull": 5975,
      "Ġoverl": 5976,
      "Ġcast": 5977,
      "ĠTex": 5978,
      "ĠVis": 5979,
      "Ġcalls": 5980,
      "Ġimpossible": 5981,
      "rid": 5982,
      "inking": 5983,
      "Ġclaims": 5984,
      "ĠDel": 5985,
      "Ġdebt": 5986,
      "Ab": 5987,
      "Ġfrequent": 5988,
      "dr": 5989,
      "Ġdamaged": 5990,
      "Ġentirely": 5991,
      "Ġabund": 5992,
      "Ġvoltage": 5993,
      "ĠMuslim": 5994,
      "ii": 5995,
      "Ġerror": 5996,
      "Ġdeaths": 5997,
      "Ġ28": 5998,
      "Ġexcept": 5999,
      "Ġplenty": 6000,
      "Ġletters": 6001,
      "ĠFurthermore": 6002,
      "Ġbrings": 6003,
      "astern": 6004,
      "Ġspending": 6005,
      "olf": 6006,
      "Ġboundaries": 6007,
      "Ġconventional": 6008,
      "Ġ2012": 6009,
      "ĠFam": 6010,
      "hus": 6011,
      "osph": 6012,
      "Ġvoc": 6013,
      "ĠSuch": 6014,
      "ctive": 6015,
      "Ġimmig": 6016,
      "Ġreward": 6017,
      "isher": 6018,
      "Ġsod": 6019,
      "ĠCult": 6020,
      "Ġstudied": 6021,
      "Ġexploration": 6022,
      "ĠFoundation": 6023,
      "prise": 6024,
      "Ġhappened": 6025,
      "ĠSal": 6026,
      "Ġvessels": 6027,
      "Ġshapes": 6028,
      "ĠEnvironmental": 6029,
      "Ġchances": 6030,
      "Ġprinting": 6031,
      "Ġrandom": 6032,
      "ĠAtt": 6033,
      "ihood": 6034,
      "Ġenabling": 6035,
      "ĠSer": 6036,
      "Ġseeing": 6037,
      "Step": 6038,
      "orous": 6039,
      "ĠAny": 6040,
      "Ġgrand": 6041,
      "Ġexpans": 6042,
      "Ġtraditions": 6043,
      "ritis": 6044,
      "Ġbiggest": 6045,
      "Ġpreval": 6046,
      "Ġcandid": 6047,
      "Ġcontributing": 6048,
      "which": 6049,
      "Ġpolice": 6050,
      "Ġdisapp": 6051,
      "Ġslowly": 6052,
      "well": 6053,
      "Ġdownload": 6054,
      "Ġshel": 6055,
      "za": 6056,
      "Ġshop": 6057,
      "Ġintellect": 6058,
      "Ġchildhood": 6059,
      "ĠMexico": 6060,
      "lean": 6061,
      "cell": 6062,
      "Ġsensors": 6063,
      "Ġgap": 6064,
      "Ġsed": 6065,
      "Gen": 6066,
      "Ġsides": 6067,
      "Ġcomputing": 6068,
      "irt": 6069,
      "Ġthrive": 6070,
      "ĠJames": 6071,
      "Read": 6072,
      "Ġregional": 6073,
      "Ġwhom": 6074,
      "Ġflight": 6075,
      "Ġclosed": 6076,
      "Ġunlike": 6077,
      "Ġfixed": 6078,
      "Ġbath": 6079,
      "osa": 6080,
      "Ġneck": 6081,
      "coin": 6082,
      "posal": 6083,
      "Ġgreatest": 6084,
      "uous": 6085,
      "ĠCommission": 6086,
      "Ġagencies": 6087,
      "Ġfewer": 6088,
      "ĠEconom": 6089,
      "Ġmuseum": 6090,
      "rag": 6091,
      "Ġdigestive": 6092,
      "Ġlegs": 6093,
      "Ġ27": 6094,
      "Ġdistingu": 6095,
      "Ġvs": 6096,
      "ĠCB": 6097,
      "Ġfurn": 6098,
      "alse": 6099,
      "Ġefficiently": 6100,
      "Ġcontaining": 6101,
      "ĠAcad": 6102,
      "Ġoverw": 6103,
      "Ġcolour": 6104,
      "coming": 6105,
      "Ġdiscom": 6106,
      "Ġmarkets": 6107,
      "Ġlots": 6108,
      "using": 6109,
      "Ġlights": 6110,
      "itative": 6111,
      "acific": 6112,
      "Ġpure": 6113,
      "ditional": 6114,
      "ĠMicro": 6115,
      "Ġexplan": 6116,
      "Ġpursu": 6117,
      "ĠBudd": 6118,
      "ĠGood": 6119,
      "Ġgluc": 6120,
      "Ġdevelopers": 6121,
      "ĠIr": 6122,
      "Ġoccurred": 6123,
      "Ġmechanical": 6124,
      "Ġanswers": 6125,
      "Ġproport": 6126,
      "ĠNAS": 6127,
      "isk": 6128,
      "Ġbroken": 6129,
      "Ġpossibility": 6130,
      "ago": 6131,
      "Ġwants": 6132,
      "Ġpray": 6133,
      "Ġunderstood": 6134,
      "Ġtrauma": 6135,
      "ĠConsider": 6136,
      "Pe": 6137,
      "Ġchosen": 6138,
      "Ġkidney": 6139,
      "Ġbio": 6140,
      "eck": 6141,
      "rem": 6142,
      "Ġdoor": 6143,
      "Ġtri": 6144,
      "Ġspecialized": 6145,
      "ĠAvoid": 6146,
      "abul": 6147,
      "ĠLab": 6148,
      "pet": 6149,
      "ĠSym": 6150,
      "Ġwave": 6151,
      "Ġtick": 6152,
      "Ġfaced": 6153,
      "Ġerrors": 6154,
      "iration": 6155,
      "Ġelectron": 6156,
      "la": 6157,
      "oo": 6158,
      "Ġgradually": 6159,
      "Lear": 6160,
      "Ġcareful": 6161,
      "Ġscr": 6162,
      "Ġaccident": 6163,
      "ĠEmp": 6164,
      "ĠDet": 6165,
      "Ġobjectives": 6166,
      "Other": 6167,
      "Ġemployment": 6168,
      "racy": 6169,
      "Ġopening": 6170,
      "Ġinitiatives": 6171,
      "Ġexplo": 6172,
      "Ġfacing": 6173,
      "Ġinterf": 6174,
      "ĠMedicine": 6175,
      "orter": 6176,
      "ĠDoes": 6177,
      "espread": 6178,
      "Ġâ": 6179,
      "Ġinstalled": 6180,
      "Ġfigures": 6181,
      "Ġplate": 6182,
      "Ġmatch": 6183,
      "Ġpermanent": 6184,
      "ersonal": 6185,
      "ĠCy": 6186,
      "ĠLeg": 6187,
      "Ġfer": 6188,
      "Ġlighting": 6189,
      "Ġprofound": 6190,
      "Ġrid": 6191,
      "lar": 6192,
      "ython": 6193,
      "Ġcompetition": 6194,
      "cest": 6195,
      "Ġnorthern": 6196,
      "hav": 6197,
      "Ġclothing": 6198,
      "Ġheritage": 6199,
      "Ġdiscomfort": 6200,
      "Ġrecycling": 6201,
      "eless": 6202,
      "Ġshell": 6203,
      "Ġintense": 6204,
      "ĠRussian": 6205,
      "Ġwebsites": 6206,
      "itamin": 6207,
      "Ġsuggested": 6208,
      "print": 6209,
      "ache": 6210,
      "Ġsport": 6211,
      "Ġbutter": 6212,
      "Ġinteractive": 6213,
      "Ġcorrectly": 6214,
      "Ġintegrated": 6215,
      "Ġpartner": 6216,
      "Ġactively": 6217,
      "Since": 6218,
      "ogs": 6219,
      "Ġmanip": 6220,
      "Ġblo": 6221,
      "Ġinstitution": 6222,
      "Ġic": 6223,
      "clus": 6224,
      "ria": 6225,
      "Ġecosystems": 6226,
      "uration": 6227,
      "ague": 6228,
      "ĠDavid": 6229,
      "Ġpharm": 6230,
      "Ġstrengthen": 6231,
      "Ġelectro": 6232,
      "Ġfascinating": 6233,
      "Ġsupplements": 6234,
      "Rec": 6235,
      "Ġrobust": 6236,
      "azing": 6237,
      "ĠSen": 6238,
      "Ġremed": 6239,
      "Ġobtained": 6240,
      "ĠAcc": 6241,
      "ĠRegular": 6242,
      "Ġtissues": 6243,
      "Ġnarrow": 6244,
      "Ġcomprom": 6245,
      "Ġrecon": 6246,
      "ĠSea": 6247,
      "Ġmolecules": 6248,
      "Ġtreating": 6249,
      "hemical": 6250,
      "band": 6251,
      "Ġstars": 6252,
      "Ġinfluenced": 6253,
      "Ġmedic": 6254,
      "ĠPen": 6255,
      "Ġcrow": 6256,
      "ighter": 6257,
      "Ġ2011": 6258,
      "Ġantioxid": 6259,
      "ĠBC": 6260,
      "iled": 6261,
      "Ġcharacterized": 6262,
      "ommod": 6263,
      "ĠEU": 6264,
      "Ġsouthern": 6265,
      "Ġzero": 6266,
      "Ġdesire": 6267,
      "name": 6268,
      "Ġmagnetic": 6269,
      "hand": 6270,
      "arter": 6271,
      "âĢĻ,": 6272,
      "ĠStudies": 6273,
      "Ġcav": 6274,
      "26": 6275,
      "health": 6276,
      "Ġunable": 6277,
      "Ġopinion": 6278,
      "ogue": 6279,
      "Ġremained": 6280,
      "Ġindicates": 6281,
      "Ġsin": 6282,
      "Ġgall": 6283,
      "what": 6284,
      "inally": 6285,
      "weight": 6286,
      "Ġtransactions": 6287,
      "ĠGlobal": 6288,
      "Ġrevealed": 6289,
      "ocur": 6290,
      "Ġstated": 6291,
      "Ġrig": 6292,
      "ĠQue": 6293,
      "Ġneighb": 6294,
      "Ġnormally": 6295,
      "fish": 6296,
      "lder": 6297,
      "Ġdensity": 6298,
      "Ġshif": 6299,
      "Ġapps": 6300,
      "Ġ--": 6301,
      "ĠTime": 6302,
      "Ġpush": 6303,
      "ĠInformation": 6304,
      "\".": 6305,
      "Ġprotective": 6306,
      "Ġmac": 6307,
      "Ġadministration": 6308,
      "Ġsupplies": 6309,
      "Ġwidespread": 6310,
      "ĠAbout": 6311,
      "Ġcorrespond": 6312,
      "Ġargument": 6313,
      "Ġratio": 6314,
      "Ġstroke": 6315,
      "Ġhealthier": 6316,
      "Ġobjective": 6317,
      "rants": 6318,
      "Ġadopted": 6319,
      "ĠSecurity": 6320,
      "HO": 6321,
      "Ġswitch": 6322,
      "ĠCivil": 6323,
      "Ġaw": 6324,
      "Ġsky": 6325,
      "Ġastron": 6326,
      "Ġtwice": 6327,
      "Ġrepeated": 6328,
      "itting": 6329,
      "ĠBritain": 6330,
      "Ġbrother": 6331,
      "gent": 6332,
      "ĠDisease": 6333,
      "Ġimplemented": 6334,
      "Ġmanufacturers": 6335,
      "Ġwilling": 6336,
      "Ġcovers": 6337,
      "Ġexamine": 6338,
      "Ġsales": 6339,
      "Ġdemands": 6340,
      "Ġdemonstrate": 6341,
      "ĠFact": 6342,
      "Ġmarketing": 6343,
      "yroid": 6344,
      "Ġ2000": 6345,
      "Ġaffecting": 6346,
      "amples": 6347,
      "Ġbot": 6348,
      "Ġexciting": 6349,
      "Ġpainting": 6350,
      "hma": 6351,
      "Ġaf": 6352,
      "do": 6353,
      "ĠIns": 6354,
      "ora": 6355,
      "thritis": 6356,
      "sis": 6357,
      "Ġmanif": 6358,
      "Ġaircraft": 6359,
      "Ġorgans": 6360,
      "Ġcooling": 6361,
      "Ġdietary": 6362,
      "Ġenhancing": 6363,
      "Ġsole": 6364,
      "ĠMil": 6365,
      "ava": 6366,
      "Ġblocks": 6367,
      "with": 6368,
      "Ġcombat": 6369,
      "Ġworkplace": 6370,
      "isp": 6371,
      "ĠTexas": 6372,
      "Ġscholars": 6373,
      "Ġreform": 6374,
      "Ġjoin": 6375,
      "Ġmarked": 6376,
      "Are": 6377,
      "Ġshed": 6378,
      "Cont": 6379,
      "ĠSet": 6380,
      "rian": 6381,
      "Ġorganized": 6382,
      "Stud": 6383,
      "Ġtap": 6384,
      "Ġadds": 6385,
      "Ġhandling": 6386,
      "HD": 6387,
      "Ġvisitors": 6388,
      "ĠAdv": 6389,
      "Ġearn": 6390,
      "ĠForm": 6391,
      "ĠCath": 6392,
      "Ġconversation": 6393,
      "Ġdealing": 6394,
      "Ġavailability": 6395,
      "Ã¡": 6396,
      "itz": 6397,
      "Ġdioxide": 6398,
      "Ġeliminate": 6399,
      "ĠEss": 6400,
      "Ġinterventions": 6401,
      "Ġlistening": 6402,
      "Ġsuc": 6403,
      "Ġfunctioning": 6404,
      "Ġcatch": 6405,
      "uard": 6406,
      "umber": 6407,
      "Ġremoval": 6408,
      "Ġcommitted": 6409,
      "Ġlooked": 6410,
      "ĠRights": 6411,
      "Ġretain": 6412,
      "Ġfocusing": 6413,
      "Ġfract": 6414,
      "Ġdys": 6415,
      "Ġyield": 6416,
      "Ġmoral": 6417,
      "Ġparticipation": 6418,
      "ĠStart": 6419,
      "Ġtrend": 6420,
      "ĠLatin": 6421,
      "Ġturning": 6422,
      "fortunately": 6423,
      "Ġoutdoor": 6424,
      "agues": 6425,
      "ĠIS": 6426,
      "add": 6427,
      "Ġease": 6428,
      "Ġmixed": 6429,
      "ĠVol": 6430,
      "ĠNASA": 6431,
      "heim": 6432,
      "Ġforget": 6433,
      "ocratic": 6434,
      "Re": 6435,
      "ĠOpen": 6436,
      "ĠJer": 6437,
      "Ġphotos": 6438,
      "Ġpreparation": 6439,
      "ato": 6440,
      "Ġfav": 6441,
      "Ġstrain": 6442,
      "Ġpanel": 6443,
      "gl": 6444,
      "Ġclients": 6445,
      "Ġcamera": 6446,
      "Ġtried": 6447,
      "Ġmessages": 6448,
      "Ġgained": 6449,
      "Ġcardiovascular": 6450,
      "Comm": 6451,
      "Ġattend": 6452,
      "ĠMem": 6453,
      "ĠPost": 6454,
      "Ġhardware": 6455,
      "aying": 6456,
      "ĠPaul": 6457,
      "Ġkne": 6458,
      "Ġempower": 6459,
      "Ġfly": 6460,
      "Ġbear": 6461,
      "airy": 6462,
      "Ġabsolute": 6463,
      "Ġbarriers": 6464,
      "Ġflavor": 6465,
      "iform": 6466,
      "Ġplanting": 6467,
      "Ġachieving": 6468,
      "Ġhygiene": 6469,
      "Ġreput": 6470,
      "ript": 6471,
      "Ġunw": 6472,
      "ND": 6473,
      "Ġ190": 6474,
      "Ġexperiments": 6475,
      "Ġputting": 6476,
      "Ġstructural": 6477,
      "Ġdiagnosed": 6478,
      "Ġbiodiversity": 6479,
      "Ġmamm": 6480,
      "ether": 6481,
      "point": 6482,
      "Ġenthus": 6483,
      "ĠDespite": 6484,
      "Ġsmoking": 6485,
      "Ġlimitations": 6486,
      "Ġhouses": 6487,
      "Ġgun": 6488,
      "ĠClimate": 6489,
      "Ġsessions": 6490,
      "ĠGeorge": 6491,
      "berg": 6492,
      "Ġrising": 6493,
      "outs": 6494,
      "Ġteen": 6495,
      "Ġcenters": 6496,
      "Ġalter": 6497,
      "Ġstyles": 6498,
      "uing": 6499,
      "ĠNations": 6500,
      "acu": 6501,
      "New": 6502,
      "ĠLong": 6503,
      "Ġindependence": 6504,
      "ĠSign": 6505,
      "spec": 6506,
      "Ġathlet": 6507,
      "Ġadministr": 6508,
      "Ġflexible": 6509,
      "Ġfatigue": 6510,
      "Ġfavorite": 6511,
      "ĠNature": 6512,
      "Ġax": 6513,
      "scale": 6514,
      "ĠHIV": 6515,
      "Ġvideos": 6516,
      "Ġlibrary": 6517,
      "Ġcomment": 6518,
      "Ġsafely": 6519,
      "Ġchapter": 6520,
      "Ġfest": 6521,
      "stone": 6522,
      "Ġsight": 6523,
      "First": 6524,
      "ĠSou": 6525,
      "Not": 6526,
      "Ġremaining": 6527,
      "Ġstronger": 6528,
      "Ġpretty": 6529,
      "Ġdefine": 6530,
      "lights": 6531,
      "Ġbridge": 6532,
      "Ġdescribes": 6533,
      "Ġstrategic": 6534,
      "eut": 6535,
      "ocation": 6536,
      "Ġrice": 6537,
      "ĠSat": 6538,
      "Ġrail": 6539,
      "Ġowner": 6540,
      "Ġnutritional": 6541,
      "Ġvarieties": 6542,
      "Ġtitle": 6543,
      "Ġil": 6544,
      "ĠMiddle": 6545,
      "Ġnest": 6546,
      "ĠNews": 6547,
      "Ġadvent": 6548,
      "Ġhazard": 6549,
      "Ġindex": 6550,
      "Ġcoron": 6551,
      "Ġsmoke": 6552,
      "Ġsizes": 6553,
      "Ġyounger": 6554,
      "Ġarms": 6555,
      "Ġnecessarily": 6556,
      "ĠWild": 6557,
      "ilation": 6558,
      "Ġdentist": 6559,
      "Ġadvancements": 6560,
      "Ġcreatures": 6561,
      "27": 6562,
      "Ġremarkable": 6563,
      "ĠSafety": 6564,
      "Ġcards": 6565,
      "28": 6566,
      "Ġaccommod": 6567,
      "ĠPsych": 6568,
      "Ġdistur": 6569,
      "Cons": 6570,
      "irds": 6571,
      "'ve": 6572,
      "Ġrecover": 6573,
      "Ġpets": 6574,
      "ĠInf": 6575,
      "Ġpresident": 6576,
      "Ġcontrols": 6577,
      "ropical": 6578,
      "Ġofficials": 6579,
      "ĠÎ": 6580,
      "ĠAP": 6581,
      "Ġsentence": 6582,
      "Ġtract": 6583,
      "ĠThose": 6584,
      "Ġstanding": 6585,
      "Ġmetabol": 6586,
      "reate": 6587,
      "ĠCat": 6588,
      "ĠBible": 6589,
      "Ġcalories": 6590,
      "Ġsurve": 6591,
      "body": 6592,
      "Ġcos": 6593,
      "Ġsmell": 6594,
      "Ġvolunte": 6595,
      "Ġinsulin": 6596,
      "ĠMor": 6597,
      "Ġtut": 6598,
      "Ġhormone": 6599,
      "Ġnervous": 6600,
      "Ġlisted": 6601,
      "Ġreader": 6602,
      "etics": 6603,
      "ading": 6604,
      "Ġdecade": 6605,
      "Ġmountain": 6606,
      "Ġarmy": 6607,
      "Ġdepos": 6608,
      "hop": 6609,
      "Ġwish": 6610,
      "ester": 6611,
      "Ġobesity": 6612,
      "Ġmeaningful": 6613,
      "ĠNor": 6614,
      "Ġdifficulties": 6615,
      "Ġuniverse": 6616,
      "icide": 6617,
      "Ġexpectations": 6618,
      "Ġdiscrimination": 6619,
      ");": 6620,
      "ĠTwo": 6621,
      "ĠFlor": 6622,
      "ĠQuest": 6623,
      "bles": 6624,
      "Ġprison": 6625,
      "Ġwarming": 6626,
      "Ġdirector": 6627,
      "Ġmeasurement": 6628,
      "Ġbreeding": 6629,
      "ĠHave": 6630,
      "abulary": 6631,
      "ĠAtl": 6632,
      "Ġinvolving": 6633,
      "ĠSte": 6634,
      "Ġadvert": 6635,
      "Ġmoon": 6636,
      "Ġancest": 6637,
      "opl": 6638,
      "earchers": 6639,
      "Sc": 6640,
      "ĠBer": 6641,
      "Ġengineers": 6642,
      "charge": 6643,
      "Ġoverwhel": 6644,
      "Ġautonom": 6645,
      "BC": 6646,
      "van": 6647,
      "ĠPlant": 6648,
      "ĠProfessor": 6649,
      "RO": 6650,
      "phone": 6651,
      "Ġmand": 6652,
      "Ġgrid": 6653,
      "Ġconsideration": 6654,
      "Ġreceiving": 6655,
      "ĠCa": 6656,
      "Ġknowing": 6657,
      "Ġplayer": 6658,
      "Ġped": 6659,
      "ĠMart": 6660,
      "ĠGroup": 6661,
      "ĠScient": 6662,
      "Ġsheet": 6663,
      "rypt": 6664,
      "ĠRet": 6665,
      "Ġconvey": 6666,
      "Ġopened": 6667,
      "Ġwest": 6668,
      "ĠIndust": 6669,
      "ĠIT": 6670,
      "Ġpopularity": 6671,
      "Ġeducators": 6672,
      "Ġcategories": 6673,
      "ĠBit": 6674,
      "âĢĺ": 6675,
      "Ġuncertain": 6676,
      "Ġarrange": 6677,
      "Ġbread": 6678,
      "Ġunknown": 6679,
      "500": 6680,
      "ĠLake": 6681,
      "Ġexamination": 6682,
      "ĠMont": 6683,
      "Ġtells": 6684,
      "Ġthermal": 6685,
      ".âĢĻ": 6686,
      "Ġregardless": 6687,
      "Ġintegrity": 6688,
      "Ġviruses": 6689,
      "29": 6690,
      "Ġversat": 6691,
      "Ġdecor": 6692,
      "ĠImpro": 6693,
      "Ġpreferences": 6694,
      "ĠVirgin": 6695,
      "Ġmatters": 6696,
      "uts": 6697,
      "Ġfif": 6698,
      "Ġpoet": 6699,
      "IP": 6700,
      "Ġnose": 6701,
      "Ġemployed": 6702,
      "ĠPacific": 6703,
      "Ġpercentage": 6704,
      "Ġpests": 6705,
      "Ġthanks": 6706,
      "Ġstimul": 6707,
      "Ġprocessed": 6708,
      "Ġproven": 6709,
      "Ġengaged": 6710,
      "Ġderived": 6711,
      "ĠHome": 6712,
      "rite": 6713,
      "Ġcond": 6714,
      "ugg": 6715,
      "Ġglucose": 6716,
      "ĠRich": 6717,
      "reating": 6718,
      "ĠRemember": 6719,
      "ĠJe": 6720,
      "Ġresolution": 6721,
      "ibl": 6722,
      "Ġcart": 6723,
      "Ġsharp": 6724,
      "Ġ2009": 6725,
      "Ġscore": 6726,
      "ĠBusiness": 6727,
      "Ġpron": 6728,
      "Ġsavings": 6729,
      "war": 6730,
      "Ġtargets": 6731,
      "uality": 6732,
      "Ġwife": 6733,
      "amination": 6734,
      "ĠHen": 6735,
      "Ġfacilitate": 6736,
      "Ġaccepted": 6737,
      "ĠBat": 6738,
      "Ġpersons": 6739,
      "ĠMiss": 6740,
      "Ġtall": 6741,
      "isdom": 6742,
      "Ġnan": 6743,
      "roduction": 6744,
      "Ġunless": 6745,
      "ishment": 6746,
      "Ġbringing": 6747,
      "Ġwhereas": 6748,
      "ĠExt": 6749,
      "Ġwait": 6750,
      "ĠBefore": 6751,
      "aren": 6752,
      "ĠBay": 6753,
      "ĠSam": 6754,
      "erior": 6755,
      "Ġpictures": 6756,
      "Ġregulation": 6757,
      "Ġreplaced": 6758,
      "ny": 6759,
      "Ġremoving": 6760,
      "Ġdomain": 6761,
      "ĠResp": 6762,
      "Ġturns": 6763,
      "orses": 6764,
      "Ġnearby": 6765,
      "Ġbanks": 6766,
      "earing": 6767,
      "Comp": 6768,
      "Ġhoriz": 6769,
      "Ġfever": 6770,
      "ĠJews": 6771,
      "Ġrab": 6772,
      "flamm": 6773,
      "SE": 6774,
      "advant": 6775,
      "Ġpoison": 6776,
      "Ġburning": 6777,
      "Even": 6778,
      "Ġclient": 6779,
      "Before": 6780,
      "Ġcritic": 6781,
      "Ġtele": 6782,
      "ĠCho": 6783,
      "Ġinsight": 6784,
      "herent": 6785,
      "lock": 6786,
      "ĠÃ": 6787,
      "ĠSum": 6788,
      "Ġsuscept": 6789,
      "ĠMass": 6790,
      "Ġpresents": 6791,
      "Ġgal": 6792,
      "luding": 6793,
      "itudes": 6794,
      "Ġorganisms": 6795,
      "Ġpossibly": 6796,
      "zen": 6797,
      "ocracy": 6798,
      "Ġweakness": 6799,
      "Ġappeared": 6800,
      "Ġ2008": 6801,
      "Ġmode": 6802,
      "100": 6803,
      "Ġentry": 6804,
      "alian": 6805,
      "anged": 6806,
      "Ġfats": 6807,
      "Ġcontributes": 6808,
      "Ġunus": 6809,
      "Ġbor": 6810,
      "Ġoutcome": 6811,
      "Ġflav": 6812,
      "ĠNav": 6813,
      "BT": 6814,
      "Ġstrict": 6815,
      "Ġcryst": 6816,
      "ĠSing": 6817,
      "Ġaccurately": 6818,
      "ait": 6819,
      "ĠLearn": 6820,
      "rus": 6821,
      "osion": 6822,
      "Ġpositions": 6823,
      "asters": 6824,
      "Ġmeters": 6825,
      "iotic": 6826,
      "Ġneighbor": 6827,
      "Ġfacility": 6828,
      "Ġfuels": 6829,
      "Ġinhib": 6830,
      "Ġ35": 6831,
      "ĠBank": 6832,
      "Ġopposite": 6833,
      "Ġdisabilities": 6834,
      "Ġvillage": 6835,
      "ĠTer": 6836,
      "Ġwriter": 6837,
      "field": 6838,
      "Ġincorporating": 6839,
      "Ġphenomenon": 6840,
      "Ġintellectual": 6841,
      "Ġwestern": 6842,
      "Ġcriteria": 6843,
      "plant": 6844,
      "iture": 6845,
      "ĠAccess": 6846,
      "ĠStep": 6847,
      "ivalent": 6848,
      "35": 6849,
      "compass": 6850,
      "tics": 6851,
      "Ġvaccines": 6852,
      "Ġabnormal": 6853,
      "Ġcann": 6854,
      "Ġjump": 6855,
      "ĠPan": 6856,
      "utrition": 6857,
      "Ġagency": 6858,
      "Ġexpansion": 6859,
      "Ġapparent": 6860,
      "ĠLook": 6861,
      "erb": 6862,
      "Reg": 6863,
      "Ġfrag": 6864,
      "Ġinstallation": 6865,
      "Ġuniversity": 6866,
      "Ġlaboratory": 6867,
      "reed": 6868,
      "Ġdebate": 6869,
      "Ġconfig": 6870,
      "ruption": 6871,
      "inction": 6872,
      "Ġadvis": 6873,
      "Ġcoverage": 6874,
      "Ġpossibilities": 6875,
      "Ġadverse": 6876,
      "Ġknew": 6877,
      "ĠCam": 6878,
      "ctu": 6879,
      "ensus": 6880,
      "Ġtro": 6881,
      "IM": 6882,
      "ĠBook": 6883,
      "Ġsoldiers": 6884,
      "Ġpromotes": 6885,
      "Ġexpressed": 6886,
      "anda": 6887,
      "Ġhoney": 6888,
      "Ġrhyth": 6889,
      "Ġcomparison": 6890,
      "ymph": 6891,
      "Ġreturned": 6892,
      "reated": 6893,
      "Ġdistrict": 6894,
      "Ġprecision": 6895,
      "Ġautomatically": 6896,
      "Ġhttp": 6897,
      "ustainable": 6898,
      "Ġends": 6899,
      "Ġcompetitive": 6900,
      "ĠSl": 6901,
      "ptions": 6902,
      "hist": 6903,
      "onia": 6904,
      "Ġdistributed": 6905,
      "App": 6906,
      "oviet": 6907,
      "Ġfostering": 6908,
      "ĠFlorida": 6909,
      "Ġtex": 6910,
      "alls": 6911,
      "ĠYet": 6912,
      "west": 6913,
      "Ġtrials": 6914,
      "Ġoriginally": 6915,
      "Ġdanger": 6916,
      "Ġhole": 6917,
      "Ġfinance": 6918,
      "Ġpayment": 6919,
      "athe": 6920,
      "ĠParis": 6921,
      "ING": 6922,
      "Ġstakeholders": 6923,
      "fts": 6924,
      "Ġpregnant": 6925,
      "Ġmusical": 6926,
      "Rem": 6927,
      "Ġflower": 6928,
      "chen": 6929,
      "Ġcompens": 6930,
      "owered": 6931,
      "Ġtrigger": 6932,
      "ĠPers": 6933,
      "ĠAlex": 6934,
      "Ġfalse": 6935,
      "Ġrelie": 6936,
      "Ġserving": 6937,
      "Ġbabies": 6938,
      "uter": 6939,
      "Ġfriendly": 6940,
      "Ġpassion": 6941,
      "Every": 6942,
      "such": 6943,
      "Ġsections": 6944,
      "ĠBal": 6945,
      "tra": 6946,
      "Ġcontemporary": 6947,
      "ĠRober": 6948,
      "allow": 6949,
      "Ġhabitats": 6950,
      "Ġobserve": 6951,
      "Ġnarrative": 6952,
      "ION": 6953,
      "Ġethnic": 6954,
      "Ġextend": 6955,
      "Ġhidden": 6956,
      "oto": 6957,
      "ĠAp": 6958,
      "Ġfro": 6959,
      "adder": 6960,
      "hesis": 6961,
      "Ġemerging": 6962,
      "oT": 6963,
      "Ġcontainer": 6964,
      "while": 6965,
      "Ġtack": 6966,
      "car": 6967,
      "Ġmanual": 6968,
      "amine": 6969,
      "Se": 6970,
      "ĠNatural": 6971,
      "Ġrepresentation": 6972,
      "itely": 6973,
      "Ġindoor": 6974,
      "iology": 6975,
      "Ġcomplicated": 6976,
      "Ġevolved": 6977,
      "agram": 6978,
      "Ġintest": 6979,
      "astics": 6980,
      "Ġsession": 6981,
      "Ġasking": 6982,
      "Ġframe": 6983,
      "ĠKen": 6984,
      "Ġdelay": 6985,
      "aked": 6986,
      "Ġmembr": 6987,
      "Ġpair": 6988,
      "Ġprofit": 6989,
      "ĠLou": 6990,
      "ona": 6991,
      "Ġeast": 6992,
      "everal": 6993,
      "Ġinhab": 6994,
      "Yes": 6995,
      "Ġcounsel": 6996,
      "Ġreject": 6997,
      "ĠArmy": 6998,
      "asty": 6999,
      "Ġsurge": 7000,
      "Ġtrip": 7001,
      "bohyd": 7002,
      "ĠServices": 7003,
      "Ġgram": 7004,
      "mers": 7005,
      "DF": 7006,
      "Ġzone": 7007,
      "Ġbrows": 7008,
      "Ġoccasion": 7009,
      "ĠEarly": 7010,
      "ogether": 7011,
      "RC": 7012,
      "Ġsubstantial": 7013,
      "ĠGold": 7014,
      "Ġapplying": 7015,
      "Ġflour": 7016,
      "Ġpersonalized": 7017,
      "Ġsensitivity": 7018,
      "Ġattached": 7019,
      "Ġcopper": 7020,
      "Ġmissing": 7021,
      "ĠColor": 7022,
      "Ġcompliance": 7023,
      "Ġ500": 7024,
      "Ġilleg": 7025,
      "Ġwindows": 7026,
      "haust": 7027,
      "Ġtargeted": 7028,
      "Ġdiss": 7029,
      "lines": 7030,
      "Despite": 7031,
      "Ġcompare": 7032,
      "liam": 7033,
      "Ġpolitics": 7034,
      "abil": 7035,
      "Ġfatty": 7036,
      "Ġmeth": 7037,
      "Ġmarriage": 7038,
      "Ġintroduce": 7039,
      "ressing": 7040,
      "Ġjoy": 7041,
      "Ġexpenses": 7042,
      "ican": 7043,
      "Ġparas": 7044,
      "Ġphilosophy": 7045,
      "ĠConstitution": 7046,
      "Ġdetermining": 7047,
      "NS": 7048,
      "ctic": 7049,
      "Ġavoiding": 7050,
      "Ġrobot": 7051,
      "Ġdoubt": 7052,
      "Ġcorn": 7053,
      "ediatric": 7054,
      "osqu": 7055,
      "Ġregulate": 7056,
      "Ġholes": 7057,
      "Ġindeed": 7058,
      "Ġrecept": 7059,
      "oric": 7060,
      "Ġundert": 7061,
      "ĠJud": 7062,
      "Ġperspectives": 7063,
      "Ġintricate": 7064,
      "Ġcomplexity": 7065,
      "Ġanywhere": 7066,
      "Ġdefense": 7067,
      "Ġhappening": 7068,
      "ĠOnly": 7069,
      "Ġinequ": 7070,
      "Ġ29": 7071,
      "%.": 7072,
      "Ġcolleagues": 7073,
      "Ġshut": 7074,
      "ircle": 7075,
      "Ġincorporate": 7076,
      "ivered": 7077,
      "itual": 7078,
      "Ġremind": 7079,
      "Ġcalm": 7080,
      "Ġlaunched": 7081,
      "throp": 7082,
      "Ġintensity": 7083,
      "Ġterritory": 7084,
      "Ġcrime": 7085,
      "ĠRob": 7086,
      "__": 7087,
      "cal": 7088,
      "ĠSupport": 7089,
      "roat": 7090,
      "Ġholding": 7091,
      "Ġvariables": 7092,
      "Ġsafeg": 7093,
      "ione": 7094,
      "Ġfighting": 7095,
      "Ġhero": 7096,
      "cking": 7097,
      "Ġintent": 7098,
      "Ġperception": 7099,
      "Ġpresentation": 7100,
      "Ġmetals": 7101,
      "ka": 7102,
      "Ġlaser": 7103,
      "Ġdemonstrated": 7104,
      "ostic": 7105,
      "ĠGard": 7106,
      "Ġwheel": 7107,
      "ĠLand": 7108,
      "itals": 7109,
      "Ġfoster": 7110,
      "raine": 7111,
      "Ġarts": 7112,
      "Ġmicros": 7113,
      "ada": 7114,
      "Ġprove": 7115,
      "Ġmeasurements": 7116,
      "Ġbug": 7117,
      "Ġmicrob": 7118,
      "Ġcup": 7119,
      "ĠAustralian": 7120,
      "Ġmixt": 7121,
      "Ġscene": 7122,
      "Ġvariable": 7123,
      "Ġspectrum": 7124,
      "abin": 7125,
      "Ġshock": 7126,
      "Ġdrivers": 7127,
      "Ġhumidity": 7128,
      "Ġdelve": 7129,
      "Ġreporting": 7130,
      "Ġdin": 7131,
      "ĠSoviet": 7132,
      "heets": 7133,
      "Ġencourages": 7134,
      "ested": 7135,
      "ĠSimilar": 7136,
      "world": 7137,
      "ĠFollow": 7138,
      "ĠUV": 7139,
      "Ġresulted": 7140,
      "ael": 7141,
      "Ġ1990": 7142,
      "Ġlegislation": 7143,
      "under": 7144,
      "Ġencounter": 7145,
      "Ġquantum": 7146,
      "ĠMo": 7147,
      "Ġoutbre": 7148,
      "Ġcontributions": 7149,
      "Ġrepresented": 7150,
      "NC": 7151,
      "Ġartist": 7152,
      "Ġpowers": 7153,
      "Ġfitness": 7154,
      "Me": 7155,
      "OC": 7156,
      "ĠLanguage": 7157,
      "Ġcryptocur": 7158,
      "Ġgear": 7159,
      "Ġturb": 7160,
      "ĠCap": 7161,
      "Ġstring": 7162,
      "ĠOld": 7163,
      "ĠSometimes": 7164,
      "Ġfalls": 7165,
      "ĠpH": 7166,
      "Ġreaching": 7167,
      "Ġclust": 7168,
      "Ġshowc": 7169,
      "urrent": 7170,
      "Ġdeeply": 7171,
      "||": 7172,
      "Ġtub": 7173,
      "Ġdrag": 7174,
      "ception": 7175,
      "ĠVict": 7176,
      "ecess": 7177,
      "ĠOffice": 7178,
      "Ġrealize": 7179,
      "Ġcul": 7180,
      "zil": 7181,
      "icity": 7182,
      "Ġmeditation": 7183,
      "Ġdepartment": 7184,
      "Ġstores": 7185,
      "Ġregulatory": 7186,
      "aired": 7187,
      "Americ": 7188,
      "words": 7189,
      "elled": 7190,
      "inity": 7191,
      "ena": 7192,
      "Ġbees": 7193,
      "neys": 7194,
      "ĠAsk": 7195,
      "Ġchest": 7196,
      "Ġrefuge": 7197,
      "Ġformula": 7198,
      "Ġracial": 7199,
      "Ġsched": 7200,
      "ĠNon": 7201,
      "Ġaest": 7202,
      "liament": 7203,
      "LA": 7204,
      "Ġrow": 7205,
      "Ġnegot": 7206,
      "Ġcraft": 7207,
      "Ġdance": 7208,
      "ota": 7209,
      "Ġcriminal": 7210,
      "Ġlatter": 7211,
      "Ġhus": 7212,
      "ĠGuide": 7213,
      "Ġhormones": 7214,
      "Ġarray": 7215,
      "Ġliteracy": 7216,
      "Ġapproved": 7217,
      "Ġsectors": 7218,
      "Ġgone": 7219,
      "ortion": 7220,
      "Ġsequence": 7221,
      "esides": 7222,
      "eren": 7223,
      "99": 7224,
      "ĠFinally": 7225,
      "45": 7226,
      "ĠCarol": 7227,
      "meg": 7228,
      "ĠIdent": 7229,
      "DP": 7230,
      "ĠJose": 7231,
      "Ġdefect": 7232,
      "Ġwithd": 7233,
      "Ġheavily": 7234,
      "Ġcategory": 7235,
      "Ġknows": 7236,
      "Ġjoints": 7237,
      "Ġlock": 7238,
      "Ġaudio": 7239,
      "Today": 7240,
      "Pre": 7241,
      "Ġgro": 7242,
      "orders": 7243,
      "Ġwhatever": 7244,
      "aneously": 7245,
      "Ġtrouble": 7246,
      "Ġimproves": 7247,
      "Ġroute": 7248,
      "nam": 7249,
      "Ġenhanced": 7250,
      "gical": 7251,
      "alities": 7252,
      "cture": 7253,
      "Ġdelivered": 7254,
      "ini": 7255,
      "Ġparalle": 7256,
      "ca": 7257,
      "Ġwider": 7258,
      "Ġfold": 7259,
      "Ġvocabulary": 7260,
      "otton": 7261,
      "Using": 7262,
      "Ġfailed": 7263,
      "ĠRad": 7264,
      "Ġencouraged": 7265,
      "Ġdriver": 7266,
      "Ġcelebrate": 7267,
      "Ġruns": 7268,
      "ipe": 7269,
      "Ġminimal": 7270,
      "ulty": 7271,
      "reprene": 7272,
      "Ġbranches": 7273,
      "ushed": 7274,
      "Ġlosses": 7275,
      "Ġpreserve": 7276,
      "ĠNative": 7277,
      "Ġparameters": 7278,
      "Ġtracking": 7279,
      "Ġ45": 7280,
      "zed": 7281,
      "Ġsensor": 7282,
      "Ġnitrogen": 7283,
      "Ġprey": 7284,
      "Ġnine": 7285,
      "Ġspin": 7286,
      "ambling": 7287,
      "ĠEth": 7288,
      "prof": 7289,
      "agraph": 7290,
      "Ġharder": 7291,
      "Ġmeasuring": 7292,
      "ĠMach": 7293,
      "reland": 7294,
      "amps": 7295,
      "ĠUk": 7296,
      "ĠWithout": 7297,
      "ĠHaw": 7298,
      "Ġsatisf": 7299,
      "Ġdriven": 7300,
      "azon": 7301,
      "igating": 7302,
      "Ġfishing": 7303,
      "Ġaccidents": 7304,
      "Ġspots": 7305,
      "ĠFranc": 7306,
      "rays": 7307,
      "Ġblow": 7308,
      "Ġaimed": 7309,
      "mentia": 7310,
      "Ġinclusive": 7311,
      "Ġ300": 7312,
      "omic": 7313,
      "oted": 7314,
      "Ġimaging": 7315,
      "ĠAdminist": 7316,
      "ĠImport": 7317,
      "rovers": 7318,
      "Ġwarning": 7319,
      "Ġguard": 7320,
      "Ġmoves": 7321,
      "oster": 7322,
      "box": 7323,
      "Ġabst": 7324,
      "Ġrevenue": 7325,
      "Additionally": 7326,
      "ĠThomas": 7327,
      "Ġprominent": 7328,
      "Ġaward": 7329,
      "Ġring": 7330,
      "Ġchrom": 7331,
      "ĠEqu": 7332,
      "Ġmineral": 7333,
      "Ġgrains": 7334,
      "Ġperforming": 7335,
      "Ġcoc": 7336,
      "Ġchief": 7337,
      "EO": 7338,
      "Ġcollective": 7339,
      "Because": 7340,
      "ĠCommunity": 7341,
      "ella": 7342,
      "eutic": 7343,
      "Ġemployee": 7344,
      "Ġdecreased": 7345,
      "Äģ": 7346,
      "Ġsought": 7347,
      "Ġtransformation": 7348,
      "rine": 7349,
      "US": 7350,
      "People": 7351,
      "Ġecological": 7352,
      "Ġborder": 7353,
      "win": 7354,
      "Ġcompound": 7355,
      "Ġalternatives": 7356,
      "Ġexists": 7357,
      "Ġorient": 7358,
      "ĠIncre": 7359,
      "Ġblind": 7360,
      "Ġphotograph": 7361,
      "Ġpose": 7362,
      "Ġinterface": 7363,
      "arium": 7364,
      "ĠFederal": 7365,
      "ĠCommit": 7366,
      "Ġwearing": 7367,
      "Ġadoles": 7368,
      "ĠCanadian": 7369,
      "Ġduration": 7370,
      "Ġphysically": 7371,
      "ĠStat": 7372,
      "Ġtaxes": 7373,
      "Ġbehavioral": 7374,
      "ĠOcean": 7375,
      "75": 7376,
      "izers": 7377,
      "ĠWhere": 7378,
      "Ġpersonality": 7379,
      "ĠIndigenous": 7380,
      "Ġgrows": 7381,
      "ĠTor": 7382,
      "tainment": 7383,
      "esium": 7384,
      "Ġimprovements": 7385,
      "Get": 7386,
      "ĠRevolution": 7387,
      "uke": 7388,
      "ĠPo": 7389,
      "Ġcorner": 7390,
      "Ġinvestments": 7391,
      "ĠImpact": 7392,
      "Ġsucceed": 7393,
      "My": 7394,
      "Ġvibrant": 7395,
      "eping": 7396,
      "Ġbroader": 7397,
      "ĠCatholic": 7398,
      "ĠDisc": 7399,
      "Ġwasn": 7400,
      "Ġstead": 7401,
      "ĠProcess": 7402,
      "Ġhem": 7403,
      "ums": 7404,
      "Ġtight": 7405,
      "Ġswit": 7406,
      "unning": 7407,
      "aph": 7408,
      "Ġseverity": 7409,
      "Ġdates": 7410,
      "apse": 7411,
      "Ġaddressed": 7412,
      "oves": 7413,
      "brid": 7414,
      "Ġeco": 7415,
      "Ġcompass": 7416,
      "Ġrivers": 7417,
      "unicip": 7418,
      "ĠWord": 7419,
      "Ġtexts": 7420,
      "Ġagents": 7421,
      "ĠChristmas": 7422,
      "ĠChange": 7423,
      "olit": 7424,
      "Ġproof": 7425,
      "Ġobservations": 7426,
      "ÃŃ": 7427,
      "Ġpackaging": 7428,
      "ĠMr": 7429,
      "Ġemerged": 7430,
      "Su": 7431,
      "Ġallergies": 7432,
      "Ġ186": 7433,
      "Ġchart": 7434,
      "Ġtension": 7435,
      "Of": 7436,
      "ĠProper": 7437,
      "Ġinvestors": 7438,
      "heimer": 7439,
      "Ġtube": 7440,
      "Ġvictims": 7441,
      "ĠCompany": 7442,
      "ĠFree": 7443,
      "Ġpapers": 7444,
      "Ġroads": 7445,
      "Ġpassing": 7446,
      "ocial": 7447,
      "Ġcham": 7448,
      "ĠLabor": 7449,
      "Ġtraits": 7450,
      "Ġdose": 7451,
      "Ġov": 7452,
      "ocy": 7453,
      "otherapy": 7454,
      "Ġmaps": 7455,
      "asant": 7456,
      "Ġemotion": 7457,
      "Ġvariations": 7458,
      "Ġidentification": 7459,
      "ĠTreatment": 7460,
      "Ġlens": 7461,
      "Ġphosph": 7462,
      "cul": 7463,
      "Ġstatistics": 7464,
      "ĠOF": 7465,
      "Ġconsumed": 7466,
      "Ġencompass": 7467,
      "ĠIreland": 7468,
      "à¥": 7469,
      "ĠDigital": 7470,
      "han": 7471,
      "Ġsilver": 7472,
      "Ġexhaust": 7473,
      "ĠLead": 7474,
      "Ġcoastal": 7475,
      "Ġgent": 7476,
      "Ġdependent": 7477,
      "po": 7478,
      "Ġpit": 7479,
      "Ġhistoric": 7480,
      "Ġabsorb": 7481,
      "Ġdescription": 7482,
      "osquit": 7483,
      "Ġstatements": 7484,
      "DS": 7485,
      "Ġkeeps": 7486,
      "Ġequivalent": 7487,
      "Ġpla": 7488,
      "Ġgast": 7489,
      "Ġdiscussions": 7490,
      "ĠNetwork": 7491,
      "Ġadoption": 7492,
      "Ġarise": 7493,
      "Or": 7494,
      "Ġritual": 7495,
      "Ġissued": 7496,
      "Ġpin": 7497,
      "Ġbacterial": 7498,
      "Ġnewsp": 7499,
      "ĠWorks": 7500,
      "Ġirr": 7501,
      "EP": 7502,
      "ĠTV": 7503,
      "Ġcoat": 7504,
      "Ġamazing": 7505,
      "Ġequally": 7506,
      "Ġillnesses": 7507,
      "ĠSolar": 7508,
      "Ġhunting": 7509,
      "Ġbigger": 7510,
      "oples": 7511,
      "ĠDev": 7512,
      "Ġwisdom": 7513,
      "Ġgrew": 7514,
      "Ġphysics": 7515,
      "avirus": 7516,
      "itter": 7517,
      "Ġequipped": 7518,
      "ĠAge": 7519,
      "Ġasp": 7520,
      "that": 7521,
      "Ġshot": 7522,
      "Ġconsiderations": 7523,
      "eness": 7524,
      "ĠRome": 7525,
      "Ġpiv": 7526,
      "Ġsubsequent": 7527,
      "ptom": 7528,
      "ville": 7529,
      "called": 7530,
      "onym": 7531,
      "ĠMa": 7532,
      "Ġautism": 7533,
      "usal": 7534,
      "Ġpestic": 7535,
      "mes": 7536,
      "Ġfell": 7537,
      "Ġmarks": 7538,
      "Ġfeels": 7539,
      "Ġscenarios": 7540,
      "rating": 7541,
      "Ġcomposed": 7542,
      "Ġasthma": 7543,
      "ĠCancer": 7544,
      "Ġinitially": 7545,
      "ML": 7546,
      "Ġpeak": 7547,
      "Ġcarrying": 7548,
      "Ġaccounting": 7549,
      "Ġtheme": 7550,
      "ĠUSA": 7551,
      "Ġdrawn": 7552,
      "Ġfur": 7553,
      "Ġdestruction": 7554,
      "ĠPot": 7555,
      "ĠEst": 7556,
      "33": 7557,
      "Ġdepart": 7558,
      "ĠInvest": 7559,
      "Ġscope": 7560,
      "Ġaging": 7561,
      "oned": 7562,
      "ita": 7563,
      "Ġsaving": 7564,
      "Ġcurrency": 7565,
      "otes": 7566,
      "aws": 7567,
      "zym": 7568,
      "ĠBro": 7569,
      "Ġtemporary": 7570,
      "born": 7571,
      "Ġupdated": 7572,
      "soft": 7573,
      "akistan": 7574,
      "ĠReport": 7575,
      "Ġbreaks": 7576,
      "ĠLim": 7577,
      "Ġdecay": 7578,
      "struct": 7579,
      "Ġconstitution": 7580,
      "Ġpowder": 7581,
      "Ġescape": 7582,
      "istical": 7583,
      "Ġ1970": 7584,
      "Ġseam": 7585,
      "ĠLow": 7586,
      "Ġprincip": 7587,
      "ĠItaly": 7588,
      "Ġsummary": 7589,
      "Ġarchae": 7590,
      "Ġmitigate": 7591,
      "Ġallev": 7592,
      "net": 7593,
      "Ġdisability": 7594,
      "Ġwine": 7595,
      "Ġthereby": 7596,
      "Ġnuts": 7597,
      "Ġchlor": 7598,
      "Ġrank": 7599,
      "Ġlaunch": 7600,
      "efficient": 7601,
      "opy": 7602,
      "Ġaffordable": 7603,
      "Ġsitting": 7604,
      "Ġmoderate": 7605,
      "Ġflo": 7606,
      "Co": 7607,
      "Ġrelation": 7608,
      "Ġstreet": 7609,
      "ĠLED": 7610,
      "urric": 7611,
      "hea": 7612,
      "ĠScot": 7613,
      "Ġfounded": 7614,
      "no": 7615,
      "Ġpupils": 7616,
      "ĠEnd": 7617,
      "aria": 7618,
      "ĠFace": 7619,
      "Ġdynamics": 7620,
      "Ġampl": 7621,
      "Ġscreening": 7622,
      "cher": 7623,
      "Ġ2007": 7624,
      "Ġsatellite": 7625,
      "ala": 7626,
      "top": 7627,
      "Ġbeings": 7628,
      "ĠAgricult": 7629,
      "Ġsacr": 7630,
      "oken": 7631,
      "Ġhazards": 7632,
      "Ġinspired": 7633,
      "Ġutilized": 7634,
      "ema": 7635,
      "Ġempt": 7636,
      "Ġinn": 7637,
      "ĠColl": 7638,
      "Ġlungs": 7639,
      "Ġseconds": 7640,
      "Ġranging": 7641,
      "Ġepid": 7642,
      "Ġencouraging": 7643,
      "ĠBoard": 7644,
      "Ġdefend": 7645,
      "tles": 7646,
      "ua": 7647,
      "\",": 7648,
      "Ġships": 7649,
      "ĠProtection": 7650,
      "ĠBur": 7651,
      "Ġresponsibilities": 7652,
      "Ġmotivation": 7653,
      "ĠTHE": 7654,
      "Ġtons": 7655,
      "irty": 7656,
      "Ġhorses": 7657,
      "Ġfinger": 7658,
      "play": 7659,
      "Ġbiom": 7660,
      "Ġmistakes": 7661,
      "Ġdairy": 7662,
      "amil": 7663,
      "ĠTry": 7664,
      "ĠPython": 7665,
      "Ġgases": 7666,
      "Ġfo": 7667,
      "Ġhighlights": 7668,
      "Ġpriority": 7669,
      "Ġmathematics": 7670,
      "ĠNeed": 7671,
      "Ġpra": 7672,
      "Ġdisaster": 7673,
      "Ġemphasis": 7674,
      "Ġtact": 7675,
      "press": 7676,
      "Ġutilize": 7677,
      "Ġcontributed": 7678,
      "Ġsenior": 7679,
      "Ġmice": 7680,
      "iological": 7681,
      "Qu": 7682,
      "ĠSpecial": 7683,
      "Go": 7684,
      "erally": 7685,
      "ĠSouthern": 7686,
      "ĠFund": 7687,
      "Also": 7688,
      "utch": 7689,
      "ĠSil": 7690,
      "Ġabsence": 7691,
      "Ġrestore": 7692,
      "emia": 7693,
      "Ġpace": 7694,
      "Ġcarbohyd": 7695,
      "Ġimagine": 7696,
      "Ġouter": 7697,
      "aud": 7698,
      "Ġassociation": 7699,
      "ĠStudy": 7700,
      "Ġtheories": 7701,
      "ĠThough": 7702,
      "Ġbutton": 7703,
      "how": 7704,
      "Ġdisadvant": 7705,
      "ĠLibrary": 7706,
      "medi": 7707,
      "iat": 7708,
      "Ġindigenous": 7709,
      "Ġownership": 7710,
      "Ġwound": 7711,
      "Ġdestroyed": 7712,
      "effective": 7713,
      "ĠPolic": 7714,
      "Ġhonor": 7715,
      "Ġsimult": 7716,
      "Ġperm": 7717,
      "Ġangle": 7718,
      "Ġconsuming": 7719,
      "Ġmaintained": 7720,
      "ĠHelp": 7721,
      "Ġcirculation": 7722,
      "etary": 7723,
      "ontal": 7724,
      "Ġestimate": 7725,
      "ĠFre": 7726,
      "Ġantibiotics": 7727,
      "Ġartistic": 7728,
      "Ġsoph": 7729,
      "ĠEns": 7730,
      "arents": 7731,
      "Ġintegral": 7732,
      "Ġmir": 7733,
      "ĠWood": 7734,
      "Ġlandscap": 7735,
      "acco": 7736,
      "ĠWindows": 7737,
      "orph": 7738,
      "Ġitem": 7739,
      "ĠMult": 7740,
      "Ġbuying": 7741,
      "Ġchicken": 7742,
      "ubs": 7743,
      "Ġsatisfact": 7744,
      "Ġalongside": 7745,
      "ĠValley": 7746,
      "sue": 7747,
      "ĠReview": 7748,
      "Ġstre": 7749,
      "Ġenhances": 7750,
      "ĠEmpire": 7751,
      "LE": 7752,
      "ĠBig": 7753,
      "Ġ...": 7754,
      "ĠStrateg": 7755,
      "ĠBitcoin": 7756,
      "izz": 7757,
      "lessly": 7758,
      "Ġspray": 7759,
      "Ġresid": 7760,
      "Ġswelling": 7761,
      "gu": 7762,
      "Ġcentre": 7763,
      "Ġuniversal": 7764,
      "Ġtheore": 7765,
      "pling": 7766,
      "Ġinfluences": 7767,
      "zheimer": 7768,
      "Ġhumanity": 7769,
      "isations": 7770,
      "Ġcolumn": 7771,
      "Ġessentially": 7772,
      "Ġreveal": 7773,
      "Ġaddresses": 7774,
      "Ġepis": 7775,
      "through": 7776,
      "Ġtoys": 7777,
      "Ġunusual": 7778,
      "Ġquiet": 7779,
      "ĠIll": 7780,
      "Ġexhibit": 7781,
      "ĠEngineering": 7782,
      "forest": 7783,
      "Ġtemple": 7784,
      "Ġinstant": 7785,
      "Ġpsychology": 7786,
      "Ġinher": 7787,
      "Ġhypothes": 7788,
      "ounce": 7789,
      "Ġmobility": 7790,
      "Ġestimates": 7791,
      "tic": 7792,
      "TP": 7793,
      "Ġrealm": 7794,
      "Ġurine": 7795,
      "eries": 7796,
      "ĠDiv": 7797,
      "Ġ1980": 7798,
      "ĠSystems": 7799,
      "Ġaids": 7800,
      "Ġ1960": 7801,
      "ĠBrazil": 7802,
      "Ġplanned": 7803,
      "Ġanticip": 7804,
      "ĠClin": 7805,
      "Ġprohib": 7806,
      "Ġcas": 7807,
      "Ġconfident": 7808,
      "Ġsurgical": 7809,
      "Ġalumin": 7810,
      "ĠLight": 7811,
      "Ġincent": 7812,
      "Ġkm": 7813,
      "Ġbreaking": 7814,
      "Ġmes": 7815,
      "TS": 7816,
      "eeding": 7817,
      "Ġshaping": 7818,
      "ĠVirginia": 7819,
      "elfare": 7820,
      "Ġjoined": 7821,
      "reens": 7822,
      "Ġinitiative": 7823,
      "atial": 7824,
      "Ġshaped": 7825,
      "rical": 7826,
      "ĠChe": 7827,
      "Ġsuit": 7828,
      "oys": 7829,
      "Ġdimens": 7830,
      "Ġflows": 7831,
      "Use": 7832,
      "Ġinvesting": 7833,
      "Ġneutral": 7834,
      "Ġgardens": 7835,
      "produ": 7836,
      "etime": 7837,
      "Ġforg": 7838,
      "Ġoils": 7839,
      "bur": 7840,
      "arency": 7841,
      "Ġdollars": 7842,
      "cend": 7843,
      "Ġacute": 7844,
      "Ġobstac": 7845,
      "ih": 7846,
      "Ġsug": 7847,
      "Ġtone": 7848,
      "Ġenthusi": 7849,
      "Ġherb": 7850,
      "Ġprevents": 7851,
      "Ġsymbols": 7852,
      "ĠSpain": 7853,
      "Ġbarrier": 7854,
      "Ġunn": 7855,
      "Art": 7856,
      "ĠItalian": 7857,
      "Ġ2024": 7858,
      "rane": 7859,
      "inson": 7860,
      "cled": 7861,
      "TH": 7862,
      "Ġpaying": 7863,
      "Ġqualities": 7864,
      "Ġcollaborative": 7865,
      "Ġattempts": 7866,
      "Ġconstructed": 7867,
      "Ġengines": 7868,
      "Ġgambling": 7869,
      "Ġtexture": 7870,
      "entral": 7871,
      "Ġappreciate": 7872,
      "Ġaggressive": 7873,
      "sm": 7874,
      "Ġthousand": 7875,
      "95": 7876,
      "istant": 7877,
      "Ġpractition": 7878,
      "Ġmixture": 7879,
      "Ġears": 7880,
      "ugh": 7881,
      "ady": 7882,
      "ĠOx": 7883,
      "Ġske": 7884,
      "ald": 7885,
      "Ġdrinks": 7886,
      "Ġmathematical": 7887,
      "Ġgrant": 7888,
      "ĠPain": 7889,
      "Ġdeficiency": 7890,
      "orical": 7891,
      "Ġ75": 7892,
      "Ġneur": 7893,
      "Ġcontainers": 7894,
      "Ġpreferred": 7895,
      "ĠClean": 7896,
      "nected": 7897,
      "ĠBab": 7898,
      "Ġbiology": 7899,
      "Ġdebris": 7900,
      "IA": 7901,
      "Ġinterpretation": 7902,
      "oir": 7903,
      "Ġaccompan": 7904,
      "Ġrac": 7905,
      "Ġwal": 7906,
      "Ġequality": 7907,
      "Ġrestrictions": 7908,
      "ĠHenry": 7909,
      "Ġcontrovers": 7910,
      "rance": 7911,
      "Ġcontained": 7912,
      "Ġsocieties": 7913,
      "Ġconserv": 7914,
      "Ġforming": 7915,
      "Ġfalling": 7916,
      "Ġsusceptible": 7917,
      "ĠTop": 7918,
      "ĠNorthern": 7919,
      "Ġdevelopments": 7920,
      "Ġcelebrated": 7921,
      "ĠVitamin": 7922,
      "Ġconflicts": 7923,
      "Ġconversations": 7924,
      "iances": 7925,
      "Ġscenario": 7926,
      "uis": 7927,
      "Ġneighborhood": 7928,
      "ĠSmith": 7929,
      "Ġthread": 7930,
      "onomic": 7931,
      "wo": 7932,
      "Ġcooperation": 7933,
      "Ġprescribed": 7934,
      "Ġraising": 7935,
      "yal": 7936,
      "ĠPakistan": 7937,
      "ĠFamily": 7938,
      "iary": 7939,
      "Ġpainful": 7940,
      "Ġcort": 7941,
      "Ġsupposed": 7942,
      "author": 7943,
      "ĠCharles": 7944,
      "irms": 7945,
      "Ġcorrel": 7946,
      "een": 7947,
      "Ġbleeding": 7948,
      "Ġpounds": 7949,
      "Ġlon": 7950,
      "bert": 7951,
      "Ġradical": 7952,
      "but": 7953,
      "Ġpreparing": 7954,
      "Ġbonds": 7955,
      "Ġsensory": 7956,
      "Ġreplacement": 7957,
      "ket": 7958,
      "pan": 7959,
      "oli": 7960,
      "Ġphoto": 7961,
      "Ġquantity": 7962,
      "Ġmas": 7963,
      "ĠAsian": 7964,
      "Ġcure": 7965,
      "Ġoptimize": 7966,
      "Ġcomments": 7967,
      "Ġstones": 7968,
      "Ġchat": 7969,
      "Ġprox": 7970,
      "icy": 7971,
      "Ġannounced": 7972,
      "Ġsafeguard": 7973,
      "Ġconvenient": 7974,
      "Ġfinished": 7975,
      "Furthermore": 7976,
      "ĠUt": 7977,
      "ĠRedu": 7978,
      "ctor": 7979,
      "Ġcontrolling": 7980,
      "Ġtomat": 7981,
      "Ġanalys": 7982,
      "solving": 7983,
      "ĠIC": 7984,
      "ĠAcademy": 7985,
      "Ġattach": 7986,
      "ĠAmazon": 7987,
      "ĠFind": 7988,
      "ooking": 7989,
      "ĠViet": 7990,
      "Ġvote": 7991,
      "arn": 7992,
      "Ġvaries": 7993,
      "icating": 7994,
      "ola": 7995,
      "assium": 7996,
      "aped": 7997,
      "ĠKey": 7998,
      "ĠRobert": 7999,
      "Ġcompris": 8000,
      "Where": 8001,
      "Ġillegal": 8002,
      "ĠCost": 8003,
      "ietal": 8004,
      "Ġanalyzing": 8005,
      "Ġentering": 8006,
      "PN": 8007,
      "Ġlosing": 8008,
      "Ġlikel": 8009,
      "RA": 8010,
      "Ġrocks": 8011,
      "Ġdifferently": 8012,
      "Ġcovering": 8013,
      "Ġbeans": 8014,
      "Ġweapons": 8015,
      "ulpt": 8016,
      "Ġyoga": 8017,
      "Ġasset": 8018,
      "Ġwriters": 8019,
      "Ġrestoration": 8020,
      "].": 8021,
      "ĠMag": 8022,
      "Ġfed": 8023,
      "Ġscar": 8024,
      "ĠAnalysis": 8025,
      "icted": 8026,
      "ĠMars": 8027,
      "Ġconcerning": 8028,
      "ĠKingdom": 8029,
      "Ġconstit": 8030,
      "ĠOnline": 8031,
      "theless": 8032,
      "Ġconvert": 8033,
      "Ġinspect": 8034,
      "Ġparallel": 8035,
      "Ġinterpre": 8036,
      "Ġstrongly": 8037,
      "Ġliber": 8038,
      "ĠColumb": 8039,
      "rary": 8040,
      "heet": 8041,
      "eling": 8042,
      "itarian": 8043,
      "ĠMad": 8044,
      "Ġstruggling": 8045,
      "Ġcaptured": 8046,
      "Ġprogramme": 8047,
      "apor": 8048,
      "HA": 8049,
      "Tra": 8050,
      "ĠList": 8051,
      "Ġstaying": 8052,
      "ĠEnc": 8053,
      "Ġster": 8054,
      "plete": 8055,
      "Ġfaces": 8056,
      "Ġspecialist": 8057,
      "Ġrarely": 8058,
      "Ġaband": 8059,
      "See": 8060,
      "sey": 8061,
      "Ġdiffer": 8062,
      "rav": 8063,
      "burg": 8064,
      "Ġarrived": 8065,
      "ĠAlzheimer": 8066,
      "Ġestablishing": 8067,
      "erts": 8068,
      "Ġalgorithm": 8069,
      "Ġacknowled": 8070,
      "aning": 8071,
      "ĠDifferent": 8072,
      "Ġglobe": 8073,
      "Ġdrought": 8074,
      "Ġrequiring": 8075,
      "Ġweigh": 8076,
      "Ġfarms": 8077,
      "ĠFrank": 8078,
      "Ġpest": 8079,
      "Ġceremon": 8080,
      "ĠJoseph": 8081,
      "ruit": 8082,
      "Ġrestric": 8083,
      "Ġpropag": 8084,
      "Ġmerely": 8085,
      "iva": 8086,
      "Ġadm": 8087,
      "Ġsuperior": 8088,
      "Ġfootprint": 8089,
      "Ġgums": 8090,
      "Ġorigins": 8091,
      "Ġdatas": 8092,
      "Ġpassage": 8093,
      "Ġdil": 8094,
      "ĠFrancis": 8095,
      "Ġcough": 8096,
      "Ġhappiness": 8097,
      "Ġagreed": 8098,
      "Ġusual": 8099,
      "Ġ2005": 8100,
      "Ġbranch": 8101,
      "Ġtech": 8102,
      "Ġdish": 8103,
      "ĠFire": 8104,
      "Ġinvestigation": 8105,
      "Ġcontribution": 8106,
      "Ġtherapeutic": 8107,
      "zymes": 8108,
      "Ġlikelihood": 8109,
      "Ġpuzz": 8110,
      "ryption": 8111,
      "ĠTeac": 8112,
      "Ġfemales": 8113,
      "mented": 8114,
      "Ġuniform": 8115,
      "ĠVictor": 8116,
      "Ġmanifest": 8117,
      "Ġfunctionality": 8118,
      "Ġ150": 8119,
      "Ġmanagers": 8120,
      "Sim": 8121,
      "Ġoperational": 8122,
      "Ġmaybe": 8123,
      "Ġpel": 8124,
      "Ġpredators": 8125,
      "Ġdaughter": 8126,
      "Ġdivision": 8127,
      "ĠDan": 8128,
      "Ġadopt": 8129,
      "Ġtransmit": 8130,
      "Ġprone": 8131,
      "ĠCommittee": 8132,
      "ocolate": 8133,
      "heast": 8134,
      "itory": 8135,
      "ĠLouis": 8136,
      "ĠCamp": 8137,
      "ĠCP": 8138,
      "ĠAgency": 8139,
      "Ġthemes": 8140,
      "Ġdetected": 8141,
      "quir": 8142,
      "Ġholiday": 8143,
      "aded": 8144,
      "Ġru": 8145,
      "rained": 8146,
      "SC": 8147,
      "Ġscal": 8148,
      "Ġoccurring": 8149,
      "Ġmanager": 8150,
      "Ġtong": 8151,
      "Ġbag": 8152,
      "Ġdiarr": 8153,
      "rics": 8154,
      "Ġreliability": 8155,
      "Ġlegacy": 8156,
      "Ġtropical": 8157,
      "Ġparagraph": 8158,
      "Ġstations": 8159,
      "Ġforth": 8160,
      "Ġ188": 8161,
      "ĠIN": 8162,
      "Ġneural": 8163,
      "Ġ2006": 8164,
      "Ġdementia": 8165,
      "36": 8166,
      "ĠEastern": 8167,
      "Ġretail": 8168,
      "ĠBlue": 8169,
      "Ġspinal": 8170,
      "Ġvertical": 8171,
      "Ġhydro": 8172,
      "Ġargue": 8173,
      "Finally": 8174,
      "mia": 8175,
      "mega": 8176,
      "Ġlasting": 8177,
      "Ġexplanation": 8178,
      "Ġcolonial": 8179,
      "rous": 8180,
      "Ġmolecular": 8181,
      "Ġmortality": 8182,
      "Ġprotocols": 8183,
      "ograp": 8184,
      "ĠGr": 8185,
      "Ġroughly": 8186,
      "Ġmales": 8187,
      "ĠForest": 8188,
      "OU": 8189,
      "Ġtailored": 8190,
      "Ġà¤": 8191,
      "ĠInit": 8192,
      "ĠResources": 8193,
      "ĠLo": 8194,
      "FT": 8195,
      "berry": 8196,
      "ĠVar": 8197,
      "Ġseg": 8198,
      "ugs": 8199,
      "Ġvalve": 8200,
      "Ġbias": 8201,
      "Ġvegetable": 8202,
      "ĠStreet": 8203,
      "ĠFuture": 8204,
      "ĠRoyal": 8205,
      "Ġempathy": 8206,
      "Ġappeal": 8207,
      "ĠPlay": 8208,
      "Ġminds": 8209,
      "Ġhun": 8210,
      "ĠUnlike": 8211,
      "Ġminute": 8212,
      "Ġopinions": 8213,
      "Ġnob": 8214,
      "Am": 8215,
      "ĠType": 8216,
      "ceptions": 8217,
      "flammatory": 8218,
      "Ġended": 8219,
      "eenth": 8220,
      "ĠOrganization": 8221,
      "Ġtrick": 8222,
      "Ġreverse": 8223,
      "Ġmetabolism": 8224,
      "Ġselecting": 8225,
      "pes": 8226,
      "Ġgrain": 8227,
      "Don": 8228,
      "ĠAssess": 8229,
      "ĠTraining": 8230,
      "ĠDirector": 8231,
      "Ġkilomet": 8232,
      "Ġthorough": 8233,
      "Ġincident": 8234,
      "Ġconfirmed": 8235,
      "Ġoxid": 8236,
      "Ġprioritize": 8237,
      "Through": 8238,
      "Le": 8239,
      "Ġtor": 8240,
      "Ã¶": 8241,
      "Ġmask": 8242,
      "Ġwaiting": 8243,
      "Ġmarg": 8244,
      "ĠMental": 8245,
      "Ġclothes": 8246,
      "Ġtroops": 8247,
      "ĠNever": 8248,
      "Ġabsorption": 8249,
      "Ġlaid": 8250,
      "ĠCentre": 8251,
      "Ġtables": 8252,
      "ĠOper": 8253,
      "ĠIntellig": 8254,
      "Ġindicated": 8255,
      "Ġreson": 8256,
      "acts": 8257,
      "Ġshorter": 8258,
      "ĠCov": 8259,
      "Ġtrading": 8260,
      "Ġmigration": 8261,
      "stru": 8262,
      "Ġsleeping": 8263,
      "Ġguarantee": 8264,
      "clusive": 8265,
      "Ġthyroid": 8266,
      "bits": 8267,
      "fol": 8268,
      "Ġconsistently": 8269,
      "Ġoverview": 8270,
      "resent": 8271,
      "Ġagent": 8272,
      "Ġlymph": 8273,
      "Ġnucle": 8274,
      "Ã³": 8275,
      "imm": 8276,
      "Ġproportion": 8277,
      "ashes": 8278,
      "agon": 8279,
      "Ġswimming": 8280,
      "Ġcircle": 8281,
      "Ġprolong": 8282,
      "dep": 8283,
      "Ġcommission": 8284,
      "Ġcaptiv": 8285,
      "ĠQuestions": 8286,
      "Ġfires": 8287,
      "ĠEffect": 8288,
      "Ġdesigners": 8289,
      "38": 8290,
      "Ġentreprene": 8291,
      "isters": 8292,
      "Ġhouseholds": 8293,
      "Ġclassified": 8294,
      "Ġcust": 8295,
      "ĠAmong": 8296,
      "espan": 8297,
      "Ġcircular": 8298,
      "Ġcertific": 8299,
      "Ġrose": 8300,
      "havior": 8301,
      "Ġpromise": 8302,
      "MA": 8303,
      "Ġuniversities": 8304,
      "plement": 8305,
      "ĠSciences": 8306,
      "Ġvegetation": 8307,
      "IG": 8308,
      "48": 8309,
      "ĠJo": 8310,
      "Ġven": 8311,
      "Ġprofile": 8312,
      "Ġversions": 8313,
      "Ġprinted": 8314,
      "Ġkitchen": 8315,
      "Ġenorm": 8316,
      "ĠProp": 8317,
      "rencies": 8318,
      "Ġcaught": 8319,
      "Ġsynthetic": 8320,
      "Ġcanal": 8321,
      "Ġimpair": 8322,
      "lete": 8323,
      "Ġcompat": 8324,
      "lishing": 8325,
      "Ġproductive": 8326,
      "Ġathletes": 8327,
      "oust": 8328,
      "ĠBack": 8329,
      "Ġrequirement": 8330,
      "ivities": 8331,
      "Ġdense": 8332,
      "IL": 8333,
      "Ġupdates": 8334,
      "Ġdiameter": 8335,
      "Ġchannel": 8336,
      "arming": 8337,
      "Ġinsulation": 8338,
      "Ġcoordination": 8339,
      "Ġalike": 8340,
      "urated": 8341,
      "Ġjudge": 8342,
      "anger": 8343,
      "Per": 8344,
      "Ġdeclared": 8345,
      "Ġcotton": 8346,
      "conscious": 8347,
      "ittle": 8348,
      "ĠLevel": 8349,
      "Ġgaps": 8350,
      "Ġnewly": 8351,
      "aware": 8352,
      "ĠPrevention": 8353,
      "Each": 8354,
      "Ġid": 8355,
      "Ġgaming": 8356,
      "Ġassessments": 8357,
      "Ġeastern": 8358,
      "itt": 8359,
      "levision": 8360,
      "ĠMethod": 8361,
      "ildren": 8362,
      "BS": 8363,
      "ĠScott": 8364,
      "Figure": 8365,
      "Ġscript": 8366,
      "Ġflag": 8367,
      "Ġenvironmentally": 8368,
      "Ġconsiderable": 8369,
      "Ġprospect": 8370,
      "Ġfairly": 8371,
      "Ġresistant": 8372,
      "uten": 8373,
      "Ġfertilizer": 8374,
      "Ġmosquit": 8375,
      "Ġdesigning": 8376,
      "Ġspr": 8377,
      "Ġvolcan": 8378,
      "Ã¼": 8379,
      "Ġadapted": 8380,
      "Ġcord": 8381,
      "Ġresearcher": 8382,
      "ĠSup": 8383,
      "Ġconj": 8384,
      "Ġdefinitely": 8385,
      "ĠJohns": 8386,
      "Ġlake": 8387,
      "Ġphysician": 8388,
      "Ġelder": 8389,
      "Ġpromising": 8390,
      "Ġpayments": 8391,
      "anta": 8392,
      "Ġimmers": 8393,
      "Ġutilizing": 8394,
      "Dis": 8395,
      "Ġembrace": 8396,
      "Ġbrush": 8397,
      "Ġfinish": 8398,
      "ained": 8399,
      "Ġpivotal": 8400,
      "Ġgeomet": 8401,
      "ographical": 8402,
      "Ġol": 8403,
      "uris": 8404,
      "Ġcm": 8405,
      "ĠDiet": 8406,
      "Ġobservation": 8407,
      "ĠModern": 8408,
      "class": 8409,
      "Ġaccessibility": 8410,
      "ki": 8411,
      "Ġsodium": 8412,
      "ĠExcel": 8413,
      "occ": 8414,
      "Ġrect": 8415,
      "ĠPlease": 8416,
      "Ġautomation": 8417,
      "Ġthoroughly": 8418,
      "Ġhence": 8419,
      "Ġsafer": 8420,
      "Ġlie": 8421,
      "Ġcorporate": 8422,
      "Ġoblig": 8423,
      "ĠBuilding": 8424,
      "asy": 8425,
      "Ġtens": 8426,
      "athered": 8427,
      "Ġrepet": 8428,
      "ĠPhysical": 8429,
      "agnetic": 8430,
      "ĠReading": 8431,
      "eem": 8432,
      "Ġpill": 8433,
      "Ġmanufacturer": 8434,
      "Ġwatching": 8435,
      "Ġbite": 8436,
      "ĠOh": 8437,
      "Ġarrest": 8438,
      "Ġfinds": 8439,
      "Ġchemistry": 8440,
      "Ġspine": 8441,
      "Ġresidential": 8442,
      "Med": 8443,
      "Ġtranslation": 8444,
      "criptions": 8445,
      "ĠPet": 8446,
      "Ġarthritis": 8447,
      "Ġinvestigate": 8448,
      "vol": 8449,
      "ecessary": 8450,
      "ials": 8451,
      "driven": 8452,
      "Ġgentle": 8453,
      "Ġinherent": 8454,
      "ĠBeing": 8455,
      "icking": 8456,
      "Ġdistract": 8457,
      "Ġdishes": 8458,
      "ounder": 8459,
      "ht": 8460,
      "har": 8461,
      "ĠSwed": 8462,
      "ĠMoon": 8463,
      "rowth": 8464,
      "ĠGeorg": 8465,
      "berries": 8466,
      "Ġembed": 8467,
      "Inc": 8468,
      "Ġshoot": 8469,
      "Ġassume": 8470,
      "HS": 8471,
      "ĠSuper": 8472,
      "Ġsigned": 8473,
      "yr": 8474,
      "ĠAdministration": 8475,
      "ali": 8476,
      "ĠUr": 8477,
      "Ġrestaur": 8478,
      "Ġentered": 8479,
      "ĠADHD": 8480,
      "iral": 8481,
      "Ġmyst": 8482,
      "FA": 8483,
      "ifier": 8484,
      "ĠCarolina": 8485,
      "Ġveterin": 8486,
      "Ġvarying": 8487,
      "Ġmodified": 8488,
      "angered": 8489,
      "Ġscientist": 8490,
      "Ġpublication": 8491,
      "Ġnone": 8492,
      "Ġconnecting": 8493,
      "ĠBenefits": 8494,
      "Ġevolving": 8495,
      "inery": 8496,
      "Ġwithdraw": 8497,
      "rolled": 8498,
      "ĠUnfortunately": 8499,
      "expected": 8500,
      "Ġcodes": 8501,
      "ĠGal": 8502,
      "Ġplus": 8503,
      "Ġ65": 8504,
      "ette": 8505,
      "archy": 8506,
      "Ġcalculate": 8507,
      "avery": 8508,
      "cr": 8509,
      "Ġfilters": 8510,
      "Ġevident": 8511,
      "Ġcancers": 8512,
      "Ġdoors": 8513,
      "Ġdemocracy": 8514,
      "Ear": 8515,
      "Ġcybersecurity": 8516,
      "Ġdim": 8517,
      "Ġperceived": 8518,
      "Ġworst": 8519,
      "Ġ31": 8520,
      "Ġpenet": 8521,
      "ĠHaving": 8522,
      "Ġsculpt": 8523,
      "Ġdefe": 8524,
      "Ġpeer": 8525,
      "Ġ36": 8526,
      "Ġtoile": 8527,
      "mm": 8528,
      "Ġessence": 8529,
      "Ps": 8530,
      "Ġdegrad": 8531,
      "Ġdiets": 8532,
      "ĠLar": 8533,
      "Ġsubt": 8534,
      "ĠMill": 8535,
      "Ġauto": 8536,
      "Ġlip": 8537,
      "Ġinterior": 8538,
      "healthy": 8539,
      "Ġaged": 8540,
      "32": 8541,
      "books": 8542,
      "Ġthroat": 8543,
      "Ġdevast": 8544,
      "Ġclassic": 8545,
      "Ġreflects": 8546,
      "ĠRight": 8547,
      "ĠCode": 8548,
      "inf": 8549,
      "Ġsomewhat": 8550,
      "Overall": 8551,
      "ptic": 8552,
      "obile": 8553,
      "Ġtip": 8554,
      "Ġmedicines": 8555,
      "Ġdigestion": 8556,
      "Ġestate": 8557,
      "ĠIrish": 8558,
      "Ġdevelops": 8559,
      "Ġlibr": 8560,
      "eras": 8561,
      "PC": 8562,
      "Ġexpanded": 8563,
      "ĠIslam": 8564,
      "Ġsolving": 8565,
      "Ġphrase": 8566,
      "ĠDue": 8567,
      "ders": 8568,
      "Ġmunicip": 8569,
      "Ġmarried": 8570,
      "Ġexamined": 8571,
      "stein": 8572,
      "ĠYoung": 8573,
      "Em": 8574,
      "Ġearthqu": 8575,
      "example": 8576,
      "Ġcharacteristic": 8577,
      "ĠIoT": 8578,
      "Ġbee": 8579,
      "phones": 8580,
      "ĠHeart": 8581,
      "iders": 8582,
      "arded": 8583,
      "Ġneither": 8584,
      "Ġham": 8585,
      "Ġstuff": 8586,
      "Ġassigned": 8587,
      "vision": 8588,
      "semb": 8589,
      "Ġluck": 8590,
      "Ġwash": 8591,
      "Ġpeoples": 8592,
      "Ġfraud": 8593,
      "Ġsteam": 8594,
      "Ġhack": 8595,
      "best": 8596,
      "Ġhospitals": 8597,
      "Ġtherapies": 8598,
      "ivest": 8599,
      "ĠHT": 8600,
      "Ġdiscipline": 8601,
      "owners": 8602,
      "Ġreputation": 8603,
      "abis": 8604,
      "ĠContin": 8605,
      "Ġtourism": 8606,
      "Ġloan": 8607,
      "Ġpracticing": 8608,
      "Ġslavery": 8609,
      "ĠTool": 8610,
      "Ġtwenty": 8611,
      "icago": 8612,
      "ĠNig": 8613,
      "Ġspeeds": 8614,
      "Ġattractive": 8615,
      "ĠLin": 8616,
      "isticated": 8617,
      "Ġoccas": 8618,
      "Ġwww": 8619,
      "ĠPop": 8620,
      "Ġindirect": 8621,
      "Ġburden": 8622,
      "atoes": 8623,
      "Ġsad": 8624,
      "ĠIslamic": 8625,
      "ĠMind": 8626,
      "ĠTrust": 8627,
      "Ġduty": 8628,
      "Ġloose": 8629,
      "Ġfourth": 8630,
      "edge": 8631,
      "ĠAst": 8632,
      "Ġspan": 8633,
      "Ġappointment": 8634,
      "Ġintention": 8635,
      "heric": 8636,
      "ĠHoly": 8637,
      "Ġtumor": 8638,
      "Table": 8639,
      "Ġachievement": 8640,
      "rological": 8641,
      "About": 8642,
      "Ġinstances": 8643,
      "Ġoldest": 8644,
      "flu": 8645,
      "ĠKorea": 8646,
      "Ġvig": 8647,
      "orrect": 8648,
      "isted": 8649,
      "real": 8650,
      "ĠMah": 8651,
      "CD": 8652,
      "ĠVe": 8653,
      "illa": 8654,
      "Ġelection": 8655,
      "37": 8656,
      "Ġencount": 8657,
      "ĠAuthor": 8658,
      "Sec": 8659,
      "ffe": 8660,
      "Ġmindfulness": 8661,
      "Ġsuffered": 8662,
      "ĠPractice": 8663,
      "Ġpipe": 8664,
      "ĠPeter": 8665,
      "Ġharness": 8666,
      "Ġholistic": 8667,
      "night": 8668,
      "Ġalph": 8669,
      "una": 8670,
      "Ġdiagnostic": 8671,
      "ĠHosp": 8672,
      "Ġton": 8673,
      "ĠCreat": 8674,
      "Ġorange": 8675,
      "Ġflying": 8676,
      "Ġgalax": 8677,
      "Ġhusband": 8678,
      "ĠWho": 8679,
      "otype": 8680,
      "Ġcalling": 8681,
      "Ġadj": 8682,
      "Ġunexpected": 8683,
      "Ġreasonable": 8684,
      "Ġsoul": 8685,
      "Ġdies": 8686,
      "Ġreturns": 8687,
      "made": 8688,
      "Ġsimultaneously": 8689,
      "Ġclock": 8690,
      "Ġutility": 8691,
      "Ġchannels": 8692,
      "Ġislands": 8693,
      "ĠTimes": 8694,
      "ĠBest": 8695,
      "Ġnotable": 8696,
      "Ġinvolvement": 8697,
      "ĠZeal": 8698,
      "Ġdistinctive": 8699,
      "Ġwheat": 8700,
      "Sm": 8701,
      "Who": 8702,
      "Ġpartnership": 8703,
      "Ġallergic": 8704,
      "Ġseat": 8705,
      "Ġattitude": 8706,
      "Ġsupportive": 8707,
      "Ġmm": 8708,
      "Remember": 8709,
      "34": 8710,
      "ipher": 8711,
      "encing": 8712,
      "ogens": 8713,
      "Ġhall": 8714,
      "Ġwinning": 8715,
      "Ġisolation": 8716,
      "ĠMel": 8717,
      "ĠMot": 8718,
      "Ġcharging": 8719,
      "Ġflash": 8720,
      "Ġinh": 8721,
      "Com": 8722,
      "IR": 8723,
      "function": 8724,
      "rier": 8725,
      "Ġvaried": 8726,
      "Ġspark": 8727,
      "Ġtends": 8728,
      "Ġsentences": 8729,
      "Ġdrainage": 8730,
      "ano": 8731,
      "ureau": 8732,
      "Ġpassword": 8733,
      "ani": 8734,
      "Ġtab": 8735,
      "ĠAnn": 8736,
      "ĠExamples": 8737,
      "rd": 8738,
      "Ġsocietal": 8739,
      "Ġrecycled": 8740,
      "Health": 8741,
      "utical": 8742,
      "Ġcompassion": 8743,
      "Ġboys": 8744,
      "Ġsongs": 8745,
      "borne": 8746,
      "Ġexperimental": 8747,
      "Ġreproductive": 8748,
      "Ġcoding": 8749,
      "step": 8750,
      "chnology": 8751,
      "Ġrehab": 8752,
      "ĠFacebook": 8753,
      "eting": 8754,
      "Ġdestination": 8755,
      "Ġassembly": 8756,
      "Ġadvances": 8757,
      "Ġisolated": 8758,
      "Ġpeers": 8759,
      "Ġscores": 8760,
      "Ġtransparency": 8761,
      "ĠMath": 8762,
      "Ġwellness": 8763,
      "Ġharsh": 8764,
      "stration": 8765,
      "ĠCurrent": 8766,
      "ooked": 8767,
      "sor": 8768,
      "Ġinhabit": 8769,
      "Ġvariation": 8770,
      "Ġgiant": 8771,
      "powered": 8772,
      "Ġheads": 8773,
      "Ġlicens": 8774,
      "Ġnurt": 8775,
      "Ġcable": 8776,
      "ĠProm": 8777,
      "Ġadaptation": 8778,
      "Ġearliest": 8779,
      "Ġopposed": 8780,
      "Ġirrigation": 8781,
      "Ġcontracts": 8782,
      "Pr": 8783,
      "ĠSelf": 8784,
      "ĠPur": 8785,
      "erated": 8786,
      "Ġinflation": 8787,
      "ilitation": 8788,
      "Ġcomplement": 8789,
      "Ġhat": 8790,
      "rey": 8791,
      "Ġcharged": 8792,
      "Ġplot": 8793,
      "Ġinvasive": 8794,
      "Ġrelaxation": 8795,
      "uming": 8796,
      "Ġlifetime": 8797,
      "Ġstrike": 8798,
      "worth": 8799,
      "Ġmagnesium": 8800,
      "bar": 8801,
      "fast": 8802,
      "Ġsymptom": 8803,
      "Ġdimensions": 8804,
      "ĠDC": 8805,
      "teen": 8806,
      "American": 8807,
      "Last": 8808,
      "Ġpou": 8809,
      "Ġstabil": 8810,
      "Ġnursing": 8811,
      "igare": 8812,
      "orted": 8813,
      "Ġorganisations": 8814,
      "inflammatory": 8815,
      "Ġvisits": 8816,
      "ĠZealand": 8817,
      "Ġconsciousness": 8818,
      "BA": 8819,
      "Ġintr": 8820,
      "ĠEc": 8821,
      "Ġfluctu": 8822,
      "Ġstrengths": 8823,
      "Ġeditor": 8824,
      "itate": 8825,
      "Ġwelfare": 8826,
      "Ġinclusion": 8827,
      "Ġunc": 8828,
      "Ġpoem": 8829,
      "Ġincredibly": 8830,
      "Ġlib": 8831,
      "ilst": 8832,
      "Ġmature": 8833,
      "Ġassignment": 8834,
      "Ġshoes": 8835,
      "Col": 8836,
      "including": 8837,
      "inals": 8838,
      "ployment": 8839,
      "Ġreaches": 8840,
      "ĠShould": 8841,
      "Ġcontinuously": 8842,
      "iating": 8843,
      "ĠMen": 8844,
      "ĠHindu": 8845,
      "Ġpollut": 8846,
      "icular": 8847,
      "Ġskilled": 8848,
      "Ġcalculated": 8849,
      "Ġboy": 8850,
      "ĠBill": 8851,
      "Ġanalytics": 8852,
      "Ġrefrig": 8853,
      "Ġgranted": 8854,
      "Ġfibers": 8855,
      "ourse": 8856,
      "section": 8857,
      "Ġshares": 8858,
      "Ġpreca": 8859,
      "Ġviral": 8860,
      "ĠFort": 8861,
      "Ġinspire": 8862,
      "irth": 8863,
      "Ġthesis": 8864,
      "Ġcontamination": 8865,
      "Ġintelligent": 8866,
      "Ben": 8867,
      "azine": 8868,
      "ols": 8869,
      "ĠVer": 8870,
      "Ġparad": 8871,
      "Ġbills": 8872,
      "Ġofficers": 8873,
      "def": 8874,
      "Ġaccompanied": 8875,
      "Ġrespectively": 8876,
      "ĠYes": 8877,
      "ivestock": 8878,
      "Ġimagination": 8879,
      "ieval": 8880,
      "Ġenemy": 8881,
      "asma": 8882,
      "Ġglobally": 8883,
      "Ġarguments": 8884,
      "front": 8885,
      "Ġdive": 8886,
      "Ġsophisticated": 8887,
      "ĠParty": 8888,
      "ĠPolicy": 8889,
      "sell": 8890,
      "Ġrecording": 8891,
      "Ġneuro": 8892,
      "Ġcombine": 8893,
      "Ġappet": 8894,
      "Ġtransmitted": 8895,
      "Ġtough": 8896,
      "Ġacting": 8897,
      "Ġimbal": 8898,
      "Ġviewed": 8899,
      "orms": 8900,
      "Ġdisposal": 8901,
      "atively": 8902,
      "Ġlogic": 8903,
      "Ġsatisfaction": 8904,
      "Ġtherm": 8905,
      "Ġvom": 8906,
      "plate": 8907,
      "Ġbless": 8908,
      "Ġlinear": 8909,
      "Ġproceed": 8910,
      "Ġ400": 8911,
      "oices": 8912,
      "ĠTherapy": 8913,
      "ĠChat": 8914,
      "oving": 8915,
      "Ġexplicit": 8916,
      "Ġconqu": 8917,
      "ailed": 8918,
      "ĠAtlantic": 8919,
      "Ġrealistic": 8920,
      "ĠSustainable": 8921,
      "Ġinspiration": 8922,
      "uh": 8923,
      "Ġdiagnose": 8924,
      "ĠSTEM": 8925,
      "Ġtrace": 8926,
      "rection": 8927,
      "ĠApplic": 8928,
      "Ġantioxidants": 8929,
      "pled": 8930,
      "ogenic": 8931,
      "rosion": 8932,
      "alleng": 8933,
      "nea": 8934,
      "backs": 8935,
      "Ġlifespan": 8936,
      "grade": 8937,
      "ĠConservation": 8938,
      "Ġunders": 8939,
      "copy": 8940,
      "inger": 8941,
      "Ġversatile": 8942,
      "OL": 8943,
      "Ġorth": 8944,
      "Ġcrew": 8945,
      "Ġdelicate": 8946,
      "44": 8947,
      "ĠDen": 8948,
      "Ġboat": 8949,
      "Ġpolar": 8950,
      "Ġwellbeing": 8951,
      "Ġhaven": 8952,
      "Ġmeetings": 8953,
      "uro": 8954,
      "Ġplane": 8955,
      "Ġcycles": 8956,
      "Ġleak": 8957,
      "iac": 8958,
      "Ġtob": 8959,
      "Expl": 8960,
      "ĠMer": 8961,
      "ĠIntelligence": 8962,
      "Ġwonderful": 8963,
      "Ġgovernance": 8964,
      "Ġwatering": 8965,
      "Aut": 8966,
      "sters": 8967,
      "Ġpupp": 8968,
      "Ġorbit": 8969,
      "Ġcream": 8970,
      "Ġknee": 8971,
      "ĠInteg": 8972,
      "aved": 8973,
      "Ġrobots": 8974,
      "ĠTre": 8975,
      "Ġaccomplish": 8976,
      "Ġprincipal": 8977,
      "ĠIran": 8978,
      "Ġdominant": 8979,
      "Ġcommunications": 8980,
      "Ġpursue": 8981,
      "specific": 8982,
      "Ġstraw": 8983,
      "urning": 8984,
      "ura": 8985,
      "from": 8986,
      "ĠHead": 8987,
      "orus": 8988,
      "ĠPrinc": 8989,
      "She": 8990,
      "aceutical": 8991,
      "Ġadolesc": 8992,
      "onents": 8993,
      "ĠScotland": 8994,
      "Car": 8995,
      "Ġcareg": 8996,
      "Ġextension": 8997,
      "Ġlegit": 8998,
      "Ġdirections": 8999,
      "Ġpersonnel": 9000,
      "ĠMaterial": 9001,
      "ĠStar": 9002,
      "Ġenforcement": 9003,
      "Ġrooms": 9004,
      "Ġmembrane": 9005,
      "Like": 9006,
      "Ġresc": 9007,
      "Ġtongue": 9008,
      "Ġreflection": 9009,
      "Ġtriggers": 9010,
      "ĠCard": 9011,
      "ĠMinister": 9012,
      "Ġautomated": 9013,
      "Ġgrounds": 9014,
      "ĠRom": 9015,
      "Ġestablishment": 9016,
      "Ġoptical": 9017,
      "SL": 9018,
      "adow": 9019,
      "ĠRock": 9020,
      "otypes": 9021,
      "ĠMicrosoft": 9022,
      "ĠWriting": 9023,
      "iosity": 9024,
      "Ġshade": 9025,
      "ĠDom": 9026,
      "Ġparticipating": 9027,
      "Ġempty": 9028,
      "ricks": 9029,
      "ĠLast": 9030,
      "ĠBrown": 9031,
      "Ġspreading": 9032,
      "Ġwhenever": 9033,
      "Ġpasseng": 9034,
      "Ġworship": 9035,
      "ĠHand": 9036,
      "Ġdirected": 9037,
      "ranean": 9038,
      "Ġalive": 9039,
      "Ġtobacco": 9040,
      "Ġgate": 9041,
      "Ġmemories": 9042,
      "ĠArticle": 9043,
      "Ġenormous": 9044,
      "Ġstructured": 9045,
      "Ġenerg": 9046,
      "shaped": 9047,
      "Ġalleviate": 9048,
      "Ġacquired": 9049,
      "Ġextends": 9050,
      "Ġclaimed": 9051,
      "Ġordinary": 9052,
      "ĠProduct": 9053,
      "Ġconducting": 9054,
      "nia": 9055,
      "Ġquantities": 9056,
      "Ġpreservation": 9057,
      "Ġheal": 9058,
      "Ġincredible": 9059,
      "Ġtowns": 9060,
      "ĠSupreme": 9061,
      "Ġprevalent": 9062,
      "Ġtrem": 9063,
      "Ġquarter": 9064,
      "regular": 9065,
      "Ġmountains": 9066,
      "ĠDown": 9067,
      "ercise": 9068,
      "Ġcater": 9069,
      "icon": 9070,
      "Ġvisiting": 9071,
      "iations": 9072,
      "Ġaluminum": 9073,
      "Ġprosper": 9074,
      "Ġjew": 9075,
      "Ġexecutive": 9076,
      "Ġconfusion": 9077,
      "ertain": 9078,
      "Ġhybrid": 9079,
      "Ġsuspect": 9080,
      "ĠAR": 9081,
      "Ġorganisation": 9082,
      "iscipl": 9083,
      "Ġlogical": 9084,
      "Ġseemed": 9085,
      "Ġtelevision": 9086,
      "Ġrubber": 9087,
      "Just": 9088,
      "ĠRam": 9089,
      "Ġ2004": 9090,
      "Ġindicators": 9091,
      "kins": 9092,
      "ĠSimilarly": 9093,
      "Ġye": 9094,
      "ĠSleep": 9095,
      "peror": 9096,
      "Ġevil": 9097,
      "ĠSymptoms": 9098,
      "Ġfet": 9099,
      "formance": 9100,
      "Ġenzymes": 9101,
      "Ġlabour": 9102,
      "Ġperfectly": 9103,
      "Ġsplit": 9104,
      "Ġran": 9105,
      "fficiency": 9106,
      "Ġtoxins": 9107,
      "Ġelig": 9108,
      "Ġconsent": 9109,
      "otional": 9110,
      "Ġ189": 9111,
      "Ġenjoyed": 9112,
      "Ġorders": 9113,
      "Ġevolve": 9114,
      "Ġproved": 9115,
      "Ġseparated": 9116,
      "yer": 9117,
      "Ġterror": 9118,
      "ĠIndividual": 9119,
      "omer": 9120,
      "ailing": 9121,
      "esis": 9122,
      "ceans": 9123,
      "Ġstreets": 9124,
      "Ġcyl": 9125,
      "ĠSmall": 9126,
      "Ġclassical": 9127,
      "Ġentertainment": 9128,
      "Ġweaken": 9129,
      "Ġworker": 9130,
      "igan": 9131,
      "Ġscheme": 9132,
      "ĠChicago": 9133,
      "Ġmodule": 9134,
      "Ġhonest": 9135,
      "Ġliterary": 9136,
      "Ġimmunity": 9137,
      "Ġattitudes": 9138,
      "Ġimmense": 9139,
      "Ġplanted": 9140,
      "isting": 9141,
      "Ġexpanding": 9142,
      "Ġanger": 9143,
      "Ġconcluded": 9144,
      "Ġgravity": 9145,
      "agen": 9146,
      "df": 9147,
      "Ġpotassium": 9148,
      "Ġalert": 9149,
      "MI": 9150,
      "Ġloans": 9151,
      "ulates": 9152,
      "Ġencl": 9153,
      "Ġdischarge": 9154,
      "neum": 9155,
      "Ġpipes": 9156,
      "ĠRest": 9157,
      "Ġinfant": 9158,
      "Ġpod": 9159,
      "uits": 9160,
      "Ġtang": 9161,
      "ĠDou": 9162,
      "Ġmothers": 9163,
      "Ġpersistent": 9164,
      "Ġcheese": 9165,
      "ĠDistrict": 9166,
      "Ġoste": 9167,
      "Ġspoken": 9168,
      "ĠBlood": 9169,
      "Ġmetabolic": 9170,
      "cribe": 9171,
      "bration": 9172,
      "Ġdisturb": 9173,
      "rix": 9174,
      "Eng": 9175,
      "Ġneglect": 9176,
      "Ġgest": 9177,
      "Ġimpressive": 9178,
      "Ġrational": 9179,
      "acent": 9180,
      "Ġgardening": 9181,
      "Ġwelding": 9182,
[...]
